{
  "version": "1.0",
  "truncation": null,
  "padding": null,
  "added_tokens": [
    {
      "id": 0,
      "content": "[UNK]",
      "single_word": false,
      "lstrip": false,
      "rstrip": false,
      "normalized": false,
      "special": true
    },
    {
      "id": 1,
      "content": "[CLS]",
      "single_word": false,
      "lstrip": false,
      "rstrip": false,
      "normalized": false,
      "special": true
    },
    {
      "id": 2,
      "content": "[SEP]",
      "single_word": false,
      "lstrip": false,
      "rstrip": false,
      "normalized": false,
      "special": true
    },
    {
      "id": 3,
      "content": "[PAD]",
      "single_word": false,
      "lstrip": false,
      "rstrip": false,
      "normalized": false,
      "special": true
    },
    {
      "id": 4,
      "content": "[MASK]",
      "single_word": false,
      "lstrip": false,
      "rstrip": false,
      "normalized": false,
      "special": true
    }
  ],
  "normalizer": {
    "type": "Sequence",
    "normalizers": [
      {
        "type": "NFD"
      },
      {
        "type": "Lowercase"
      },
      {
        "type": "StripAccents"
      }
    ]
  },
  "pre_tokenizer": {
    "type": "Sequence",
    "pretokenizers": [
      {
        "type": "Whitespace"
      },
      {
        "type": "Digits",
        "individual_digits": true
      }
    ]
  },
  "post_processor": {
    "type": "TemplateProcessing",
    "single": [
      {
        "SpecialToken": {
          "id": "[CLS]",
          "type_id": 0
        }
      },
      {
        "Sequence": {
          "id": "A",
          "type_id": 0
        }
      },
      {
        "SpecialToken": {
          "id": "[SEP]",
          "type_id": 0
        }
      }
    ],
    "pair": [
      {
        "SpecialToken": {
          "id": "[CLS]",
          "type_id": 0
        }
      },
      {
        "Sequence": {
          "id": "A",
          "type_id": 0
        }
      },
      {
        "SpecialToken": {
          "id": "[SEP]",
          "type_id": 0
        }
      },
      {
        "Sequence": {
          "id": "B",
          "type_id": 1
        }
      },
      {
        "SpecialToken": {
          "id": "[SEP]",
          "type_id": 1
        }
      }
    ],
    "special_tokens": {
      "[CLS]": {
        "id": "[CLS]",
        "ids": [
          1
        ],
        "tokens": [
          "[CLS]"
        ]
      },
      "[SEP]": {
        "id": "[SEP]",
        "ids": [
          2
        ],
        "tokens": [
          "[SEP]"
        ]
      }
    }
  },
  "decoder": null,
  "model": {
    "type": "WordPiece",
    "unk_token": "[UNK]",
    "continuing_subword_prefix": "##",
    "max_input_chars_per_word": 100,
    "vocab": {
      "[UNK]": 0,
      "[CLS]": 1,
      "[SEP]": 2,
      "[PAD]": 3,
      "[MASK]": 4,
      "\u0007": 5,
      "!": 6,
      "\"": 7,
      "#": 8,
      "$": 9,
      "%": 10,
      "&": 11,
      "'": 12,
      "(": 13,
      ")": 14,
      "*": 15,
      "+": 16,
      ",": 17,
      "-": 18,
      ".": 19,
      "/": 20,
      "0": 21,
      "1": 22,
      "2": 23,
      "3": 24,
      "4": 25,
      "5": 26,
      "6": 27,
      "7": 28,
      "8": 29,
      "9": 30,
      ":": 31,
      ";": 32,
      "<": 33,
      "=": 34,
      ">": 35,
      "?": 36,
      "@": 37,
      "\\": 38,
      "^": 39,
      "`": 40,
      "a": 41,
      "b": 42,
      "c": 43,
      "d": 44,
      "e": 45,
      "f": 46,
      "g": 47,
      "h": 48,
      "i": 49,
      "j": 50,
      "k": 51,
      "l": 52,
      "m": 53,
      "n": 54,
      "o": 55,
      "p": 56,
      "q": 57,
      "r": 58,
      "s": 59,
      "t": 60,
      "u": 61,
      "v": 62,
      "w": 63,
      "x": 64,
      "y": 65,
      "z": 66,
      "{": 67,
      "|": 68,
      "}": 69,
      "~": 70,
      "": 71,
      "": 72,
      "": 73,
      "": 74,
      "": 75,
      "": 76,
      "": 77,
      "": 78,
      "": 79,
      "": 80,
      "": 81,
      "": 82,
      "": 83,
      "": 84,
      "": 85,
      "": 86,
      "": 87,
      "": 88,
      "": 89,
      "¡": 90,
      "¢": 91,
      "£": 92,
      "¤": 93,
      "¥": 94,
      "¦": 95,
      "§": 96,
      "¨": 97,
      "©": 98,
      "ª": 99,
      "«": 100,
      "¬": 101,
      "­": 102,
      "®": 103,
      "¯": 104,
      "°": 105,
      "±": 106,
      "²": 107,
      "³": 108,
      "´": 109,
      "µ": 110,
      "¶": 111,
      "·": 112,
      "¸": 113,
      "¹": 114,
      "º": 115,
      "»": 116,
      "¼": 117,
      "½": 118,
      "¾": 119,
      "¿": 120,
      "×": 121,
      "ß": 122,
      "æ": 123,
      "ð": 124,
      "÷": 125,
      "ø": 126,
      "þ": 127,
      "đ": 128,
      "ħ": 129,
      "ı": 130,
      "ĸ": 131,
      "ł": 132,
      "ŋ": 133,
      "œ": 134,
      "ŧ": 135,
      "ſ": 136,
      "ƃ": 137,
      "ƒ": 138,
      "ƙ": 139,
      "ǁ": 140,
      "ǝ": 141,
      "ɑ": 142,
      "ɒ": 143,
      "ɓ": 144,
      "ɔ": 145,
      "ɕ": 146,
      "ɖ": 147,
      "ɗ": 148,
      "ə": 149,
      "ɛ": 150,
      "ɜ": 151,
      "ɟ": 152,
      "ɡ": 153,
      "ɣ": 154,
      "ɤ": 155,
      "ɨ": 156,
      "ɪ": 157,
      "ɯ": 158,
      "ɰ": 159,
      "ɲ": 160,
      "ɴ": 161,
      "ɸ": 162,
      "ɹ": 163,
      "ʀ": 164,
      "ʁ": 165,
      "ʃ": 166,
      "ʊ": 167,
      "ʋ": 168,
      "ʌ": 169,
      "ʑ": 170,
      "ʒ": 171,
      "ʔ": 172,
      "ʕ": 173,
      "ʰ": 174,
      "ʲ": 175,
      "ʷ": 176,
      "ʹ": 177,
      "ʻ": 178,
      "ʼ": 179,
      "ʽ": 180,
      "ʾ": 181,
      "ʿ": 182,
      "ˁ": 183,
      "˂": 184,
      "˃": 185,
      "ˆ": 186,
      "ˇ": 187,
      "ˈ": 188,
      "ˌ": 189,
      "ː": 190,
      "˙": 191,
      "˚": 192,
      "˜": 193,
      "ˤ": 194,
      "΄": 195,
      "α": 196,
      "β": 197,
      "γ": 198,
      "δ": 199,
      "ε": 200,
      "ζ": 201,
      "η": 202,
      "θ": 203,
      "ι": 204,
      "κ": 205,
      "λ": 206,
      "μ": 207,
      "ν": 208,
      "ξ": 209,
      "ο": 210,
      "π": 211,
      "ρ": 212,
      "ς": 213,
      "σ": 214,
      "τ": 215,
      "υ": 216,
      "φ": 217,
      "χ": 218,
      "ψ": 219,
      "ω": 220,
      "ϑ": 221,
      "ϒ": 222,
      "ϕ": 223,
      "ϙ": 224,
      "ϛ": 225,
      "ϵ": 226,
      "а": 227,
      "б": 228,
      "в": 229,
      "г": 230,
      "д": 231,
      "е": 232,
      "ж": 233,
      "з": 234,
      "и": 235,
      "к": 236,
      "л": 237,
      "м": 238,
      "н": 239,
      "о": 240,
      "п": 241,
      "р": 242,
      "с": 243,
      "т": 244,
      "у": 245,
      "ф": 246,
      "х": 247,
      "ц": 248,
      "ч": 249,
      "ш": 250,
      "щ": 251,
      "ъ": 252,
      "ы": 253,
      "ь": 254,
      "э": 255,
      "ю": 256,
      "я": 257,
      "ђ": 258,
      "є": 259,
      "ѕ": 260,
      "і": 261,
      "ј": 262,
      "љ": 263,
      "њ": 264,
      "ћ": 265,
      "ѣ": 266,
      "ѳ": 267,
      "ѵ": 268,
      "ґ": 269,
      "ғ": 270,
      "ҕ": 271,
      "қ": 272,
      "ң": 273,
      "ҫ": 274,
      "ү": 275,
      "ұ": 276,
      "ҳ": 277,
      "ҷ": 278,
      "ӄ": 279,
      "ә": 280,
      "ө": 281,
      "ԥ": 282,
      "ա": 283,
      "բ": 284,
      "գ": 285,
      "դ": 286,
      "ե": 287,
      "զ": 288,
      "է": 289,
      "ը": 290,
      "թ": 291,
      "ի": 292,
      "լ": 293,
      "խ": 294,
      "ծ": 295,
      "կ": 296,
      "հ": 297,
      "ղ": 298,
      "ճ": 299,
      "մ": 300,
      "յ": 301,
      "ն": 302,
      "շ": 303,
      "ո": 304,
      "չ": 305,
      "պ": 306,
      "ջ": 307,
      "ռ": 308,
      "ս": 309,
      "վ": 310,
      "տ": 311,
      "ր": 312,
      "ց": 313,
      "ւ": 314,
      "փ": 315,
      "ք": 316,
      "և": 317,
      "־": 318,
      "א": 319,
      "ב": 320,
      "ג": 321,
      "ד": 322,
      "ה": 323,
      "ו": 324,
      "ז": 325,
      "ח": 326,
      "ט": 327,
      "י": 328,
      "כ": 329,
      "ל": 330,
      "ם": 331,
      "מ": 332,
      "ן": 333,
      "נ": 334,
      "ס": 335,
      "ע": 336,
      "פ": 337,
      "ץ": 338,
      "צ": 339,
      "ק": 340,
      "ר": 341,
      "ש": 342,
      "ת": 343,
      "ײ": 344,
      "،": 345,
      "؛": 346,
      "؟": 347,
      "ء": 348,
      "ا": 349,
      "ب": 350,
      "ة": 351,
      "ت": 352,
      "ث": 353,
      "ج": 354,
      "ح": 355,
      "خ": 356,
      "د": 357,
      "ذ": 358,
      "ر": 359,
      "ز": 360,
      "س": 361,
      "ش": 362,
      "ص": 363,
      "ض": 364,
      "ط": 365,
      "ظ": 366,
      "ع": 367,
      "غ": 368,
      "ـ": 369,
      "ف": 370,
      "ق": 371,
      "ك": 372,
      "ل": 373,
      "م": 374,
      "ن": 375,
      "ه": 376,
      "و": 377,
      "ى": 378,
      "ي": 379,
      "٭": 380,
      "ٱ": 381,
      "پ": 382,
      "چ": 383,
      "ډ": 384,
      "ڑ": 385,
      "ڕ": 386,
      "ژ": 387,
      "ښ": 388,
      "ک": 389,
      "ڭ": 390,
      "گ": 391,
      "ں": 392,
      "ھ": 393,
      "ہ": 394,
      "ۇ": 395,
      "ۈ": 396,
      "ۋ": 397,
      "ی": 398,
      "ێ": 399,
      "ے": 400,
      "ە": 401,
      "۰": 402,
      "۱": 403,
      "۲": 404,
      "۵": 405,
      "ܐ": 406,
      "ܒ": 407,
      "ܓ": 408,
      "ܕ": 409,
      "ܝ": 410,
      "ܠ": 411,
      "ܡ": 412,
      "ܢ": 413,
      "ܣ": 414,
      "ܥ": 415,
      "ܪ": 416,
      "ހ": 417,
      "ނ": 418,
      "ރ": 419,
      "ބ": 420,
      "އ": 421,
      "ވ": 422,
      "މ": 423,
      "ދ": 424,
      "ލ": 425,
      "ގ": 426,
      "ސ": 427,
      "ޔ": 428,
      "ޖ": 429,
      "ޚ": 430,
      "ޠ": 431,
      "अ": 432,
      "आ": 433,
      "इ": 434,
      "उ": 435,
      "ए": 436,
      "ऑ": 437,
      "क": 438,
      "ख": 439,
      "ग": 440,
      "च": 441,
      "छ": 442,
      "ज": 443,
      "ञ": 444,
      "ट": 445,
      "ठ": 446,
      "ड": 447,
      "ढ": 448,
      "ण": 449,
      "त": 450,
      "थ": 451,
      "द": 452,
      "ध": 453,
      "न": 454,
      "प": 455,
      "फ": 456,
      "ब": 457,
      "भ": 458,
      "म": 459,
      "य": 460,
      "र": 461,
      "ल": 462,
      "ळ": 463,
      "व": 464,
      "श": 465,
      "ष": 466,
      "स": 467,
      "ह": 468,
      "ऽ": 469,
      "ॐ": 470,
      "॥": 471,
      "আ": 472,
      "ই": 473,
      "উ": 474,
      "এ": 475,
      "ক": 476,
      "খ": 477,
      "গ": 478,
      "ঘ": 479,
      "ঙ": 480,
      "চ": 481,
      "ছ": 482,
      "জ": 483,
      "ট": 484,
      "ঢ": 485,
      "ত": 486,
      "দ": 487,
      "ধ": 488,
      "ন": 489,
      "প": 490,
      "ফ": 491,
      "ব": 492,
      "ভ": 493,
      "ম": 494,
      "য": 495,
      "র": 496,
      "ল": 497,
      "শ": 498,
      "ষ": 499,
      "স": 500,
      "হ": 501,
      "ৰ": 502,
      "ৱ": 503,
      "৳": 504,
      "அ": 505,
      "ஆ": 506,
      "இ": 507,
      "ஈ": 508,
      "உ": 509,
      "ஊ": 510,
      "எ": 511,
      "ஏ": 512,
      "ஐ": 513,
      "ஒ": 514,
      "க": 515,
      "ங": 516,
      "ச": 517,
      "ஜ": 518,
      "ஞ": 519,
      "ட": 520,
      "ண": 521,
      "த": 522,
      "ந": 523,
      "ன": 524,
      "ப": 525,
      "ம": 526,
      "ய": 527,
      "ர": 528,
      "ற": 529,
      "ல": 530,
      "ள": 531,
      "ழ": 532,
      "வ": 533,
      "ஷ": 534,
      "ஸ": 535,
      "క": 536,
      "చ": 537,
      "ట": 538,
      "త": 539,
      "ద": 540,
      "న": 541,
      "ప": 542,
      "భ": 543,
      "య": 544,
      "ర": 545,
      "ల": 546,
      "వ": 547,
      "శ": 548,
      "ಅ": 549,
      "ಕ": 550,
      "ಗ": 551,
      "ಚ": 552,
      "ಟ": 553,
      "ಡ": 554,
      "ತ": 555,
      "ಥ": 556,
      "ದ": 557,
      "ಧ": 558,
      "ನ": 559,
      "ಬ": 560,
      "ಭ": 561,
      "ಮ": 562,
      "ಯ": 563,
      "ವ": 564,
      "ಶ": 565,
      "ಸ": 566,
      "ಹ": 567,
      "ക": 568,
      "ത": 569,
      "ന": 570,
      "പ": 571,
      "ഫ": 572,
      "ഭ": 573,
      "മ": 574,
      "യ": 575,
      "ര": 576,
      "റ": 577,
      "ല": 578,
      "ള": 579,
      "വ": 580,
      "ഷ": 581,
      "අ": 582,
      "ක": 583,
      "ත": 584,
      "ද": 585,
      "න": 586,
      "ම": 587,
      "ය": 588,
      "ර": 589,
      "ල": 590,
      "ව": 591,
      "ස": 592,
      "ก": 593,
      "ข": 594,
      "ฃ": 595,
      "ค": 596,
      "ฅ": 597,
      "ฆ": 598,
      "ง": 599,
      "จ": 600,
      "ฉ": 601,
      "ช": 602,
      "ซ": 603,
      "ฌ": 604,
      "ญ": 605,
      "ฎ": 606,
      "ฐ": 607,
      "ฑ": 608,
      "ฒ": 609,
      "ณ": 610,
      "ด": 611,
      "ต": 612,
      "ถ": 613,
      "ท": 614,
      "ธ": 615,
      "น": 616,
      "บ": 617,
      "ป": 618,
      "ผ": 619,
      "ฝ": 620,
      "พ": 621,
      "ฟ": 622,
      "ภ": 623,
      "ม": 624,
      "ย": 625,
      "ร": 626,
      "ฤ": 627,
      "ล": 628,
      "ว": 629,
      "ศ": 630,
      "ษ": 631,
      "ส": 632,
      "ห": 633,
      "ฬ": 634,
      "อ": 635,
      "ฮ": 636,
      "ะ": 637,
      "า": 638,
      "ำ": 639,
      "฿": 640,
      "เ": 641,
      "แ": 642,
      "โ": 643,
      "ใ": 644,
      "ไ": 645,
      "๑": 646,
      "๘": 647,
      "ກ": 648,
      "ງ": 649,
      "ນ": 650,
      "ພ": 651,
      "ມ": 652,
      "ຣ": 653,
      "ລ": 654,
      "ວ": 655,
      "ສ": 656,
      "ະ": 657,
      "າ": 658,
      "က": 659,
      "ခ": 660,
      "င": 661,
      "စ": 662,
      "ဆ": 663,
      "ဇ": 664,
      "ည": 665,
      "ဋ": 666,
      "တ": 667,
      "ထ": 668,
      "ဒ": 669,
      "ဓ": 670,
      "န": 671,
      "ပ": 672,
      "ဖ": 673,
      "ဗ": 674,
      "ဘ": 675,
      "မ": 676,
      "ယ": 677,
      "ရ": 678,
      "လ": 679,
      "ဝ": 680,
      "သ": 681,
      "ဟ": 682,
      "အ": 683,
      "ဣ": 684,
      "ა": 685,
      "ბ": 686,
      "გ": 687,
      "დ": 688,
      "ე": 689,
      "ვ": 690,
      "ზ": 691,
      "თ": 692,
      "ი": 693,
      "კ": 694,
      "ლ": 695,
      "მ": 696,
      "ნ": 697,
      "ო": 698,
      "პ": 699,
      "ჟ": 700,
      "რ": 701,
      "ს": 702,
      "ტ": 703,
      "უ": 704,
      "ფ": 705,
      "ქ": 706,
      "ღ": 707,
      "ყ": 708,
      "შ": 709,
      "ც": 710,
      "ძ": 711,
      "ხ": 712,
      "ჯ": 713,
      "ჲ": 714,
      "ჶ": 715,
      "ჷ": 716,
      "ჽ": 717,
      "ᄀ": 718,
      "ᄁ": 719,
      "ᄂ": 720,
      "ᄃ": 721,
      "ᄄ": 722,
      "ᄅ": 723,
      "ᄆ": 724,
      "ᄇ": 725,
      "ᄈ": 726,
      "ᄉ": 727,
      "ᄊ": 728,
      "ᄋ": 729,
      "ᄌ": 730,
      "ᄍ": 731,
      "ᄎ": 732,
      "ᄏ": 733,
      "ᄐ": 734,
      "ᄑ": 735,
      "ᄒ": 736,
      "ᅡ": 737,
      "ᅢ": 738,
      "ᅣ": 739,
      "ᅤ": 740,
      "ᅥ": 741,
      "ᅦ": 742,
      "ᅧ": 743,
      "ᅨ": 744,
      "ᅩ": 745,
      "ᅪ": 746,
      "ᅫ": 747,
      "ᅬ": 748,
      "ᅭ": 749,
      "ᅮ": 750,
      "ᅯ": 751,
      "ᅰ": 752,
      "ᅱ": 753,
      "ᅲ": 754,
      "ᅳ": 755,
      "ᅴ": 756,
      "ᅵ": 757,
      "ᆨ": 758,
      "ᆩ": 759,
      "ᆫ": 760,
      "ᆬ": 761,
      "ᆭ": 762,
      "ᆮ": 763,
      "ᆯ": 764,
      "ᆰ": 765,
      "ᆶ": 766,
      "ᆷ": 767,
      "ᆸ": 768,
      "ᆹ": 769,
      "ᆺ": 770,
      "ᆻ": 771,
      "ᆼ": 772,
      "ᆽ": 773,
      "ᆾ": 774,
      "ᇀ": 775,
      "ᇁ": 776,
      "ᇂ": 777,
      "ሀ": 778,
      "ል": 779,
      "ሕ": 780,
      "ሙ": 781,
      "ም": 782,
      "ር": 783,
      "ስ": 784,
      "ሻ": 785,
      "ቅ": 786,
      "ቆ": 787,
      "በ": 788,
      "ባ": 789,
      "ቤ": 790,
      "ተ": 791,
      "ት": 792,
      "ች": 793,
      "ና": 794,
      "ን": 795,
      "አ": 796,
      "ከ": 797,
      "ክ": 798,
      "ዊ": 799,
      "ዋ": 800,
      "ዝ": 801,
      "ይ": 802,
      "ደ": 803,
      "ዲ": 804,
      "ዳ": 805,
      "ድ": 806,
      "ዶ": 807,
      "ጉ": 808,
      "ጣ": 809,
      "ጻ": 810,
      "ᐨ": 811,
      "ក": 812,
      "ខ": 813,
      "គ": 814,
      "ង": 815,
      "ច": 816,
      "ឆ": 817,
      "ជ": 818,
      "ឈ": 819,
      "ញ": 820,
      "ដ": 821,
      "ឋ": 822,
      "ឌ": 823,
      "ណ": 824,
      "ត": 825,
      "ថ": 826,
      "ទ": 827,
      "ធ": 828,
      "ន": 829,
      "ប": 830,
      "ព": 831,
      "ម": 832,
      "យ": 833,
      "រ": 834,
      "ល": 835,
      "វ": 836,
      "ស": 837,
      "ហ": 838,
      "ឡ": 839,
      "អ": 840,
      "ឥ": 841,
      "ឦ": 842,
      "ឧ": 843,
      "២": 844,
      "៣": 845,
      "ᴅ": 846,
      "ᵗ": 847,
      "᾽": 848,
      "​": 849,
      "‌": 850,
      "‍": 851,
      "‎": 852,
      "‐": 853,
      "‑": 854,
      "‒": 855,
      "―": 856,
      "‖": 857,
      "‚": 858,
      "‛": 859,
      "„": 860,
      "†": 861,
      "‡": 862,
      "•": 863,
      "‥": 864,
      "…": 865,
      "‧": 866,
      "‬": 867,
      "‭": 868,
      "‰": 869,
      "′": 870,
      "″": 871,
      "‹": 872,
      "›": 873,
      "‼": 874,
      "⁄": 875,
      "⁠": 876,
      "⁡": 877,
      "⁰": 878,
      "⁹": 879,
      "₂": 880,
      "₋": 881,
      "₣": 882,
      "₤": 883,
      "₨": 884,
      "₩": 885,
      "₪": 886,
      "₫": 887,
      "€": 888,
      "₱": 889,
      "₹": 890,
      "₼": 891,
      "℃": 892,
      "℉": 893,
      "ℍ": 894,
      "ℏ": 895,
      "ℓ": 896,
      "№": 897,
      "ℝ": 898,
      "™": 899,
      "⅓": 900,
      "⅔": 901,
      "⅛": 902,
      "⅜": 903,
      "⅝": 904,
      "⅞": 905,
      "ⅰ": 906,
      "ⅱ": 907,
      "ⅲ": 908,
      "ⅵ": 909,
      "←": 910,
      "↑": 911,
      "→": 912,
      "↓": 913,
      "↔": 914,
      "↵": 915,
      "↹": 916,
      "↽": 917,
      "⇀": 918,
      "⇌": 919,
      "⇒": 920,
      "⇧": 921,
      "⇭": 922,
      "∀": 923,
      "∂": 924,
      "∃": 925,
      "∅": 926,
      "∆": 927,
      "∇": 928,
      "∈": 929,
      "∏": 930,
      "∑": 931,
      "−": 932,
      "∓": 933,
      "∖": 934,
      "∗": 935,
      "∘": 936,
      "√": 937,
      "∝": 938,
      "∞": 939,
      "∠": 940,
      "∣": 941,
      "∥": 942,
      "∧": 943,
      "∨": 944,
      "∩": 945,
      "∪": 946,
      "∫": 947,
      "∮": 948,
      "∼": 949,
      "≅": 950,
      "≈": 951,
      "≡": 952,
      "≤": 953,
      "≥": 954,
      "≪": 955,
      "≫": 956,
      "≶": 957,
      "⊂": 958,
      "⊆": 959,
      "⊊": 960,
      "⊕": 961,
      "⊗": 962,
      "⊙": 963,
      "⊞": 964,
      "⊥": 965,
      "⋅": 966,
      "⋯": 967,
      "⌈": 968,
      "⌉": 969,
      "⌊": 970,
      "⌋": 971,
      "␀": 972,
      "①": 973,
      "⑥": 974,
      "⑫": 975,
      "⑮": 976,
      "ⓒ": 977,
      "─": 978,
      "┴": 979,
      "■": 980,
      "□": 981,
      "▪": 982,
      "▮": 983,
      "△": 984,
      "◆": 985,
      "○": 986,
      "●": 987,
      "★": 988,
      "☆": 989,
      "☉": 990,
      "☞": 991,
      "☠": 992,
      "☰": 993,
      "♀": 994,
      "♗": 995,
      "♝": 996,
      "♠": 997,
      "♡": 998,
      "♥": 999,
      "♦": 1000,
      "♪": 1001,
      "♫": 1002,
      "♬": 1003,
      "♭": 1004,
      "♯": 1005,
      "♰": 1006,
      "✈": 1007,
      "❤": 1008,
      "➝": 1009,
      "⟨": 1010,
      "⟩": 1011,
      "⟶": 1012,
      "ⰶ": 1013,
      "ⲉ": 1014,
      "ⲏ": 1015,
      "ⲓ": 1016,
      "ⲙ": 1017,
      "ⲛ": 1018,
      "ⲣ": 1019,
      "ⲭ": 1020,
      "ⴰ": 1021,
      "ⴷ": 1022,
      "ⴸ": 1023,
      "ⴹ": 1024,
      "ⴾ": 1025,
      "ⵄ": 1026,
      "ⵉ": 1027,
      "ⵍ": 1028,
      "ⵎ": 1029,
      "ⵏ": 1030,
      "ⵓ": 1031,
      "ⵔ": 1032,
      "ⵙ": 1033,
      "ⵜ": 1034,
      "ⵢ": 1035,
      "ⵣ": 1036,
      "⹋": 1037,
      "、": 1038,
      "。": 1039,
      "々": 1040,
      "〈": 1041,
      "〉": 1042,
      "《": 1043,
      "》": 1044,
      "「": 1045,
      "」": 1046,
      "『": 1047,
      "』": 1048,
      "【": 1049,
      "】": 1050,
      "〒": 1051,
      "〔": 1052,
      "〕": 1053,
      "〜": 1054,
      "ぁ": 1055,
      "あ": 1056,
      "ぃ": 1057,
      "い": 1058,
      "ぅ": 1059,
      "う": 1060,
      "え": 1061,
      "お": 1062,
      "か": 1063,
      "き": 1064,
      "く": 1065,
      "け": 1066,
      "こ": 1067,
      "さ": 1068,
      "し": 1069,
      "す": 1070,
      "せ": 1071,
      "そ": 1072,
      "た": 1073,
      "ち": 1074,
      "っ": 1075,
      "つ": 1076,
      "て": 1077,
      "と": 1078,
      "な": 1079,
      "に": 1080,
      "ぬ": 1081,
      "ね": 1082,
      "の": 1083,
      "は": 1084,
      "ひ": 1085,
      "ふ": 1086,
      "へ": 1087,
      "ほ": 1088,
      "ま": 1089,
      "み": 1090,
      "む": 1091,
      "め": 1092,
      "も": 1093,
      "ゃ": 1094,
      "や": 1095,
      "ゅ": 1096,
      "ゆ": 1097,
      "ょ": 1098,
      "よ": 1099,
      "ら": 1100,
      "り": 1101,
      "る": 1102,
      "れ": 1103,
      "ろ": 1104,
      "わ": 1105,
      "ゐ": 1106,
      "ゑ": 1107,
      "を": 1108,
      "ん": 1109,
      "ゝ": 1110,
      "ァ": 1111,
      "ア": 1112,
      "ィ": 1113,
      "イ": 1114,
      "ゥ": 1115,
      "ウ": 1116,
      "ェ": 1117,
      "エ": 1118,
      "ォ": 1119,
      "オ": 1120,
      "カ": 1121,
      "キ": 1122,
      "ク": 1123,
      "ケ": 1124,
      "コ": 1125,
      "サ": 1126,
      "シ": 1127,
      "ス": 1128,
      "セ": 1129,
      "ソ": 1130,
      "タ": 1131,
      "チ": 1132,
      "ッ": 1133,
      "ツ": 1134,
      "テ": 1135,
      "ト": 1136,
      "ナ": 1137,
      "ニ": 1138,
      "ヌ": 1139,
      "ネ": 1140,
      "ノ": 1141,
      "ハ": 1142,
      "ヒ": 1143,
      "フ": 1144,
      "ヘ": 1145,
      "ホ": 1146,
      "マ": 1147,
      "ミ": 1148,
      "ム": 1149,
      "メ": 1150,
      "モ": 1151,
      "ャ": 1152,
      "ヤ": 1153,
      "ュ": 1154,
      "ユ": 1155,
      "ョ": 1156,
      "ヨ": 1157,
      "ラ": 1158,
      "リ": 1159,
      "ル": 1160,
      "レ": 1161,
      "ロ": 1162,
      "ワ": 1163,
      "ヱ": 1164,
      "ン": 1165,
      "ヶ": 1166,
      "・": 1167,
      "ー": 1168,
      "ㄞ": 1169,
      "ㄱ": 1170,
      "ㄹ": 1171,
      "ㅁ": 1172,
      "ㅏ": 1173,
      "ㅐ": 1174,
      "ㅑ": 1175,
      "ㅓ": 1176,
      "ㅕ": 1177,
      "ㅗ": 1178,
      "ㅜ": 1179,
      "ㅡ": 1180,
      "ㅣ": 1181,
      "ㆍ": 1182,
      "ㇱ": 1183,
      "ㇼ": 1184,
      "㊙": 1185,
      "㐌": 1186,
      "一": 1187,
      "丁": 1188,
      "七": 1189,
      "万": 1190,
      "丈": 1191,
      "三": 1192,
      "上": 1193,
      "下": 1194,
      "不": 1195,
      "与": 1196,
      "专": 1197,
      "世": 1198,
      "丙": 1199,
      "业": 1200,
      "东": 1201,
      "丞": 1202,
      "両": 1203,
      "两": 1204,
      "严": 1205,
      "並": 1206,
      "丧": 1207,
      "丨": 1208,
      "个": 1209,
      "中": 1210,
      "丰": 1211,
      "临": 1212,
      "丸": 1213,
      "丹": 1214,
      "为": 1215,
      "主": 1216,
      "丽": 1217,
      "举": 1218,
      "乃": 1219,
      "久": 1220,
      "义": 1221,
      "之": 1222,
      "乎": 1223,
      "乐": 1224,
      "乗": 1225,
      "乘": 1226,
      "乙": 1227,
      "九": 1228,
      "也": 1229,
      "乡": 1230,
      "书": 1231,
      "乱": 1232,
      "乳": 1233,
      "乾": 1234,
      "亀": 1235,
      "了": 1236,
      "予": 1237,
      "争": 1238,
      "事": 1239,
      "二": 1240,
      "于": 1241,
      "云": 1242,
      "互": 1243,
      "五": 1244,
      "井": 1245,
      "亚": 1246,
      "些": 1247,
      "亜": 1248,
      "亞": 1249,
      "亡": 1250,
      "交": 1251,
      "亦": 1252,
      "产": 1253,
      "京": 1254,
      "亭": 1255,
      "亮": 1256,
      "亲": 1257,
      "人": 1258,
      "亿": 1259,
      "什": 1260,
      "仁": 1261,
      "仆": 1262,
      "今": 1263,
      "介": 1264,
      "仍": 1265,
      "从": 1266,
      "仕": 1267,
      "他": 1268,
      "付": 1269,
      "仙": 1270,
      "代": 1271,
      "令": 1272,
      "以": 1273,
      "仪": 1274,
      "们": 1275,
      "仮": 1276,
      "仲": 1277,
      "件": 1278,
      "任": 1279,
      "份": 1280,
      "企": 1281,
      "伊": 1282,
      "伏": 1283,
      "伐": 1284,
      "休": 1285,
      "众": 1286,
      "优": 1287,
      "会": 1288,
      "伝": 1289,
      "伟": 1290,
      "传": 1291,
      "伤": 1292,
      "伯": 1293,
      "伴": 1294,
      "伸": 1295,
      "似": 1296,
      "佃": 1297,
      "但": 1298,
      "佈": 1299,
      "位": 1300,
      "住": 1301,
      "佐": 1302,
      "佑": 1303,
      "体": 1304,
      "佔": 1305,
      "何": 1306,
      "余": 1307,
      "佛": 1308,
      "作": 1309,
      "你": 1310,
      "佢": 1311,
      "佩": 1312,
      "佳": 1313,
      "併": 1314,
      "佶": 1315,
      "使": 1316,
      "侅": 1317,
      "來": 1318,
      "例": 1319,
      "侍": 1320,
      "侗": 1321,
      "侘": 1322,
      "供": 1323,
      "依": 1324,
      "価": 1325,
      "侨": 1326,
      "侯": 1327,
      "便": 1328,
      "係": 1329,
      "俄": 1330,
      "俊": 1331,
      "俗": 1332,
      "保": 1333,
      "信": 1334,
      "俣": 1335,
      "俨": 1336,
      "修": 1337,
      "俯": 1338,
      "俱": 1339,
      "俳": 1340,
      "俺": 1341,
      "倉": 1342,
      "個": 1343,
      "倍": 1344,
      "們": 1345,
      "候": 1346,
      "値": 1347,
      "倪": 1348,
      "倫": 1349,
      "倭": 1350,
      "倶": 1351,
      "值": 1352,
      "倾": 1353,
      "偃": 1354,
      "假": 1355,
      "偏": 1356,
      "做": 1357,
      "停": 1358,
      "健": 1359,
      "偵": 1360,
      "偶": 1361,
      "傑": 1362,
      "傘": 1363,
      "備": 1364,
      "催": 1365,
      "傳": 1366,
      "傷": 1367,
      "傾": 1368,
      "像": 1369,
      "僑": 1370,
      "僕": 1371,
      "僣": 1372,
      "僧": 1373,
      "儀": 1374,
      "儂": 1375,
      "億": 1376,
      "儒": 1377,
      "儚": 1378,
      "優": 1379,
      "儲": 1380,
      "儿": 1381,
      "元": 1382,
      "兄": 1383,
      "充": 1384,
      "兆": 1385,
      "先": 1386,
      "光": 1387,
      "克": 1388,
      "兌": 1389,
      "免": 1390,
      "児": 1391,
      "兔": 1392,
      "党": 1393,
      "兜": 1394,
      "入": 1395,
      "內": 1396,
      "全": 1397,
      "八": 1398,
      "公": 1399,
      "六": 1400,
      "兰": 1401,
      "共": 1402,
      "关": 1403,
      "兴": 1404,
      "兵": 1405,
      "其": 1406,
      "具": 1407,
      "典": 1408,
      "兼": 1409,
      "兽": 1410,
      "内": 1411,
      "円": 1412,
      "冉": 1413,
      "冊": 1414,
      "再": 1415,
      "冒": 1416,
      "写": 1417,
      "军": 1418,
      "冠": 1419,
      "冤": 1420,
      "冥": 1421,
      "冨": 1422,
      "冬": 1423,
      "冲": 1424,
      "决": 1425,
      "况": 1426,
      "冷": 1427,
      "凄": 1428,
      "准": 1429,
      "凌": 1430,
      "凛": 1431,
      "凡": 1432,
      "凤": 1433,
      "処": 1434,
      "凪": 1435,
      "凯": 1436,
      "凰": 1437,
      "凱": 1438,
      "出": 1439,
      "击": 1440,
      "函": 1441,
      "刀": 1442,
      "刃": 1443,
      "分": 1444,
      "切": 1445,
      "刊": 1446,
      "刑": 1447,
      "划": 1448,
      "列": 1449,
      "刘": 1450,
      "创": 1451,
      "初": 1452,
      "判": 1453,
      "別": 1454,
      "利": 1455,
      "刪": 1456,
      "别": 1457,
      "到": 1458,
      "制": 1459,
      "刷": 1460,
      "則": 1461,
      "剌": 1462,
      "前": 1463,
      "剑": 1464,
      "剛": 1465,
      "剣": 1466,
      "剧": 1467,
      "剩": 1468,
      "副": 1469,
      "創": 1470,
      "劇": 1471,
      "劉": 1472,
      "劍": 1473,
      "劒": 1474,
      "劔": 1475,
      "力": 1476,
      "办": 1477,
      "功": 1478,
      "加": 1479,
      "务": 1480,
      "劣": 1481,
      "动": 1482,
      "助": 1483,
      "劫": 1484,
      "劳": 1485,
      "労": 1486,
      "効": 1487,
      "劾": 1488,
      "勅": 1489,
      "勇": 1490,
      "動": 1491,
      "勘": 1492,
      "務": 1493,
      "勝": 1494,
      "勞": 1495,
      "勢": 1496,
      "勤": 1497,
      "勰": 1498,
      "勲": 1499,
      "勳": 1500,
      "包": 1501,
      "匕": 1502,
      "化": 1503,
      "北": 1504,
      "匙": 1505,
      "匠": 1506,
      "区": 1507,
      "医": 1508,
      "區": 1509,
      "十": 1510,
      "千": 1511,
      "升": 1512,
      "午": 1513,
      "卉": 1514,
      "半": 1515,
      "卍": 1516,
      "华": 1517,
      "协": 1518,
      "卑": 1519,
      "卒": 1520,
      "卓": 1521,
      "協": 1522,
      "单": 1523,
      "卖": 1524,
      "南": 1525,
      "単": 1526,
      "博": 1527,
      "占": 1528,
      "卡": 1529,
      "卦": 1530,
      "卫": 1531,
      "印": 1532,
      "危": 1533,
      "即": 1534,
      "却": 1535,
      "卷": 1536,
      "卻": 1537,
      "卿": 1538,
      "厅": 1539,
      "历": 1540,
      "厚": 1541,
      "原": 1542,
      "厥": 1543,
      "厳": 1544,
      "去": 1545,
      "县": 1546,
      "参": 1547,
      "又": 1548,
      "叉": 1549,
      "及": 1550,
      "友": 1551,
      "双": 1552,
      "反": 1553,
      "収": 1554,
      "发": 1555,
      "叔": 1556,
      "取": 1557,
      "受": 1558,
      "变": 1559,
      "叡": 1560,
      "口": 1561,
      "古": 1562,
      "句": 1563,
      "叩": 1564,
      "只": 1565,
      "叫": 1566,
      "召": 1567,
      "可": 1568,
      "台": 1569,
      "叱": 1570,
      "史": 1571,
      "右": 1572,
      "叶": 1573,
      "号": 1574,
      "司": 1575,
      "吃": 1576,
      "各": 1577,
      "合": 1578,
      "吉": 1579,
      "吊": 1580,
      "同": 1581,
      "名": 1582,
      "后": 1583,
      "吐": 1584,
      "向": 1585,
      "吕": 1586,
      "吗": 1587,
      "君": 1588,
      "否": 1589,
      "含": 1590,
      "吭": 1591,
      "吳": 1592,
      "吴": 1593,
      "吸": 1594,
      "吹": 1595,
      "吻": 1596,
      "吾": 1597,
      "呃": 1598,
      "呉": 1599,
      "告": 1600,
      "呎": 1601,
      "员": 1602,
      "周": 1603,
      "味": 1604,
      "呼": 1605,
      "命": 1606,
      "和": 1607,
      "咏": 1608,
      "咖": 1609,
      "咲": 1610,
      "咸": 1611,
      "哀": 1612,
      "品": 1613,
      "哈": 1614,
      "哉": 1615,
      "哋": 1616,
      "响": 1617,
      "員": 1618,
      "哪": 1619,
      "哭": 1620,
      "唄": 1621,
      "唆": 1622,
      "唐": 1623,
      "售": 1624,
      "唱": 1625,
      "商": 1626,
      "問": 1627,
      "啓": 1628,
      "啼": 1629,
      "善": 1630,
      "喆": 1631,
      "喋": 1632,
      "喜": 1633,
      "喫": 1634,
      "單": 1635,
      "喰": 1636,
      "営": 1637,
      "嗇": 1638,
      "嗟": 1639,
      "嗤": 1640,
      "嘉": 1641,
      "嘢": 1642,
      "噌": 1643,
      "器": 1644,
      "噴": 1645,
      "嚴": 1646,
      "四": 1647,
      "回": 1648,
      "因": 1649,
      "团": 1650,
      "団": 1651,
      "园": 1652,
      "囮": 1653,
      "囲": 1654,
      "図": 1655,
      "围": 1656,
      "固": 1657,
      "国": 1658,
      "图": 1659,
      "國": 1660,
      "圏": 1661,
      "園": 1662,
      "團": 1663,
      "土": 1664,
      "圣": 1665,
      "在": 1666,
      "地": 1667,
      "场": 1668,
      "圾": 1669,
      "址": 1670,
      "坂": 1671,
      "均": 1672,
      "坊": 1673,
      "坐": 1674,
      "坠": 1675,
      "坡": 1676,
      "坤": 1677,
      "垂": 1678,
      "垃": 1679,
      "型": 1680,
      "垣": 1681,
      "埃": 1682,
      "城": 1683,
      "域": 1684,
      "執": 1685,
      "培": 1686,
      "基": 1687,
      "埼": 1688,
      "堀": 1689,
      "堂": 1690,
      "堅": 1691,
      "堤": 1692,
      "堪": 1693,
      "報": 1694,
      "場": 1695,
      "塌": 1696,
      "塗": 1697,
      "塘": 1698,
      "塚": 1699,
      "塞": 1700,
      "塤": 1701,
      "塩": 1702,
      "塾": 1703,
      "境": 1704,
      "墓": 1705,
      "増": 1706,
      "墙": 1707,
      "增": 1708,
      "壁": 1709,
      "壇": 1710,
      "壊": 1711,
      "壌": 1712,
      "壘": 1713,
      "壞": 1714,
      "士": 1715,
      "壮": 1716,
      "声": 1717,
      "売": 1718,
      "壽": 1719,
      "处": 1720,
      "备": 1721,
      "変": 1722,
      "复": 1723,
      "夏": 1724,
      "夕": 1725,
      "外": 1726,
      "夙": 1727,
      "多": 1728,
      "夜": 1729,
      "夢": 1730,
      "大": 1731,
      "天": 1732,
      "太": 1733,
      "夫": 1734,
      "夭": 1735,
      "央": 1736,
      "失": 1737,
      "头": 1738,
      "夷": 1739,
      "夺": 1740,
      "奄": 1741,
      "奇": 1742,
      "奈": 1743,
      "奉": 1744,
      "奋": 1745,
      "奎": 1746,
      "奏": 1747,
      "奖": 1748,
      "奠": 1749,
      "奥": 1750,
      "奪": 1751,
      "女": 1752,
      "奴": 1753,
      "她": 1754,
      "好": 1755,
      "如": 1756,
      "妃": 1757,
      "妆": 1758,
      "妇": 1759,
      "妈": 1760,
      "妖": 1761,
      "妙": 1762,
      "妮": 1763,
      "妳": 1764,
      "妹": 1765,
      "妻": 1766,
      "姆": 1767,
      "姉": 1768,
      "始": 1769,
      "姐": 1770,
      "姑": 1771,
      "姓": 1772,
      "委": 1773,
      "姗": 1774,
      "姚": 1775,
      "姜": 1776,
      "姦": 1777,
      "姫": 1778,
      "姻": 1779,
      "威": 1780,
      "娃": 1781,
      "娘": 1782,
      "娛": 1783,
      "娜": 1784,
      "娱": 1785,
      "婁": 1786,
      "婆": 1787,
      "婚": 1788,
      "婧": 1789,
      "婷": 1790,
      "媛": 1791,
      "嫁": 1792,
      "嫌": 1793,
      "嬢": 1794,
      "嬬": 1795,
      "子": 1796,
      "孔": 1797,
      "字": 1798,
      "孚": 1799,
      "孝": 1800,
      "孟": 1801,
      "季": 1802,
      "孤": 1803,
      "学": 1804,
      "孩": 1805,
      "孰": 1806,
      "學": 1807,
      "宁": 1808,
      "宅": 1809,
      "宇": 1810,
      "守": 1811,
      "安": 1812,
      "宋": 1813,
      "完": 1814,
      "宏": 1815,
      "宗": 1816,
      "官": 1817,
      "宙": 1818,
      "定": 1819,
      "宛": 1820,
      "宜": 1821,
      "宝": 1822,
      "实": 1823,
      "実": 1824,
      "客": 1825,
      "宣": 1826,
      "室": 1827,
      "宪": 1828,
      "宫": 1829,
      "宮": 1830,
      "宰": 1831,
      "害": 1832,
      "宴": 1833,
      "家": 1834,
      "宸": 1835,
      "容": 1836,
      "宽": 1837,
      "宿": 1838,
      "寄": 1839,
      "密": 1840,
      "寇": 1841,
      "富": 1842,
      "寛": 1843,
      "察": 1844,
      "實": 1845,
      "寧": 1846,
      "審": 1847,
      "寫": 1848,
      "对": 1849,
      "寺": 1850,
      "寻": 1851,
      "导": 1852,
      "対": 1853,
      "寿": 1854,
      "封": 1855,
      "専": 1856,
      "射": 1857,
      "将": 1858,
      "將": 1859,
      "專": 1860,
      "尊": 1861,
      "尋": 1862,
      "導": 1863,
      "小": 1864,
      "少": 1865,
      "尔": 1866,
      "尖": 1867,
      "尙": 1868,
      "尚": 1869,
      "就": 1870,
      "尸": 1871,
      "尹": 1872,
      "尺": 1873,
      "尻": 1874,
      "尼": 1875,
      "尽": 1876,
      "尾": 1877,
      "局": 1878,
      "层": 1879,
      "屄": 1880,
      "居": 1881,
      "屆": 1882,
      "届": 1883,
      "屋": 1884,
      "屏": 1885,
      "屑": 1886,
      "展": 1887,
      "属": 1888,
      "履": 1889,
      "屬": 1890,
      "山": 1891,
      "岁": 1892,
      "岐": 1893,
      "岗": 1894,
      "岡": 1895,
      "岩": 1896,
      "岬": 1897,
      "岳": 1898,
      "岷": 1899,
      "岸": 1900,
      "峠": 1901,
      "峰": 1902,
      "峴": 1903,
      "島": 1904,
      "崇": 1905,
      "崎": 1906,
      "崔": 1907,
      "崩": 1908,
      "嵐": 1909,
      "嶄": 1910,
      "嶋": 1911,
      "嶺": 1912,
      "嶼": 1913,
      "嶽": 1914,
      "巒": 1915,
      "巖": 1916,
      "川": 1917,
      "州": 1918,
      "巡": 1919,
      "工": 1920,
      "左": 1921,
      "巧": 1922,
      "巨": 1923,
      "巫": 1924,
      "差": 1925,
      "己": 1926,
      "已": 1927,
      "巳": 1928,
      "巴": 1929,
      "巻": 1930,
      "巾": 1931,
      "市": 1932,
      "布": 1933,
      "帅": 1934,
      "师": 1935,
      "希": 1936,
      "帖": 1937,
      "帝": 1938,
      "帥": 1939,
      "師": 1940,
      "席": 1941,
      "帮": 1942,
      "帯": 1943,
      "帰": 1944,
      "帳": 1945,
      "常": 1946,
      "帽": 1947,
      "幅": 1948,
      "幌": 1949,
      "幕": 1950,
      "幡": 1951,
      "平": 1952,
      "年": 1953,
      "并": 1954,
      "幸": 1955,
      "幹": 1956,
      "幻": 1957,
      "幼": 1958,
      "幽": 1959,
      "广": 1960,
      "庁": 1961,
      "広": 1962,
      "庄": 1963,
      "庆": 1964,
      "庇": 1965,
      "序": 1966,
      "应": 1967,
      "底": 1968,
      "店": 1969,
      "庙": 1970,
      "府": 1971,
      "废": 1972,
      "度": 1973,
      "座": 1974,
      "庫": 1975,
      "庭": 1976,
      "庵": 1977,
      "庶": 1978,
      "康": 1979,
      "廈": 1980,
      "廊": 1981,
      "廓": 1982,
      "廖": 1983,
      "廟": 1984,
      "廠": 1985,
      "廣": 1986,
      "廬": 1987,
      "廳": 1988,
      "延": 1989,
      "廷": 1990,
      "建": 1991,
      "开": 1992,
      "弁": 1993,
      "弃": 1994,
      "式": 1995,
      "弐": 1996,
      "弓": 1997,
      "引": 1998,
      "弘": 1999,
      "弟": 2000,
      "张": 2001,
      "弥": 2002,
      "弦": 2003,
      "弱": 2004,
      "張": 2005,
      "強": 2006,
      "弹": 2007,
      "强": 2008,
      "弾": 2009,
      "彊": 2010,
      "彌": 2011,
      "归": 2012,
      "当": 2013,
      "录": 2014,
      "彙": 2015,
      "形": 2016,
      "彤": 2017,
      "彦": 2018,
      "彧": 2019,
      "彩": 2020,
      "彬": 2021,
      "彭": 2022,
      "彰": 2023,
      "影": 2024,
      "役": 2025,
      "彼": 2026,
      "往": 2027,
      "征": 2028,
      "径": 2029,
      "待": 2030,
      "很": 2031,
      "律": 2032,
      "後": 2033,
      "徒": 2034,
      "得": 2035,
      "御": 2036,
      "復": 2037,
      "循": 2038,
      "微": 2039,
      "徳": 2040,
      "德": 2041,
      "徹": 2042,
      "徼": 2043,
      "徽": 2044,
      "心": 2045,
      "必": 2046,
      "忍": 2047,
      "忐": 2048,
      "忑": 2049,
      "志": 2050,
      "忘": 2051,
      "応": 2052,
      "忠": 2053,
      "忧": 2054,
      "快": 2055,
      "念": 2056,
      "忽": 2057,
      "怀": 2058,
      "怎": 2059,
      "怒": 2060,
      "怖": 2061,
      "思": 2062,
      "怤": 2063,
      "急": 2064,
      "性": 2065,
      "怨": 2066,
      "怪": 2067,
      "总": 2068,
      "怿": 2069,
      "恃": 2070,
      "恄": 2071,
      "恆": 2072,
      "恋": 2073,
      "恐": 2074,
      "恒": 2075,
      "恨": 2076,
      "恩": 2077,
      "恭": 2078,
      "息": 2079,
      "恵": 2080,
      "恶": 2081,
      "恺": 2082,
      "悁": 2083,
      "悉": 2084,
      "悌": 2085,
      "悍": 2086,
      "悠": 2087,
      "患": 2088,
      "悦": 2089,
      "您": 2090,
      "悩": 2091,
      "悪": 2092,
      "悲": 2093,
      "情": 2094,
      "惑": 2095,
      "惜": 2096,
      "惠": 2097,
      "惧": 2098,
      "惨": 2099,
      "惭": 2100,
      "惮": 2101,
      "想": 2102,
      "愈": 2103,
      "愉": 2104,
      "意": 2105,
      "愚": 2106,
      "愛": 2107,
      "感": 2108,
      "態": 2109,
      "慑": 2110,
      "慧": 2111,
      "慳": 2112,
      "慶": 2113,
      "憂": 2114,
      "憐": 2115,
      "憑": 2116,
      "憩": 2117,
      "憲": 2118,
      "憶": 2119,
      "懂": 2120,
      "應": 2121,
      "懷": 2122,
      "懸": 2123,
      "懼": 2124,
      "戈": 2125,
      "戎": 2126,
      "戏": 2127,
      "成": 2128,
      "我": 2129,
      "戒": 2130,
      "或": 2131,
      "战": 2132,
      "戚": 2133,
      "戦": 2134,
      "戯": 2135,
      "戰": 2136,
      "戴": 2137,
      "戸": 2138,
      "戻": 2139,
      "房": 2140,
      "所": 2141,
      "扇": 2142,
      "手": 2143,
      "才": 2144,
      "扎": 2145,
      "扒": 2146,
      "打": 2147,
      "払": 2148,
      "扫": 2149,
      "扬": 2150,
      "扭": 2151,
      "扶": 2152,
      "批": 2153,
      "找": 2154,
      "承": 2155,
      "技": 2156,
      "抄": 2157,
      "把": 2158,
      "抑": 2159,
      "抓": 2160,
      "投": 2161,
      "折": 2162,
      "抜": 2163,
      "报": 2164,
      "披": 2165,
      "抱": 2166,
      "抹": 2167,
      "押": 2168,
      "拂": 2169,
      "拉": 2170,
      "拍": 2171,
      "拏": 2172,
      "拒": 2173,
      "拓": 2174,
      "拟": 2175,
      "拯": 2176,
      "拱": 2177,
      "拳": 2178,
      "拶": 2179,
      "拾": 2180,
      "持": 2181,
      "指": 2182,
      "挑": 2183,
      "挙": 2184,
      "挡": 2185,
      "挨": 2186,
      "振": 2187,
      "挹": 2188,
      "挺": 2189,
      "挽": 2190,
      "捕": 2191,
      "捜": 2192,
      "捨": 2193,
      "据": 2194,
      "捲": 2195,
      "掃": 2196,
      "授": 2197,
      "掌": 2198,
      "排": 2199,
      "掖": 2200,
      "掘": 2201,
      "掛": 2202,
      "探": 2203,
      "接": 2204,
      "控": 2205,
      "推": 2206,
      "掲": 2207,
      "揆": 2208,
      "描": 2209,
      "提": 2210,
      "揔": 2211,
      "揚": 2212,
      "握": 2213,
      "揭": 2214,
      "揮": 2215,
      "援": 2216,
      "揺": 2217,
      "揽": 2218,
      "搖": 2219,
      "搜": 2220,
      "搬": 2221,
      "搭": 2222,
      "携": 2223,
      "摂": 2224,
      "摘": 2225,
      "摩": 2226,
      "撃": 2227,
      "撑": 2228,
      "撒": 2229,
      "撞": 2230,
      "撤": 2231,
      "撫": 2232,
      "播": 2233,
      "撰": 2234,
      "撲": 2235,
      "擊": 2236,
      "操": 2237,
      "擎": 2238,
      "支": 2239,
      "收": 2240,
      "改": 2241,
      "攻": 2242,
      "放": 2243,
      "政": 2244,
      "故": 2245,
      "敌": 2246,
      "敎": 2247,
      "救": 2248,
      "敗": 2249,
      "教": 2250,
      "敝": 2251,
      "敢": 2252,
      "敦": 2253,
      "敬": 2254,
      "数": 2255,
      "整": 2256,
      "敵": 2257,
      "敷": 2258,
      "數": 2259,
      "文": 2260,
      "斉": 2261,
      "斋": 2262,
      "斎": 2263,
      "斗": 2264,
      "料": 2265,
      "斜": 2266,
      "斩": 2267,
      "斬": 2268,
      "断": 2269,
      "斯": 2270,
      "新": 2271,
      "斷": 2272,
      "方": 2273,
      "於": 2274,
      "施": 2275,
      "旅": 2276,
      "旆": 2277,
      "旋": 2278,
      "族": 2279,
      "旒": 2280,
      "旗": 2281,
      "无": 2282,
      "日": 2283,
      "旦": 2284,
      "旧": 2285,
      "早": 2286,
      "旬": 2287,
      "旭": 2288,
      "时": 2289,
      "旺": 2290,
      "昆": 2291,
      "昇": 2292,
      "昊": 2293,
      "昌": 2294,
      "明": 2295,
      "昏": 2296,
      "易": 2297,
      "星": 2298,
      "映": 2299,
      "春": 2300,
      "昭": 2301,
      "是": 2302,
      "昵": 2303,
      "時": 2304,
      "晃": 2305,
      "晉": 2306,
      "晋": 2307,
      "晏": 2308,
      "晓": 2309,
      "晖": 2310,
      "晗": 2311,
      "晚": 2312,
      "晨": 2313,
      "普": 2314,
      "景": 2315,
      "晴": 2316,
      "晶": 2317,
      "智": 2318,
      "暁": 2319,
      "暂": 2320,
      "暑": 2321,
      "暖": 2322,
      "暗": 2323,
      "暦": 2324,
      "暫": 2325,
      "暮": 2326,
      "暴": 2327,
      "曇": 2328,
      "曉": 2329,
      "曙": 2330,
      "曜": 2331,
      "曝": 2332,
      "曦": 2333,
      "曰": 2334,
      "曲": 2335,
      "更": 2336,
      "書": 2337,
      "曹": 2338,
      "曼": 2339,
      "曽": 2340,
      "替": 2341,
      "最": 2342,
      "會": 2343,
      "月": 2344,
      "有": 2345,
      "朋": 2346,
      "服": 2347,
      "望": 2348,
      "朝": 2349,
      "期": 2350,
      "朦": 2351,
      "朧": 2352,
      "木": 2353,
      "未": 2354,
      "末": 2355,
      "本": 2356,
      "札": 2357,
      "术": 2358,
      "朱": 2359,
      "朴": 2360,
      "朵": 2361,
      "机": 2362,
      "杀": 2363,
      "权": 2364,
      "杉": 2365,
      "李": 2366,
      "杏": 2367,
      "村": 2368,
      "杜": 2369,
      "杞": 2370,
      "束": 2371,
      "条": 2372,
      "来": 2373,
      "杨": 2374,
      "杯": 2375,
      "杰": 2376,
      "東": 2377,
      "杵": 2378,
      "松": 2379,
      "板": 2380,
      "枉": 2381,
      "析": 2382,
      "枕": 2383,
      "林": 2384,
      "枚": 2385,
      "果": 2386,
      "枝": 2387,
      "枢": 2388,
      "架": 2389,
      "柊": 2390,
      "柏": 2391,
      "染": 2392,
      "柔": 2393,
      "查": 2394,
      "柯": 2395,
      "柱": 2396,
      "柳": 2397,
      "柴": 2398,
      "査": 2399,
      "栄": 2400,
      "栋": 2401,
      "树": 2402,
      "栖": 2403,
      "栗": 2404,
      "栞": 2405,
      "校": 2406,
      "栩": 2407,
      "株": 2408,
      "样": 2409,
      "核": 2410,
      "根": 2411,
      "格": 2412,
      "桂": 2413,
      "桃": 2414,
      "桌": 2415,
      "桐": 2416,
      "桑": 2417,
      "桜": 2418,
      "档": 2419,
      "桥": 2420,
      "桧": 2421,
      "桶": 2422,
      "梁": 2423,
      "梅": 2424,
      "梓": 2425,
      "條": 2426,
      "梨": 2427,
      "梶": 2428,
      "棋": 2429,
      "棒": 2430,
      "棟": 2431,
      "森": 2432,
      "棺": 2433,
      "植": 2434,
      "椎": 2435,
      "検": 2436,
      "楊": 2437,
      "楔": 2438,
      "楚": 2439,
      "業": 2440,
      "極": 2441,
      "楼": 2442,
      "楽": 2443,
      "概": 2444,
      "榜": 2445,
      "榮": 2446,
      "槊": 2447,
      "構": 2448,
      "槍": 2449,
      "様": 2450,
      "樂": 2451,
      "標": 2452,
      "模": 2453,
      "樣": 2454,
      "権": 2455,
      "横": 2456,
      "樹": 2457,
      "樺": 2458,
      "橋": 2459,
      "橘": 2460,
      "橙": 2461,
      "機": 2462,
      "橫": 2463,
      "橷": 2464,
      "檔": 2465,
      "檢": 2466,
      "櫃": 2467,
      "櫓": 2468,
      "櫟": 2469,
      "櫻": 2470,
      "欅": 2471,
      "權": 2472,
      "次": 2473,
      "欢": 2474,
      "欣": 2475,
      "欧": 2476,
      "欲": 2477,
      "欽": 2478,
      "款": 2479,
      "歉": 2480,
      "歌": 2481,
      "歐": 2482,
      "歡": 2483,
      "止": 2484,
      "正": 2485,
      "此": 2486,
      "步": 2487,
      "武": 2488,
      "歩": 2489,
      "歯": 2490,
      "歲": 2491,
      "歳": 2492,
      "歴": 2493,
      "歷": 2494,
      "歸": 2495,
      "死": 2496,
      "歼": 2497,
      "殃": 2498,
      "残": 2499,
      "殲": 2500,
      "段": 2501,
      "殺": 2502,
      "殿": 2503,
      "毅": 2504,
      "母": 2505,
      "毎": 2506,
      "每": 2507,
      "毒": 2508,
      "比": 2509,
      "毛": 2510,
      "毯": 2511,
      "氏": 2512,
      "民": 2513,
      "气": 2514,
      "気": 2515,
      "氣": 2516,
      "水": 2517,
      "氷": 2518,
      "永": 2519,
      "汁": 2520,
      "求": 2521,
      "汉": 2522,
      "汗": 2523,
      "汝": 2524,
      "江": 2525,
      "池": 2526,
      "決": 2527,
      "汽": 2528,
      "沃": 2529,
      "沇": 2530,
      "沉": 2531,
      "沒": 2532,
      "沖": 2533,
      "沙": 2534,
      "沛": 2535,
      "沢": 2536,
      "沦": 2537,
      "河": 2538,
      "油": 2539,
      "治": 2540,
      "沼": 2541,
      "沿": 2542,
      "況": 2543,
      "泄": 2544,
      "泉": 2545,
      "泊": 2546,
      "法": 2547,
      "波": 2548,
      "泣": 2549,
      "泥": 2550,
      "注": 2551,
      "泰": 2552,
      "泱": 2553,
      "泽": 2554,
      "洁": 2555,
      "洋": 2556,
      "洗": 2557,
      "洞": 2558,
      "津": 2559,
      "洪": 2560,
      "洲": 2561,
      "活": 2562,
      "派": 2563,
      "流": 2564,
      "浄": 2565,
      "浅": 2566,
      "浒": 2567,
      "浜": 2568,
      "浦": 2569,
      "浩": 2570,
      "浪": 2571,
      "浮": 2572,
      "海": 2573,
      "消": 2574,
      "涉": 2575,
      "涕": 2576,
      "涙": 2577,
      "涛": 2578,
      "涯": 2579,
      "涼": 2580,
      "淑": 2581,
      "淚": 2582,
      "淡": 2583,
      "淮": 2584,
      "深": 2585,
      "淳": 2586,
      "淵": 2587,
      "混": 2588,
      "添": 2589,
      "清": 2590,
      "済": 2591,
      "渉": 2592,
      "渊": 2593,
      "渕": 2594,
      "減": 2595,
      "渠": 2596,
      "渡": 2597,
      "渤": 2598,
      "渦": 2599,
      "温": 2600,
      "測": 2601,
      "港": 2602,
      "游": 2603,
      "湄": 2604,
      "湖": 2605,
      "湛": 2606,
      "湣": 2607,
      "湾": 2608,
      "満": 2609,
      "源": 2610,
      "準": 2611,
      "溜": 2612,
      "溝": 2613,
      "溟": 2614,
      "溢": 2615,
      "溫": 2616,
      "滇": 2617,
      "滎": 2618,
      "滑": 2619,
      "滝": 2620,
      "满": 2621,
      "滨": 2622,
      "滾": 2623,
      "滿": 2624,
      "漁": 2625,
      "漂": 2626,
      "漆": 2627,
      "漏": 2628,
      "演": 2629,
      "漢": 2630,
      "漣": 2631,
      "漪": 2632,
      "漫": 2633,
      "漱": 2634,
      "漳": 2635,
      "漿": 2636,
      "潔": 2637,
      "潘": 2638,
      "潜": 2639,
      "潟": 2640,
      "潮": 2641,
      "澜": 2642,
      "澤": 2643,
      "澪": 2644,
      "澳": 2645,
      "激": 2646,
      "濃": 2647,
      "濆": 2648,
      "濟": 2649,
      "濾": 2650,
      "瀆": 2651,
      "瀬": 2652,
      "灘": 2653,
      "灣": 2654,
      "火": 2655,
      "灰": 2656,
      "灵": 2657,
      "灼": 2658,
      "災": 2659,
      "炉": 2660,
      "炊": 2661,
      "炎": 2662,
      "炖": 2663,
      "炫": 2664,
      "炭": 2665,
      "点": 2666,
      "為": 2667,
      "烈": 2668,
      "烦": 2669,
      "热": 2670,
      "焉": 2671,
      "焔": 2672,
      "無": 2673,
      "焦": 2674,
      "然": 2675,
      "焼": 2676,
      "煊": 2677,
      "煙": 2678,
      "照": 2679,
      "煮": 2680,
      "熊": 2681,
      "熙": 2682,
      "熜": 2683,
      "熟": 2684,
      "熱": 2685,
      "燃": 2686,
      "燕": 2687,
      "營": 2688,
      "燧": 2689,
      "爆": 2690,
      "爭": 2691,
      "爰": 2692,
      "爱": 2693,
      "爵": 2694,
      "父": 2695,
      "爺": 2696,
      "爽": 2697,
      "爾": 2698,
      "片": 2699,
      "版": 2700,
      "牌": 2701,
      "牙": 2702,
      "牛": 2703,
      "牟": 2704,
      "牢": 2705,
      "牧": 2706,
      "物": 2707,
      "牵": 2708,
      "特": 2709,
      "犁": 2710,
      "犬": 2711,
      "状": 2712,
      "狂": 2713,
      "狗": 2714,
      "狙": 2715,
      "狩": 2716,
      "独": 2717,
      "狭": 2718,
      "狼": 2719,
      "猛": 2720,
      "猜": 2721,
      "猪": 2722,
      "猫": 2723,
      "献": 2724,
      "猴": 2725,
      "猿": 2726,
      "獄": 2727,
      "獎": 2728,
      "獠": 2729,
      "獲": 2730,
      "獵": 2731,
      "獸": 2732,
      "玄": 2733,
      "率": 2734,
      "玉": 2735,
      "王": 2736,
      "环": 2737,
      "现": 2738,
      "玲": 2739,
      "珀": 2740,
      "珉": 2741,
      "珍": 2742,
      "珑": 2743,
      "珠": 2744,
      "班": 2745,
      "珲": 2746,
      "現": 2747,
      "球": 2748,
      "理": 2749,
      "琇": 2750,
      "琉": 2751,
      "琢": 2752,
      "琥": 2753,
      "琨": 2754,
      "琳": 2755,
      "琴": 2756,
      "琵": 2757,
      "琶": 2758,
      "瑋": 2759,
      "瑛": 2760,
      "瑞": 2761,
      "瑠": 2762,
      "瑤": 2763,
      "瑩": 2764,
      "瑷": 2765,
      "璃": 2766,
      "環": 2767,
      "瓊": 2768,
      "瓠": 2769,
      "瓦": 2770,
      "甘": 2771,
      "甚": 2772,
      "甜": 2773,
      "生": 2774,
      "產": 2775,
      "産": 2776,
      "用": 2777,
      "甯": 2778,
      "田": 2779,
      "由": 2780,
      "甲": 2781,
      "电": 2782,
      "男": 2783,
      "町": 2784,
      "画": 2785,
      "界": 2786,
      "畑": 2787,
      "留": 2788,
      "畠": 2789,
      "略": 2790,
      "番": 2791,
      "畫": 2792,
      "異": 2793,
      "當": 2794,
      "畿": 2795,
      "疏": 2796,
      "疑": 2797,
      "疗": 2798,
      "疸": 2799,
      "疾": 2800,
      "病": 2801,
      "症": 2802,
      "痊": 2803,
      "痕": 2804,
      "痛": 2805,
      "瘾": 2806,
      "癖": 2807,
      "発": 2808,
      "登": 2809,
      "發": 2810,
      "白": 2811,
      "百": 2812,
      "的": 2813,
      "皆": 2814,
      "皇": 2815,
      "皋": 2816,
      "皮": 2817,
      "盂": 2818,
      "盃": 2819,
      "盆": 2820,
      "益": 2821,
      "监": 2822,
      "盘": 2823,
      "盛": 2824,
      "盟": 2825,
      "監": 2826,
      "盤": 2827,
      "盧": 2828,
      "目": 2829,
      "直": 2830,
      "相": 2831,
      "省": 2832,
      "県": 2833,
      "眞": 2834,
      "真": 2835,
      "眠": 2836,
      "眸": 2837,
      "眼": 2838,
      "眾": 2839,
      "着": 2840,
      "睇": 2841,
      "睛": 2842,
      "督": 2843,
      "睿": 2844,
      "瞬": 2845,
      "瞰": 2846,
      "瞳": 2847,
      "瞻": 2848,
      "矢": 2849,
      "知": 2850,
      "短": 2851,
      "石": 2852,
      "矿": 2853,
      "码": 2854,
      "砂": 2855,
      "研": 2856,
      "砕": 2857,
      "砲": 2858,
      "破": 2859,
      "硝": 2860,
      "硫": 2861,
      "硬": 2862,
      "碁": 2863,
      "碗": 2864,
      "碟": 2865,
      "碧": 2866,
      "確": 2867,
      "碾": 2868,
      "磊": 2869,
      "磐": 2870,
      "磨": 2871,
      "礎": 2872,
      "礫": 2873,
      "示": 2874,
      "礼": 2875,
      "社": 2876,
      "祀": 2877,
      "祇": 2878,
      "祈": 2879,
      "祉": 2880,
      "祎": 2881,
      "祓": 2882,
      "祖": 2883,
      "神": 2884,
      "祠": 2885,
      "祢": 2886,
      "祥": 2887,
      "票": 2888,
      "祭": 2889,
      "禀": 2890,
      "禁": 2891,
      "禄": 2892,
      "禅": 2893,
      "禊": 2894,
      "禎": 2895,
      "福": 2896,
      "禮": 2897,
      "离": 2898,
      "禾": 2899,
      "秀": 2900,
      "私": 2901,
      "秋": 2902,
      "科": 2903,
      "秒": 2904,
      "秘": 2905,
      "秦": 2906,
      "秩": 2907,
      "秭": 2908,
      "称": 2909,
      "移": 2910,
      "稀": 2911,
      "程": 2912,
      "税": 2913,
      "稔": 2914,
      "稱": 2915,
      "稲": 2916,
      "稽": 2917,
      "穂": 2918,
      "穆": 2919,
      "積": 2920,
      "穏": 2921,
      "穗": 2922,
      "穴": 2923,
      "究": 2924,
      "空": 2925,
      "突": 2926,
      "窓": 2927,
      "窖": 2928,
      "窗": 2929,
      "窮": 2930,
      "竊": 2931,
      "立": 2932,
      "站": 2933,
      "竜": 2934,
      "章": 2935,
      "童": 2936,
      "端": 2937,
      "竹": 2938,
      "笃": 2939,
      "笑": 2940,
      "笠": 2941,
      "第": 2942,
      "笹": 2943,
      "筆": 2944,
      "等": 2945,
      "筑": 2946,
      "策": 2947,
      "筹": 2948,
      "签": 2949,
      "箇": 2950,
      "箍": 2951,
      "箒": 2952,
      "箕": 2953,
      "算": 2954,
      "管": 2955,
      "箭": 2956,
      "節": 2957,
      "範": 2958,
      "篇": 2959,
      "築": 2960,
      "篠": 2961,
      "簡": 2962,
      "簽": 2963,
      "籍": 2964,
      "米": 2965,
      "类": 2966,
      "粉": 2967,
      "粋": 2968,
      "粟": 2969,
      "粵": 2970,
      "精": 2971,
      "糖": 2972,
      "糧": 2973,
      "糸": 2974,
      "系": 2975,
      "紀": 2976,
      "約": 2977,
      "紅": 2978,
      "紊": 2979,
      "紋": 2980,
      "納": 2981,
      "紐": 2982,
      "紓": 2983,
      "純": 2984,
      "紙": 2985,
      "級": 2986,
      "紛": 2987,
      "素": 2988,
      "索": 2989,
      "紫": 2990,
      "累": 2991,
      "細": 2992,
      "紳": 2993,
      "紹": 2994,
      "紺": 2995,
      "終": 2996,
      "組": 2997,
      "絆": 2998,
      "経": 2999,
      "結": 3000,
      "絡": 3001,
      "給": 3002,
      "統": 3003,
      "絵": 3004,
      "絶": 3005,
      "綍": 3006,
      "經": 3007,
      "継": 3008,
      "続": 3009,
      "綠": 3010,
      "維": 3011,
      "綱": 3012,
      "綺": 3013,
      "綾": 3014,
      "緊": 3015,
      "緋": 3016,
      "総": 3017,
      "線": 3018,
      "締": 3019,
      "編": 3020,
      "練": 3021,
      "縁": 3022,
      "縄": 3023,
      "縣": 3024,
      "縫": 3025,
      "總": 3026,
      "績": 3027,
      "繁": 3028,
      "織": 3029,
      "繕": 3030,
      "繰": 3031,
      "續": 3032,
      "纠": 3033,
      "红": 3034,
      "约": 3035,
      "级": 3036,
      "纪": 3037,
      "纲": 3038,
      "纶": 3039,
      "纾": 3040,
      "组": 3041,
      "织": 3042,
      "终": 3043,
      "绎": 3044,
      "经": 3045,
      "给": 3046,
      "绛": 3047,
      "络": 3048,
      "绝": 3049,
      "统": 3050,
      "绩": 3051,
      "续": 3052,
      "维": 3053,
      "绿": 3054,
      "缅": 3055,
      "编": 3056,
      "缶": 3057,
      "缽": 3058,
      "网": 3059,
      "罗": 3060,
      "罪": 3061,
      "置": 3062,
      "署": 3063,
      "羅": 3064,
      "羊": 3065,
      "美": 3066,
      "群": 3067,
      "義": 3068,
      "羲": 3069,
      "羽": 3070,
      "翁": 3071,
      "習": 3072,
      "翔": 3073,
      "翠": 3074,
      "翰": 3075,
      "翻": 3076,
      "翼": 3077,
      "老": 3078,
      "考": 3079,
      "者": 3080,
      "而": 3081,
      "耳": 3082,
      "耶": 3083,
      "耽": 3084,
      "职": 3085,
      "联": 3086,
      "聖": 3087,
      "聚": 3088,
      "聞": 3089,
      "聡": 3090,
      "聯": 3091,
      "聰": 3092,
      "聴": 3093,
      "聶": 3094,
      "職": 3095,
      "肃": 3096,
      "肆": 3097,
      "肇": 3098,
      "肉": 3099,
      "肏": 3100,
      "肖": 3101,
      "股": 3102,
      "肥": 3103,
      "育": 3104,
      "胃": 3105,
      "背": 3106,
      "胎": 3107,
      "胜": 3108,
      "胞": 3109,
      "胡": 3110,
      "胧": 3111,
      "能": 3112,
      "脇": 3113,
      "脈": 3114,
      "脚": 3115,
      "脫": 3116,
      "脱": 3117,
      "腕": 3118,
      "腥": 3119,
      "腹": 3120,
      "膊": 3121,
      "膚": 3122,
      "膳": 3123,
      "膺": 3124,
      "臂": 3125,
      "臣": 3126,
      "臨": 3127,
      "自": 3128,
      "至": 3129,
      "致": 3130,
      "臺": 3131,
      "臼": 3132,
      "舆": 3133,
      "與": 3134,
      "興": 3135,
      "舉": 3136,
      "舊": 3137,
      "舎": 3138,
      "舗": 3139,
      "舘": 3140,
      "舞": 3141,
      "舟": 3142,
      "航": 3143,
      "般": 3144,
      "舵": 3145,
      "船": 3146,
      "艦": 3147,
      "良": 3148,
      "色": 3149,
      "艶": 3150,
      "艺": 3151,
      "艾": 3152,
      "节": 3153,
      "芒": 3154,
      "芝": 3155,
      "芭": 3156,
      "花": 3157,
      "芳": 3158,
      "芸": 3159,
      "芽": 3160,
      "苏": 3161,
      "苑": 3162,
      "苓": 3163,
      "苔": 3164,
      "苗": 3165,
      "若": 3166,
      "苦": 3167,
      "英": 3168,
      "茂": 3169,
      "茅": 3170,
      "茜": 3171,
      "茨": 3172,
      "茵": 3173,
      "茶": 3174,
      "草": 3175,
      "荘": 3176,
      "荣": 3177,
      "药": 3178,
      "荷": 3179,
      "莉": 3180,
      "莊": 3181,
      "莎": 3182,
      "莒": 3183,
      "莫": 3184,
      "获": 3185,
      "菅": 3186,
      "菊": 3187,
      "菖": 3188,
      "菜": 3189,
      "華": 3190,
      "菱": 3191,
      "菲": 3192,
      "菴": 3193,
      "萃": 3194,
      "萌": 3195,
      "营": 3196,
      "萧": 3197,
      "萬": 3198,
      "萱": 3199,
      "落": 3200,
      "葆": 3201,
      "葉": 3202,
      "著": 3203,
      "葛": 3204,
      "葱": 3205,
      "葳": 3206,
      "葵": 3207,
      "蒙": 3208,
      "蒟": 3209,
      "蒲": 3210,
      "蒻": 3211,
      "蒼": 3212,
      "蓮": 3213,
      "蔡": 3214,
      "蔵": 3215,
      "蕃": 3216,
      "蕉": 3217,
      "蕎": 3218,
      "蕭": 3219,
      "薄": 3220,
      "薇": 3221,
      "薔": 3222,
      "薛": 3223,
      "薨": 3224,
      "薩": 3225,
      "薪": 3226,
      "薬": 3227,
      "薯": 3228,
      "藍": 3229,
      "藏": 3230,
      "藝": 3231,
      "藤": 3232,
      "藥": 3233,
      "藩": 3234,
      "藻": 3235,
      "蘇": 3236,
      "蘋": 3237,
      "蘭": 3238,
      "虎": 3239,
      "虏": 3240,
      "虚": 3241,
      "虛": 3242,
      "虜": 3243,
      "虞": 3244,
      "號": 3245,
      "虢": 3246,
      "虹": 3247,
      "虾": 3248,
      "蚊": 3249,
      "蛇": 3250,
      "蛉": 3251,
      "蛙": 3252,
      "蛮": 3253,
      "蜀": 3254,
      "蜂": 3255,
      "蜜": 3256,
      "蜻": 3257,
      "蝉": 3258,
      "蝦": 3259,
      "蝶": 3260,
      "蟲": 3261,
      "血": 3262,
      "衆": 3263,
      "行": 3264,
      "術": 3265,
      "衔": 3266,
      "街": 3267,
      "衙": 3268,
      "衛": 3269,
      "衝": 3270,
      "衢": 3271,
      "衣": 3272,
      "补": 3273,
      "表": 3274,
      "衲": 3275,
      "衷": 3276,
      "袅": 3277,
      "袋": 3278,
      "袖": 3279,
      "被": 3280,
      "袭": 3281,
      "裁": 3282,
      "裂": 3283,
      "裃": 3284,
      "装": 3285,
      "裏": 3286,
      "裕": 3287,
      "補": 3288,
      "裳": 3289,
      "裴": 3290,
      "裹": 3291,
      "製": 3292,
      "褆": 3293,
      "複": 3294,
      "褥": 3295,
      "襄": 3296,
      "襲": 3297,
      "西": 3298,
      "要": 3299,
      "覆": 3300,
      "見": 3301,
      "規": 3302,
      "視": 3303,
      "覚": 3304,
      "覧": 3305,
      "親": 3306,
      "観": 3307,
      "覽": 3308,
      "觀": 3309,
      "见": 3310,
      "观": 3311,
      "视": 3312,
      "角": 3313,
      "解": 3314,
      "触": 3315,
      "言": 3316,
      "訂": 3317,
      "計": 3318,
      "訊": 3319,
      "討": 3320,
      "訓": 3321,
      "託": 3322,
      "記": 3323,
      "訪": 3324,
      "設": 3325,
      "訳": 3326,
      "訾": 3327,
      "評": 3328,
      "詞": 3329,
      "詠": 3330,
      "詢": 3331,
      "試": 3332,
      "詩": 3333,
      "詫": 3334,
      "詰": 3335,
      "話": 3336,
      "該": 3337,
      "詳": 3338,
      "詹": 3339,
      "誉": 3340,
      "誌": 3341,
      "認": 3342,
      "誓": 3343,
      "誕": 3344,
      "誘": 3345,
      "語": 3346,
      "誠": 3347,
      "説": 3348,
      "読": 3349,
      "誰": 3350,
      "課": 3351,
      "調": 3352,
      "談": 3353,
      "請": 3354,
      "諏": 3355,
      "諡": 3356,
      "諭": 3357,
      "諮": 3358,
      "諱": 3359,
      "諸": 3360,
      "諾": 3361,
      "謂": 3362,
      "謎": 3363,
      "謙": 3364,
      "講": 3365,
      "謝": 3366,
      "謡": 3367,
      "謹": 3368,
      "識": 3369,
      "譚": 3370,
      "警": 3371,
      "譯": 3372,
      "議": 3373,
      "護": 3374,
      "讀": 3375,
      "讃": 3376,
      "讐": 3377,
      "讓": 3378,
      "计": 3379,
      "认": 3380,
      "议": 3381,
      "记": 3382,
      "许": 3383,
      "论": 3384,
      "设": 3385,
      "访": 3386,
      "诀": 3387,
      "证": 3388,
      "评": 3389,
      "识": 3390,
      "诏": 3391,
      "译": 3392,
      "试": 3393,
      "诗": 3394,
      "诛": 3395,
      "话": 3396,
      "诞": 3397,
      "诠": 3398,
      "语": 3399,
      "说": 3400,
      "诸": 3401,
      "谁": 3402,
      "调": 3403,
      "谋": 3404,
      "谓": 3405,
      "谢": 3406,
      "谥": 3407,
      "谦": 3408,
      "谭": 3409,
      "谷": 3410,
      "豆": 3411,
      "豊": 3412,
      "豐": 3413,
      "象": 3414,
      "豪": 3415,
      "貌": 3416,
      "貓": 3417,
      "貝": 3418,
      "貞": 3419,
      "負": 3420,
      "貧": 3421,
      "貨": 3422,
      "販": 3423,
      "貫": 3424,
      "責": 3425,
      "貴": 3426,
      "費": 3427,
      "貿": 3428,
      "賀": 3429,
      "資": 3430,
      "賜": 3431,
      "賞": 3432,
      "賢": 3433,
      "購": 3434,
      "賽": 3435,
      "贏": 3436,
      "财": 3437,
      "贤": 3438,
      "败": 3439,
      "质": 3440,
      "购": 3441,
      "贱": 3442,
      "贲": 3443,
      "贵": 3444,
      "贸": 3445,
      "贾": 3446,
      "资": 3447,
      "赏": 3448,
      "赛": 3449,
      "赠": 3450,
      "赤": 3451,
      "赦": 3452,
      "赫": 3453,
      "走": 3454,
      "赵": 3455,
      "起": 3456,
      "超": 3457,
      "越": 3458,
      "趙": 3459,
      "足": 3460,
      "趾": 3461,
      "跆": 3462,
      "跋": 3463,
      "跑": 3464,
      "跟": 3465,
      "跡": 3466,
      "跨": 3467,
      "路": 3468,
      "跳": 3469,
      "踊": 3470,
      "踏": 3471,
      "踞": 3472,
      "踢": 3473,
      "蹄": 3474,
      "蹴": 3475,
      "躍": 3476,
      "身": 3477,
      "躬": 3478,
      "車": 3479,
      "軋": 3480,
      "軌": 3481,
      "軍": 3482,
      "軒": 3483,
      "転": 3484,
      "軽": 3485,
      "載": 3486,
      "輝": 3487,
      "輩": 3488,
      "輪": 3489,
      "輬": 3490,
      "輯": 3491,
      "輸": 3492,
      "輿": 3493,
      "轀": 3494,
      "轄": 3495,
      "轅": 3496,
      "轉": 3497,
      "轟": 3498,
      "车": 3499,
      "轩": 3500,
      "转": 3501,
      "软": 3502,
      "轰": 3503,
      "轻": 3504,
      "载": 3505,
      "辂": 3506,
      "辅": 3507,
      "辉": 3508,
      "输": 3509,
      "辛": 3510,
      "辞": 3511,
      "辟": 3512,
      "辣": 3513,
      "辭": 3514,
      "辰": 3515,
      "辱": 3516,
      "農": 3517,
      "边": 3518,
      "辺": 3519,
      "込": 3520,
      "辽": 3521,
      "达": 3522,
      "辿": 3523,
      "迁": 3524,
      "迄": 3525,
      "迅": 3526,
      "过": 3527,
      "迎": 3528,
      "运": 3529,
      "近": 3530,
      "返": 3531,
      "还": 3532,
      "这": 3533,
      "进": 3534,
      "远": 3535,
      "违": 3536,
      "连": 3537,
      "迩": 3538,
      "迪": 3539,
      "迫": 3540,
      "迭": 3541,
      "述": 3542,
      "迴": 3543,
      "迷": 3544,
      "迹": 3545,
      "追": 3546,
      "退": 3547,
      "送": 3548,
      "逃": 3549,
      "逆": 3550,
      "选": 3551,
      "逐": 3552,
      "逗": 3553,
      "這": 3554,
      "通": 3555,
      "速": 3556,
      "造": 3557,
      "逢": 3558,
      "連": 3559,
      "週": 3560,
      "進": 3561,
      "逸": 3562,
      "遂": 3563,
      "遅": 3564,
      "遊": 3565,
      "運": 3566,
      "遍": 3567,
      "過": 3568,
      "道": 3569,
      "達": 3570,
      "違": 3571,
      "遗": 3572,
      "遠": 3573,
      "遣": 3574,
      "適": 3575,
      "遭": 3576,
      "遷": 3577,
      "選": 3578,
      "遺": 3579,
      "避": 3580,
      "還": 3581,
      "邊": 3582,
      "邑": 3583,
      "邓": 3584,
      "邙": 3585,
      "那": 3586,
      "邦": 3587,
      "邪": 3588,
      "邱": 3589,
      "郁": 3590,
      "郎": 3591,
      "郑": 3592,
      "郡": 3593,
      "部": 3594,
      "郭": 3595,
      "郵": 3596,
      "郷": 3597,
      "都": 3598,
      "鄉": 3599,
      "鄒": 3600,
      "鄕": 3601,
      "鄧": 3602,
      "鄭": 3603,
      "酆": 3604,
      "配": 3605,
      "酒": 3606,
      "醉": 3607,
      "醍": 3608,
      "醐": 3609,
      "醜": 3610,
      "醤": 3611,
      "釁": 3612,
      "釈": 3613,
      "释": 3614,
      "釋": 3615,
      "里": 3616,
      "重": 3617,
      "野": 3618,
      "量": 3619,
      "釐": 3620,
      "金": 3621,
      "釜": 3622,
      "針": 3623,
      "釣": 3624,
      "鈔": 3625,
      "鈴": 3626,
      "鉄": 3627,
      "銀": 3628,
      "銃": 3629,
      "銅": 3630,
      "銕": 3631,
      "銮": 3632,
      "鋒": 3633,
      "鋸": 3634,
      "鋼": 3635,
      "錄": 3636,
      "錢": 3637,
      "錦": 3638,
      "錬": 3639,
      "録": 3640,
      "鍵": 3641,
      "鍾": 3642,
      "鎌": 3643,
      "鎚": 3644,
      "鎮": 3645,
      "鏞": 3646,
      "鏡": 3647,
      "鐘": 3648,
      "鐡": 3649,
      "鐵": 3650,
      "鑑": 3651,
      "针": 3652,
      "钟": 3653,
      "钧": 3654,
      "钺": 3655,
      "铁": 3656,
      "铉": 3657,
      "销": 3658,
      "锁": 3659,
      "锋": 3660,
      "错": 3661,
      "键": 3662,
      "锺": 3663,
      "镇": 3664,
      "長": 3665,
      "长": 3666,
      "門": 3667,
      "閃": 3668,
      "開": 3669,
      "間": 3670,
      "関": 3671,
      "閣": 3672,
      "閻": 3673,
      "闇": 3674,
      "闘": 3675,
      "關": 3676,
      "门": 3677,
      "闪": 3678,
      "闭": 3679,
      "问": 3680,
      "间": 3681,
      "闵": 3682,
      "闺": 3683,
      "闻": 3684,
      "阐": 3685,
      "队": 3686,
      "阪": 3687,
      "阮": 3688,
      "防": 3689,
      "阳": 3690,
      "阴": 3691,
      "阵": 3692,
      "阶": 3693,
      "阿": 3694,
      "陁": 3695,
      "附": 3696,
      "际": 3697,
      "陆": 3698,
      "陈": 3699,
      "降": 3700,
      "限": 3701,
      "陕": 3702,
      "院": 3703,
      "陣": 3704,
      "除": 3705,
      "陪": 3706,
      "陰": 3707,
      "陳": 3708,
      "陵": 3709,
      "陷": 3710,
      "陸": 3711,
      "険": 3712,
      "陽": 3713,
      "隅": 3714,
      "隆": 3715,
      "隊": 3716,
      "隋": 3717,
      "際": 3718,
      "障": 3719,
      "隠": 3720,
      "隼": 3721,
      "难": 3722,
      "雀": 3723,
      "雁": 3724,
      "雄": 3725,
      "雅": 3726,
      "集": 3727,
      "雌": 3728,
      "雍": 3729,
      "雑": 3730,
      "雖": 3731,
      "雙": 3732,
      "雜": 3733,
      "雞": 3734,
      "離": 3735,
      "難": 3736,
      "雨": 3737,
      "雪": 3738,
      "雫": 3739,
      "雲": 3740,
      "零": 3741,
      "雷": 3742,
      "電": 3743,
      "雾": 3744,
      "霆": 3745,
      "震": 3746,
      "霊": 3747,
      "霍": 3748,
      "霖": 3749,
      "霜": 3750,
      "霧": 3751,
      "露": 3752,
      "霸": 3753,
      "靑": 3754,
      "青": 3755,
      "靓": 3756,
      "靖": 3757,
      "静": 3758,
      "非": 3759,
      "靡": 3760,
      "面": 3761,
      "革": 3762,
      "靴": 3763,
      "鞋": 3764,
      "鞍": 3765,
      "鞑": 3766,
      "鞠": 3767,
      "韋": 3768,
      "韓": 3769,
      "韦": 3770,
      "韩": 3771,
      "音": 3772,
      "韵": 3773,
      "韻": 3774,
      "響": 3775,
      "頁": 3776,
      "頂": 3777,
      "項": 3778,
      "順": 3779,
      "須": 3780,
      "預": 3781,
      "領": 3782,
      "頭": 3783,
      "頻": 3784,
      "頼": 3785,
      "題": 3786,
      "額": 3787,
      "顏": 3788,
      "顔": 3789,
      "顕": 3790,
      "願": 3791,
      "類": 3792,
      "页": 3793,
      "顶": 3794,
      "项": 3795,
      "顺": 3796,
      "颁": 3797,
      "预": 3798,
      "领": 3799,
      "颇": 3800,
      "频": 3801,
      "颖": 3802,
      "题": 3803,
      "颜": 3804,
      "额": 3805,
      "颠": 3806,
      "風": 3807,
      "飄": 3808,
      "风": 3809,
      "飛": 3810,
      "食": 3811,
      "飯": 3812,
      "養": 3813,
      "餐": 3814,
      "餠": 3815,
      "館": 3816,
      "饅": 3817,
      "饒": 3818,
      "饭": 3819,
      "饮": 3820,
      "饰": 3821,
      "馀": 3822,
      "首": 3823,
      "香": 3824,
      "馬": 3825,
      "馮": 3826,
      "駅": 3827,
      "駆": 3828,
      "駒": 3829,
      "駿": 3830,
      "騎": 3831,
      "騒": 3832,
      "験": 3833,
      "騰": 3834,
      "騷": 3835,
      "驚": 3836,
      "驛": 3837,
      "马": 3838,
      "驰": 3839,
      "驶": 3840,
      "驼": 3841,
      "驾": 3842,
      "骁": 3843,
      "骑": 3844,
      "骨": 3845,
      "體": 3846,
      "高": 3847,
      "髙": 3848,
      "髪": 3849,
      "鬚": 3850,
      "鬥": 3851,
      "鬱": 3852,
      "鬲": 3853,
      "鬼": 3854,
      "魁": 3855,
      "魂": 3856,
      "魅": 3857,
      "魊": 3858,
      "魏": 3859,
      "魔": 3860,
      "魚": 3861,
      "魯": 3862,
      "鮑": 3863,
      "鮪": 3864,
      "鮮": 3865,
      "鯨": 3866,
      "鰯": 3867,
      "鰻": 3868,
      "鱼": 3869,
      "鱿": 3870,
      "鲁": 3871,
      "鲇": 3872,
      "鲵": 3873,
      "鳥": 3874,
      "鳩": 3875,
      "鳰": 3876,
      "鳳": 3877,
      "鳴": 3878,
      "鳶": 3879,
      "鴉": 3880,
      "鴨": 3881,
      "鴻": 3882,
      "鶏": 3883,
      "鶴": 3884,
      "鷲": 3885,
      "鷹": 3886,
      "鸟": 3887,
      "鸣": 3888,
      "鹅": 3889,
      "鹏": 3890,
      "鹰": 3891,
      "鹸": 3892,
      "鹿": 3893,
      "麈": 3894,
      "麟": 3895,
      "麥": 3896,
      "麦": 3897,
      "麩": 3898,
      "麺": 3899,
      "麻": 3900,
      "麼": 3901,
      "麾": 3902,
      "黃": 3903,
      "黄": 3904,
      "黎": 3905,
      "黑": 3906,
      "黒": 3907,
      "點": 3908,
      "黨": 3909,
      "鼎": 3910,
      "鼓": 3911,
      "齊": 3912,
      "齎": 3913,
      "齐": 3914,
      "龄": 3915,
      "龍": 3916,
      "龙": 3917,
      "ꜣ": 3918,
      "ꜥ": 3919,
      "ꞌ": 3920,
      "ꭱ": 3921,
      "ꭲ": 3922,
      "ꭶ": 3923,
      "ꭸ": 3924,
      "ꭺ": 3925,
      "ꭽ": 3926,
      "ꭾ": 3927,
      "ꮒ": 3928,
      "ꮼ": 3929,
      "": 3930,
      "": 3931,
      "": 3932,
      "": 3933,
      "": 3934,
      "": 3935,
      "": 3936,
      "": 3937,
      "": 3938,
      "": 3939,
      "": 3940,
      "": 3941,
      "": 3942,
      "ﬀ": 3943,
      "ﬁ": 3944,
      "ﬂ": 3945,
      "ﬧ": 3946,
      "ﷲ": 3947,
      "ﺎ": 3948,
      "ﺩ": 3949,
      "ﺭ": 3950,
      "ﻨ": 3951,
      "ﻩ": 3952,
      "ﻳ": 3953,
      "﻿": 3954,
      "！": 3955,
      "＃": 3956,
      "％": 3957,
      "＆": 3958,
      "（": 3959,
      "）": 3960,
      "＋": 3961,
      "，": 3962,
      "－": 3963,
      "．": 3964,
      "／": 3965,
      "０": 3966,
      "１": 3967,
      "２": 3968,
      "３": 3969,
      "４": 3970,
      "５": 3971,
      "６": 3972,
      "７": 3973,
      "８": 3974,
      "９": 3975,
      "：": 3976,
      "；": 3977,
      "＜": 3978,
      "＝": 3979,
      "＞": 3980,
      "？": 3981,
      "＠": 3982,
      "［": 3983,
      "＼": 3984,
      "］": 3985,
      "ａ": 3986,
      "ｂ": 3987,
      "ｃ": 3988,
      "ｄ": 3989,
      "ｅ": 3990,
      "ｆ": 3991,
      "ｇ": 3992,
      "ｈ": 3993,
      "ｉ": 3994,
      "ｊ": 3995,
      "ｋ": 3996,
      "ｍ": 3997,
      "ｎ": 3998,
      "ｏ": 3999,
      "ｐ": 4000,
      "ｒ": 4001,
      "ｓ": 4002,
      "ｔ": 4003,
      "ｕ": 4004,
      "ｖ": 4005,
      "ｗ": 4006,
      "ｘ": 4007,
      "｜": 4008,
      "～": 4009,
      "｢": 4010,
      "｣": 4011,
      "･": 4012,
      "￡": 4013,
      "￥": 4014,
      "￼": 4015,
      "�": 4016,
      "𐎠": 4017,
      "𐎭": 4018,
      "𐎶": 4019,
      "𐤀": 4020,
      "𐤉": 4021,
      "𐤊": 4022,
      "𐤍": 4023,
      "𝑎": 4024,
      "𝑑": 4025,
      "𝑒": 4026,
      "𝑓": 4027,
      "𝑙": 4028,
      "𝑟": 4029,
      "𝑠": 4030,
      "𝑡": 4031,
      "𝑤": 4032,
      "𝘯": 4033,
      "𝘰": 4034,
      "𝘸": 4035,
      "😂": 4036,
      "😉": 4037,
      "𠊛": 4038,
      "𡎝": 4039,
      "𡗶": 4040,
      "𡦂": 4041,
      "𢆥": 4042,
      "𢚸": 4043,
      "𣦆": 4044,
      "𣷭": 4045,
      "𤴬": 4046,
      "𤾓": 4047,
      "𥉩": 4048,
      "𥪞": 4049,
      "𦟐": 4050,
      "𧡊": 4051,
      "𨔍": 4052,
      "##h": 4053,
      "##i": 4054,
      "##n": 4055,
      "##k": 4056,
      "##o": 4057,
      "##e": 4058,
      "##r": 4059,
      "##y": 4060,
      "##a": 4061,
      "##v": 4062,
      "##l": 4063,
      "##s": 4064,
      "##m": 4065,
      "##u": 4066,
      "##q": 4067,
      "##w": 4068,
      "##t": 4069,
      "##d": 4070,
      "##и": 4071,
      "##н": 4072,
      "##а": 4073,
      "##м": 4074,
      "##о": 4075,
      "##c": 4076,
      "##p": 4077,
      "##b": 4078,
      "##g": 4079,
      "##f": 4080,
      "##z": 4081,
      "##ᅭ": 4082,
      "##ᆨ": 4083,
      "##ᄉ": 4084,
      "##ᅵ": 4085,
      "##ᆷ": 4086,
      "##ᄋ": 4087,
      "##ᆻ": 4088,
      "##ᄃ": 4089,
      "##ᅡ": 4090,
      "##ᄐ": 4091,
      "##ᅳ": 4092,
      "##x": 4093,
      "##ı": 4094,
      "##д": 4095,
      "##父": 4096,
      "##さ": 4097,
      "##ん": 4098,
      "##熱": 4099,
      "##狂": 4100,
      "##ᅴ": 4101,
      "##ᄆ": 4102,
      "##ᅮ": 4103,
      "##ᄅ": 4104,
      "##ᆯ": 4105,
      "##ط": 4106,
      "##ي": 4107,
      "##ف": 4108,
      "##ة": 4109,
      "##j": 4110,
      "##イ": 4111,
      "##ン": 4112,
      "##ハ": 4113,
      "##レ": 4114,
      "##ル": 4115,
      "##¢": 4116,
      "##ɛ": 4117,
      "##ʔ": 4118,
      "##?": 4119,
      "##映": 4120,
      "##画": 4121,
      "##へ": 4122,
      "##の": 4123,
      "##挑": 4124,
      "##戦": 4125,
      "##უ": 4126,
      "##ხ": 4127,
      "##ს": 4128,
      "##ł": 4129,
      "##.": 4130,
      "##き": 4131,
      "##な": 4132,
      "##り": 4133,
      "##ᅪ": 4134,
      "##า": 4135,
      "##น": 4136,
      "##ล": 4137,
      "##ค": 4138,
      "##อ": 4139,
      "##ย": 4140,
      "##…": 4141,
      "##/": 4142,
      "##ल": 4143,
      "##ᄀ": 4144,
      "##­": 4145,
      "##¡": 4146,
      "##£": 4147,
      "##©": 4148,
      "##з": 4149,
      "##ю": 4150,
      "##с": 4151,
      "##т": 4152,
      "##е": 4153,
      "##р": 4154,
      "##ь": 4155,
      "##性": 4156,
      "##ո": 4157,
      "##վ": 4158,
      "##α": 4159,
      "##ι": 4160,
      "##\"": 4161,
      "##;": 4162,
      "##ل": 4163,
      "##د": 4164,
      "##م": 4165,
      "##ق": 4166,
      "##ر": 4167,
      "##ا": 4168,
      "##ش": 4169,
      "##篠": 4170,
      "##\\": 4171,
      "##}": 4172,
      "##,": 4173,
      "##ன": 4174,
      "##ث": 4175,
      "##п": 4176,
      "##ъ": 4177,
      "##-": 4178,
      "##)": 4179,
      "##ᅢ": 4180,
      "##ᄎ": 4181,
      "##ø": 4182,
      "##ர": 4183,
      "##ம": 4184,
      "##ப": 4185,
      "##த": 4186,
      "##ல": 4187,
      "##家": 4188,
      "##物": 4189,
      "##語": 4190,
      "##<": 4191,
      "##'": 4192,
      "##棺": 4193,
      "##夫": 4194,
      "##日": 4195,
      "##記": 4196,
      "##ð": 4197,
      "##в": 4198,
      "##ґ": 4199,
      "##色": 4200,
      "##ノ": 4201,
      "##聖": 4202,
      "##櫃": 4203,
      "##ج": 4204,
      "##ᅲ": 4205,
      "##ᄑ": 4206,
      "##ᅥ": 4207,
      "##ᄌ": 4208,
      "##ᄂ": 4209,
      "##υ": 4210,
      "##δ": 4211,
      "##ß": 4212,
      "##た": 4213,
      "##け": 4214,
      "##知": 4215,
      "##ら": 4216,
      "##い": 4217,
      "##ф": 4218,
      "##エ": 4219,
      "##テ": 4220,
      "##ィ": 4221,
      "##ク": 4222,
      "##ー": 4223,
      "##マ": 4224,
      "##決": 4225,
      "##定": 4226,
      "##ய": 4227,
      "##ب": 4228,
      "##л": 4229,
      "##у": 4230,
      "##ж": 4231,
      "##б": 4232,
      "##ы": 4233,
      "##ᅧ": 4234,
      "##ᄒ": 4235,
      "##ᆼ": 4236,
      "##ᅩ": 4237,
      "##к": 4238,
      "##ナ": 4239,
      "##ト": 4240,
      "##節": 4241,
      "##{": 4242,
      "##+": 4243,
      "##я": 4244,
      "##ヨ": 4245,
      "##ロ": 4246,
      "##ッ": 4247,
      "##リ": 4248,
      "##方": 4249,
      "##妖": 4250,
      "##々": 4251,
      "##夢": 4252,
      "##藻": 4253,
      "##城": 4254,
      "##シ": 4255,
      "##ャ": 4256,
      "##本": 4257,
      "##誕": 4258,
      "##生": 4259,
      "##ᅨ": 4260,
      "##ᅦ": 4261,
      "##ᆫ": 4262,
      "##æ": 4263,
      "##批": 4264,
      "##改": 4265,
      "##並": 4266,
      "##打": 4267,
      "##成": 4268,
      "##績": 4269,
      "##π": 4270,
      "##ε": 4271,
      "##ρ": 4272,
      "##ο": 4273,
      "##ς": 4274,
      "##赤": 4275,
      "##目": 4276,
      "##青": 4277,
      "##山": 4278,
      "##ω": 4279,
      "##ν": 4280,
      "##%": 4281,
      "##ч": 4282,
      "##ɨ": 4283,
      "##ŋ": 4284,
      "##長": 4285,
      "##使": 4286,
      "##大": 4287,
      "##功": 4288,
      "##曰": 4289,
      "##ə": 4290,
      "##王": 4291,
      "##提": 4292,
      "##空": 4293,
      "##名": 4294,
      "##以": 4295,
      "##鄉": 4296,
      "##楚": 4297,
      "##世": 4298,
      "##豪": 4299,
      "##领": 4300,
      "##衔": 4301,
      "##ช": 4302,
      "##ข": 4303,
      "##ว": 4304,
      "##พ": 4305,
      "##ร": 4306,
      "##ะ": 4307,
      "##•": 4308,
      "##者": 4309,
      "##不": 4310,
      "##录": 4311,
      "##و": 4312,
      "##ه": 4313,
      "##ن": 4314,
      "##石": 4315,
      "##鹸": 4316,
      "##株": 4317,
      "##式": 4318,
      "##会": 4319,
      "##社": 4320,
      "##戸": 4321,
      "##阿": 4322,
      "##南": 4323,
      "##海": 4324,
      "##岸": 4325,
      "##ظ": 4326,
      "##报": 4327,
      "##中": 4328,
      "##国": 4329,
      "##க": 4330,
      "##虛": 4331,
      "##宮": 4332,
      "##ჷ": 4333,
      "##ნ": 4334,
      "##面": 4335,
      "##ラ": 4336,
      "##タ": 4337,
      "##平": 4338,
      "##ェ": 4339,
      "##ネ": 4340,
      "##ョ": 4341,
      "##ス": 4342,
      "##ᆺ": 4343,
      "##ш": 4344,
      "##แ": 4345,
      "##ท": 4346,
      "##遠": 4347,
      "##征": 4348,
      "##運": 4349,
      "##動": 4350,
      "##冠": 4351,
      "##剣": 4352,
      "##祖": 4353,
      "##ச": 4354,
      "##†": 4355,
      "##メ": 4356,
      "##作": 4357,
      "##品": 4358,
      "##サ": 4359,
      "##ჽ": 4360,
      "##რ": 4361,
      "##მ": 4362,
      "##紙": 4363,
      "##х": 4364,
      "##和": 4365,
      "##み": 4366,
      "##か": 4367,
      "##đ": 4368,
      "##ʊ": 4369,
      "##θ": 4370,
      "##ц": 4371,
      "##殺": 4372,
      "##こ": 4373,
      "##ろ": 4374,
      "##し": 4375,
      "##ɪ": 4376,
      "##德": 4377,
      "##院": 4378,
      "##خ": 4379,
      "##代": 4380,
      "##葉": 4381,
      "##峰": 4382,
      "##`": 4383,
      "##景": 4384,
      "##บ": 4385,
      "##ญ": 4386,
      "##ต": 4387,
      "##ง": 4388,
      "##จ": 4389,
      "##ห": 4390,
      "##ด": 4391,
      "##ก": 4392,
      "##ฬ": 4393,
      "##乱": 4394,
      "##э": 4395,
      "##♪": 4396,
      "##ħ": 4397,
      "##‌": 4398,
      "##三": 4399,
      "##条": 4400,
      "##好": 4401,
      "##汉": 4402,
      "##杀": 4403,
      "##来": 4404,
      "##了": 4405,
      "##軍": 4406,
      "##票": 4407,
      "##コ": 4408,
      "##に": 4409,
      "##型": 4410,
      "##書": 4411,
      "##泉": 4412,
      "##ュ": 4413,
      "##フ": 4414,
      "##オ": 4415,
      "##芸": 4416,
      "##能": 4417,
      "##人": 4418,
      "##事": 4419,
      "##典": 4420,
      "##竜": 4421,
      "##騎": 4422,
      "##士": 4423,
      "##ᄇ": 4424,
      "##つ": 4425,
      "##て": 4426,
      "##ウ": 4427,
      "##ァ": 4428,
      "##下": 4429,
      "##ይ": 4430,
      "##ቅ": 4431,
      "##民": 4432,
      "##正": 4433,
      "##音": 4434,
      "##例": 4435,
      "##義": 4436,
      "##口": 4437,
      "##ز": 4438,
      "##気": 4439,
      "##神": 4440,
      "##県": 4441,
      "##ⵢ": 4442,
      "##ⴷ": 4443,
      "##ⵉ": 4444,
      "##œ": 4445,
      "##龍": 4446,
      "##დ": 4447,
      "##版": 4448,
      "##特": 4449,
      "##は": 4450,
      "##と": 4451,
      "##ت": 4452,
      "##ற": 4453,
      "##ட": 4454,
      "##华": 4455,
      "##共": 4456,
      "##誉": 4457,
      "##主": 4458,
      "##席": 4459,
      "##ა": 4460,
      "##ქ": 4461,
      "##თ": 4462,
      "##ვ": 4463,
      "##ე": 4464,
      "##ლ": 4465,
      "##ო": 4466,
      "##島": 4467,
      "##ア": 4468,
      "##篇": 4469,
      "##ส": 4470,
      "##溝": 4471,
      "##壁": 4472,
      "##壘": 4473,
      "##録": 4474,
      "##写": 4475,
      "##真": 4476,
      "##ξ": 4477,
      "##ʼ": 4478,
      "##λ": 4479,
      "##η": 4480,
      "##κ": 4481,
      "##າ": 4482,
      "##ວ": 4483,
      "##ລ": 4484,
      "##ມ": 4485,
      "##ケ": 4486,
      "##界": 4487,
      "##歌": 4488,
      "##謡": 4489,
      "##祭": 4490,
      "##န": 4491,
      "##တ": 4492,
      "##ɔ": 4493,
      "##ː": 4494,
      "##@": 4495,
      "##女": 4496,
      "##見": 4497,
      "##格": 4498,
      "##編": 4499,
      "##ﬂ": 4500,
      "##等": 4501,
      "##γ": 4502,
      "##頭": 4503,
      "##流": 4504,
      "##錄": 4505,
      "##点": 4506,
      "##新": 4507,
      "##闻": 4508,
      "##ミ": 4509,
      "##ბ": 4510,
      "##ი": 4511,
      "##金": 4512,
      "##術": 4513,
      "##師": 4514,
      "##苦": 4515,
      "##悩": 4516,
      "##щ": 4517,
      "##チ": 4518,
      "##ص": 4519,
      "##ح": 4520,
      "##愛": 4521,
      "##ム": 4522,
      "##ی": 4523,
      "##晴": 4524,
      "##這": 4525,
      "##г": 4526,
      "##独": 4527,
      "##機": 4528,
      "##商": 4529,
      "##店": 4530,
      "##ヒ": 4531,
      "##束": 4532,
      "##|": 4533,
      "##湖": 4534,
      "##樹": 4535,
      "##ホ": 4536,
      "##τ": 4537,
      "##國": 4538,
      "##田": 4539,
      "##ᅣ": 4540,
      "##崎": 4541,
      "##斯": 4542,
      "##月": 4543,
      "##一": 4544,
      "##旗": 4545,
      "##二": 4546,
      "##号": 4547,
      "##导": 4548,
      "##弹": 4549,
      "##水": 4550,
      "##給": 4551,
      "##与": 4552,
      "##令": 4553,
      "##​": 4554,
      "##京": 4555,
      "##配": 4556,
      "##ᅬ": 4557,
      "##カ": 4558,
      "##應": 4559,
      "##塾": 4560,
      "##之": 4561,
      "##約": 4562,
      "##ј": 4563,
      "##元": 4564,
      "##素": 4565,
      "##ழ": 4566,
      "##¶": 4567,
      "##木": 4568,
      "##米": 4569,
      "##病": 4570,
      "##対": 4571,
      "##策": 4572,
      "##委": 4573,
      "##員": 4574,
      "##告": 4575,
      "##白": 4576,
      "##:": 4577,
      "##!": 4578,
      "##ண": 4579,
      "##ม": 4580,
      "##沢": 4581,
      "##非": 4582,
      "##他": 4583,
      "##命": 4584,
      "##安": 4585,
      "##天": 4586,
      "##地": 4587,
      "##内": 4588,
      "##裏": 4589,
      "##于": 4590,
      "##太": 4591,
      "##庙": 4592,
      "##ᆾ": 4593,
      "##類": 4594,
      "##楽": 4595,
      "##部": 4596,
      "##丞": 4597,
      "##も": 4598,
      "##村": 4599,
      "##上": 4600,
      "##氏": 4601,
      "##」": 4602,
      "##ᄏ": 4603,
      "##視": 4604,
      "##庁": 4605,
      "##班": 4606,
      "##χ": 4607,
      "##§": 4608,
      "##ө": 4609,
      "##і": 4610,
      "##满": 4611,
      "##楼": 4612,
      "##造": 4613,
      "##曜": 4614,
      "##終": 4615,
      "##わ": 4616,
      "##ワ": 4617,
      "##野": 4618,
      "##修": 4619,
      "##介": 4620,
      "##(": 4621,
      "##ち": 4622,
      "##ゃ": 4623,
      "##布": 4624,
      "##州": 4625,
      "##十": 4626,
      "##ו": 4627,
      "##ק": 4628,
      "##ד": 4629,
      "##ソ": 4630,
      "##ᆮ": 4631,
      "##う": 4632,
      "##ひ": 4633,
      "##行": 4634,
      "##老": 4635,
      "##沼": 4636,
      "##ゥ": 4637,
      "##א": 4638,
      "##ל": 4639,
      "##茶": 4640,
      "##時": 4641,
      "##セ": 4642,
      "##赵": 4643,
      "##薇": 4644,
      "##影": 4645,
      "##子": 4646,
      "##又": 4647,
      "##怎": 4648,
      "##样": 4649,
      "##מ": 4650,
      "##י": 4651,
      "##学": 4652,
      "##少": 4653,
      "##五": 4654,
      "##郎": 4655,
      "##ฆ": 4656,
      "##ศ": 4657,
      "##：": 4658,
      "##教": 4659,
      "##那": 4660,
      "##そ": 4661,
      "##ˌ": 4662,
      "##ˈ": 4663,
      "##σ": 4664,
      "##ב": 4665,
      "##=": 4666,
      "##ђ": 4667,
      "##ע": 4668,
      "##族": 4669,
      "##ꜣ": 4670,
      "##ʿ": 4671,
      "##س": 4672,
      "##小": 4673,
      "##花": 4674,
      "##旦": 4675,
      "##β": 4676,
      "##μ": 4677,
      "##ת": 4678,
      "##公": 4679,
      "##害": 4680,
      "##เ": 4681,
      "##փ": 4682,
      "##ք": 4683,
      "##ի": 4684,
      "##弱": 4685,
      "##轉": 4686,
      "##糧": 4687,
      "##千": 4688,
      "##里": 4689,
      "##外": 4690,
      "##>": 4691,
      "##ภ": 4692,
      "##浜": 4693,
      "##め": 4694,
      "##衣": 4695,
      "##越": 4696,
      "##辭": 4697,
      "##摘": 4698,
      "##引": 4699,
      "##電": 4700,
      "##ᄁ": 4701,
      "##ᆸ": 4702,
      "##φ": 4703,
      "##果": 4704,
      "##報": 4705,
      "##刃": 4706,
      "##蒲": 4707,
      "##保": 4708,
      "##御": 4709,
      "##所": 4710,
      "##週": 4711,
      "##間": 4712,
      "##販": 4713,
      "##売": 4714,
      "##キ": 4715,
      "##る": 4716,
      "##立": 4717,
      "##自": 4718,
      "##尊": 4719,
      "##原": 4720,
      "##廣": 4721,
      "##澤": 4722,
      "##ᇂ": 4723,
      "##醍": 4724,
      "##醐": 4725,
      "##皇": 4726,
      "##ผ": 4727,
      "##ɒ": 4728,
      "##朝": 4729,
      "##放": 4730,
      "##送": 4731,
      "##モ": 4732,
      "##輪": 4733,
      "##ป": 4734,
      "##門": 4735,
      "##ჲ": 4736,
      "##ツ": 4737,
      "##変": 4738,
      "##形": 4739,
      "##場": 4740,
      "##れ": 4741,
      "##総": 4742,
      "##統": 4743,
      "##息": 4744,
      "##感": 4745,
      "##謝": 4746,
      "##港": 4747,
      "##開": 4748,
      "##畫": 4749,
      "##收": 4750,
      "##央": 4751,
      "##节": 4752,
      "##驰": 4753,
      "##救": 4754,
      "##夙": 4755,
      "##必": 4756,
      "##加": 4757,
      "##剌": 4758,
      "##滿": 4759,
      "##ᇁ": 4760,
      "##书": 4761,
      "##崔": 4762,
      "##谋": 4763,
      "##反": 4764,
      "##ক": 4765,
      "##ৱ": 4766,
      "##ˆ": 4767,
      "##住": 4768,
      "##宅": 4769,
      "##科": 4770,
      "##苑": 4771,
      "##英": 4772,
      "##幹": 4773,
      "##線": 4774,
      "##∓": 4775,
      "##西": 4776,
      "##域": 4777,
      "##工": 4778,
      "##船": 4779,
      "##件": 4780,
      "##鳳": 4781,
      "##ᅱ": 4782,
      "##ธ": 4783,
      "##ษ": 4784,
      "##縫": 4785,
      "##紺": 4786,
      "##珠": 4787,
      "##伝": 4788,
      "##ʃ": 4789,
      "##ဋ": 4790,
      "##က": 4791,
      "##ခ": 4792,
      "##ယ": 4793,
      "##ع": 4794,
      "##她": 4795,
      "##該": 4796,
      "##是": 4797,
      "##出": 4798,
      "##於": 4799,
      "##合": 4800,
      "##ᆭ": 4801,
      "##გ": 4802,
      "##火": 4803,
      "##灼": 4804,
      "##其": 4805,
      "##華": 4806,
      "##®": 4807,
      "##絶": 4808,
      "##望": 4809,
      "##淵": 4810,
      "##明": 4811,
      "##ﬀ": 4812,
      "##忠": 4813,
      "##旺": 4814,
      "##控": 4815,
      "##股": 4816,
      "##有": 4817,
      "##限": 4818,
      "##司": 4819,
      "##ט": 4820,
      "##$": 4821,
      "##ɡ": 4822,
      "##ᅯ": 4823,
      "##寿": 4824,
      "##竹": 4825,
      "##属": 4826,
      "##談": 4827,
      "##ニ": 4828,
      "##ʒ": 4829,
      "##厚": 4830,
      "##熜": 4831,
      "##屋": 4832,
      "##陸": 4833,
      "##奥": 4834,
      "##ょ": 4835,
      "##意": 4836,
      "##思": 4837,
      "##表": 4838,
      "##": 4839,
      "##市": 4840,
      "##ပ": 4841,
      "##ည": 4842,
      "##府": 4843,
      "##疑": 4844,
      "##献": 4845,
      "##身": 4846,
      "##说": 4847,
      "##文": 4848,
      "##吗": 4849,
      "##藏": 4850,
      "##園": 4851,
      "##盛": 4852,
      "##岡": 4853,
      "##ɑ": 4854,
      "##": 4855,
      "##結": 4856,
      "##発": 4857,
      "##ھ": 4858,
      "##غ": 4859,
      "##源": 4860,
      "##纪": 4861,
      "##^": 4862,
      "##連": 4863,
      "##鳥": 4864,
      "##居": 4865,
      "##紹": 4866,
      "##ල": 4867,
      "##ත": 4868,
      "##聯": 4869,
      "##航": 4870,
      "##萃": 4871,
      "##想": 4872,
      "##曲": 4873,
      "##做": 4874,
      "##首": 4875,
      "##循": 4876,
      "##環": 4877,
      "##届": 4878,
      "##全": 4879,
      "##育": 4880,
      "##化": 4881,
      "##卫": 4882,
      "##员": 4883,
      "##副": 4884,
      "##任": 4885,
      "##詩": 4886,
      "##瓊": 4887,
      "##杵": 4888,
      "##博": 4889,
      "##夜": 4890,
      "##落": 4891,
      "##幕": 4892,
      "##渠": 4893,
      "##系": 4894,
      "##¨": 4895,
      "##ಟ": 4896,
      "##理": 4897,
      "##法": 4898,
      "##弘": 4899,
      "##稱": 4900,
      "##颠": 4901,
      "##倍": 4902,
      "##வ": 4903,
      "##幌": 4904,
      "##農": 4905,
      "##學": 4906,
      "##校": 4907,
      "##馬": 4908,
      "##驛": 4909,
      "##站": 4910,
      "##仁": 4911,
      "##眼": 4912,
      "##薔": 4913,
      "##男": 4914,
      "##爵": 4915,
      "##局": 4916,
      "##သ": 4917,
      "##ဆ": 4918,
      "##與": 4919,
      "##च": 4920,
      "##न": 4921,
      "##त": 4922,
      "##ބ": 4923,
      "##ރ": 4924,
      "##ނ": 4925,
      "##帝": 4926,
      "##片": 4927,
      "##弐": 4928,
      "##‰": 4929,
      "##讐": 4930,
      "##ন": 4931,
      "##ধ": 4932,
      "##続": 4933,
      "##ك": 4934,
      "##≤": 4935,
      "##›": 4936,
      "##乳": 4937,
      "##史": 4938,
      "##初": 4939,
      "##四": 4940,
      "##道": 4941,
      "##着": 4942,
      "##姓": 4943,
      "##射": 4944,
      "##·": 4945,
      "##利": 4946,
      "##倉": 4947,
      "##由": 4948,
      "##依": 4949,
      "##𝑒": 4950,
      "##𝑑": 4951,
      "##𝑟": 4952,
      "##𝑎": 4953,
      "##𝑙": 4954,
      "##ם": 4955,
      "##揔": 4956,
      "##六": 4957,
      "##师": 4958,
      "##近": 4959,
      "##く": 4960,
      "##遊": 4961,
      "##基": 4962,
      "##盘": 4963,
      "##製": 4964,
      "##头": 4965,
      "##卖": 4966,
      "##播": 4967,
      "##要": 4968,
      "##疾": 4969,
      "##预": 4970,
      "##防": 4971,
      "##制": 4972,
      "##心": 4973,
      "##波": 4974,
      "##邊": 4975,
      "##讀": 4976,
      "##則": 4977,
      "##得": 4978,
      "##攻": 4979,
      "##°": 4980,
      "##川": 4981,
      "##協": 4982,
      "##ᆽ": 4983,
      "##县": 4984,
      "##交": 4985,
      "##乎": 4986,
      "##戰": 4987,
      "##備": 4988,
      "##体": 4989,
      "##操": 4990,
      "##‚": 4991,
      "##گ": 4992,
      "##辺": 4993,
      "##光": 4994,
      "##彰": 4995,
      "##产": 4996,
      "##义": 4997,
      "##业": 4998,
      "##而": 4999,
      "##奋": 5000,
      "##斗": 5001,
      "##ҫ": 5002,
      "##え": 5003,
      "##ォ": 5004,
      "##責": 5005,
      "##李": 5006,
      "##为": 5007,
      "##穆": 5008,
      "##后": 5009,
      "##数": 5010,
      "##ח": 5011,
      "##ז": 5012,
      "##転": 5013,
      "##車": 5014,
      "##赏": 5015,
      "##荣": 5016,
      "##榜": 5017,
      "##丨": 5018,
      "##易": 5019,
      "##震": 5020,
      "##研": 5021,
      "##奈": 5022,
      "##發": 5023,
      "##突": 5024,
      "##足": 5025,
      "##你": 5026,
      "##对": 5027,
      "##草": 5028,
      "##的": 5029,
      "##象": 5030,
      "##ᆶ": 5031,
      "##ʻ": 5032,
      "##慶": 5033,
      "##移": 5034,
      "##籍": 5035,
      "##入": 5036,
      "##お": 5037,
      "##せ": 5038,
      "##賞": 5039,
      "##回": 5040,
      "##盤": 5041,
      "##": 5042,
      "##「": 5043,
      "##¬": 5044,
      "##八": 5045,
      "##ԥ": 5046,
      "##丈": 5047,
      "##ヶ": 5048,
      "##岳": 5049,
      "##禾": 5050,
      "##资": 5051,
      "##ء": 5052,
      "##橋": 5053,
      "##檢": 5054,
      "##雙": 5055,
      "##重": 5056,
      "##標": 5057,
      "##準": 5058,
      "##政": 5059,
      "##徳": 5060,
      "##စ": 5061,
      "##≈": 5062,
      "##迷": 5063,
      "##図": 5064,
      "##ヘ": 5065,
      "##*": 5066,
      "##µ": 5067,
      "##猛": 5068,
      "##戚": 5069,
      "##姐": 5070,
      "##！": 5071,
      "##脱": 5072,
      "##庄": 5073,
      "##即": 5074,
      "##位": 5075,
      "##व": 5076,
      "##स": 5077,
      "##ұ": 5078,
      "##計": 5079,
      "##ן": 5080,
      "##焉": 5081,
      "##ள": 5082,
      "##兵": 5083,
      "##槊": 5084,
      "##撞": 5085,
      "##谷": 5086,
      "##ｉ": 5087,
      "##ｆ": 5088,
      "##ａ": 5089,
      "##期": 5090,
      "##を": 5091,
      "##示": 5092,
      "##唆": 5093,
      "##歯": 5094,
      "##黒": 5095,
      "##ங": 5096,
      "##霊": 5097,
      "##嶼": 5098,
      "##誠": 5099,
      "##集": 5100,
      "##ɲ": 5101,
      "##य": 5102,
      "##字": 5103,
      "##舞": 5104,
      "##亞": 5105,
      "##洲": 5106,
      "##獎": 5107,
      "##單": 5108,
      "##揭": 5109,
      "##曉": 5110,
      "##时": 5111,
      "##间": 5112,
      "##撤": 5113,
      "##執": 5114,
      "##會": 5115,
      "##多": 5116,
      "##吉": 5117,
      "##丸": 5118,
      "##洞": 5119,
      "##唐": 5120,
      "##装": 5121,
      "##ى": 5122,
      "##路": 5123,
      "##街": 5124,
      "##陷": 5125,
      "##岁": 5126,
      "##角": 5127,
      "##稽": 5128,
      "##古": 5129,
      "##ա": 5130,
      "##ր": 5131,
      "##մ": 5132,
      "##ـ": 5133,
      "##瑋": 5134,
      "##柏": 5135,
      "##獲": 5136,
      "##後": 5137,
      "##構": 5138,
      "##説": 5139,
      "##个": 5140,
      "##叫": 5141,
      "##宋": 5142,
      "##威": 5143,
      "##龙": 5144,
      "##敎": 5145,
      "##井": 5146,
      "##喰": 5147,
      "##鷲": 5148,
      "##刀": 5149,
      "##段": 5150,
      "##此": 5151,
      "##無": 5152,
      "##赦": 5153,
      "##錬": 5154,
      "##均": 5155,
      "##袖": 5156,
      "##癖": 5157,
      "##ไ": 5158,
      "##復": 5159,
      "##程": 5160,
      "##度": 5161,
      "##用": 5162,
      "##始": 5163,
      "##ʾ": 5164,
      "##組": 5165,
      "##语": 5166,
      "##彼": 5167,
      "##ব": 5168,
      "##検": 5169,
      "##索": 5170,
      "##載": 5171,
      "##助": 5172,
      "##烈": 5173,
      "##ヤ": 5174,
      "##磊": 5175,
      "##妇": 5176,
      "##早": 5177,
      "##年": 5178,
      "##患": 5179,
      "##难": 5180,
      "##坂": 5181,
      "##皋": 5182,
      "##俨": 5183,
      "##ɓ": 5184,
      "##信": 5185,
      "##料": 5186,
      "##美": 5187,
      "##香": 5188,
      "##手": 5189,
      "##探": 5190,
      "##匕": 5191,
      "##劫": 5192,
      "##充": 5193,
      "##�": 5194,
      "##異": 5195,
      "##活": 5196,
      "##×": 5197,
      "##坊": 5198,
      "##弓": 5199,
      "##秘": 5200,
      "##密": 5201,
      "##∥": 5202,
      "##ន": 5203,
      "##室": 5204,
      "##þ": 5205,
      "##暖": 5206,
      "##ک": 5207,
      "##母": 5208,
      "##話": 5209,
      "##ꭺ": 5210,
      "##ꭲ": 5211,
      "##尹": 5212,
      "##境": 5213,
      "##娘": 5214,
      "##រ": 5215,
      "##ង": 5216,
      "##ស": 5217,
      "##ល": 5218,
      "##ម": 5219,
      "##פ": 5220,
      "##ה": 5221,
      "##阪": 5222,
      "##雄": 5223,
      "##骑": 5224,
      "##营": 5225,
      "##偃": 5226,
      "##蛙": 5227,
      "##专": 5228,
      "##机": 5229,
      "##推": 5230,
      "##ஞ": 5231,
      "##堅": 5232,
      "##ژ": 5233,
      "##穂": 5234,
      "##律": 5235,
      "##»": 5236,
      "##台": 5237,
      "##ᅫ": 5238,
      "##―": 5239,
      "##菜": 5240,
      "##去": 5241,
      "##份": 5242,
      "##很": 5243,
      "##費": 5244,
      "##血": 5245,
      "##諮": 5246,
      "##詢": 5247,
      "##ర": 5248,
      "##ద": 5249,
      "##称": 5250,
      "##肃": 5251,
      "##侗": 5252,
      "##究": 5253,
      "##נ": 5254,
      "##姫": 5255,
      "##解": 5256,
      "##军": 5257,
      "##步": 5258,
      "##发": 5259,
      "##展": 5260,
      "##棒": 5261,
      "##¥": 5262,
      "##↑": 5263,
      "##प": 5264,
      "##र": 5265,
      "##ण": 5266,
      "##ま": 5267,
      "##球": 5268,
      "##課": 5269,
      "##«": 5270,
      "##覚": 5271,
      "##泣": 5272,
      "##林": 5273,
      "##尼": 5274,
      "##僧": 5275,
      "##伐": 5276,
      "##齊": 5277,
      "##廬": 5278,
      "##房": 5279,
      "##札": 5280,
      "##爺": 5281,
      "##導": 5282,
      "##€": 5283,
      "##響": 5284,
      "##巫": 5285,
      "##革": 5286,
      "##争": 5287,
      "##や": 5288,
      "##す": 5289,
      "##ზ": 5290,
      "##良": 5291,
      "##冊": 5292,
      "##战": 5293,
      "##惭": 5294,
      "##周": 5295,
      "##霍": 5296,
      "##盧": 5297,
      "##勝": 5298,
      "##前": 5299,
      "##−": 5300,
      "##翰": 5301,
      "##张": 5302,
      "##钧": 5303,
      "##甯": 5304,
      "##变": 5305,
      "##ณ": 5306,
      "##ฑ": 5307,
      "##飛": 5308,
      "##吸": 5309,
      "##力": 5310,
      "##減": 5311,
      "##丽": 5312,
      "##颖": 5313,
      "##斩": 5314,
      "##获": 5315,
      "##占": 5316,
      "##営": 5317,
      "##業": 5318,
      "##隊": 5319,
      "##វ": 5320,
      "##ក": 5321,
      "##婧": 5322,
      "##祎": 5323,
      "##终": 5324,
      "##夺": 5325,
      "##艺": 5326,
      "##彤": 5327,
      "##次": 5328,
      "##康": 5329,
      "##ந": 5330,
      "##": 5331,
      "##ذ": 5332,
      "##』": 5333,
      "##傳": 5334,
      "##¦": 5335,
      "##~": 5336,
      "##ぬ": 5337,
      "##及": 5338,
      "##関": 5339,
      "##ड": 5340,
      "##久": 5341,
      "##嘉": 5342,
      "##爽": 5343,
      "##優": 5344,
      "##秀": 5345,
      "##東": 5346,
      "##我": 5347,
      "##在": 5348,
      "##筹": 5349,
      "##拍": 5350,
      "##選": 5351,
      "##⹋": 5352,
      "##浩": 5353,
      "##乐": 5354,
      "##际": 5355,
      "##场": 5356,
      "##験": 5357,
      "##纲": 5358,
      "##编": 5359,
      "##ƒ": 5360,
      "##第": 5361,
      "##ำ": 5362,
      "##亀": 5363,
      "##雪": 5364,
      "##署": 5365,
      "##尚": 5366,
      "##左": 5367,
      "##宇": 5368,
      "##儒": 5369,
      "##童": 5370,
      "##矿": 5371,
      "##区": 5372,
      "##筑": 5373,
      "##勰": 5374,
      "##精": 5375,
      "##鏡": 5376,
      "##ש": 5377,
      "##縄": 5378,
      "##跡": 5379,
      "##受": 5380,
      "##欢": 5381,
      "##迎": 5382,
      "##电": 5383,
      "##视": 5384,
      "##剧": 5385,
      "##演": 5386,
      "##豊": 5387,
      "##ᄊ": 5388,
      "##♗": 5389,
      "##膺": 5390,
      "##º": 5391,
      "##官": 5392,
      "##鬱": 5393,
      "##吹": 5394,
      "##言": 5395,
      "##核": 5396,
      "##町": 5397,
      "##揚": 5398,
      "##叡": 5399,
      "##智": 5400,
      "##礼": 5401,
      "##裴": 5402,
      "##辅": 5403,
      "##将": 5404,
      "##क": 5405,
      "##様": 5406,
      "##否": 5407,
      "##再": 5408,
      "##食": 5409,
      "##坤": 5410,
      "##情": 5411,
      "##纠": 5412,
      "##葛": 5413,
      "##ہ": 5414,
      "##効": 5415,
      "##ទ": 5416,
      "##យ": 5417,
      "##ष": 5418,
      "##म": 5419,
      "##奇": 5420,
      "##ট": 5421,
      "##গ": 5422,
      "##র": 5423,
      "##ম": 5424,
      "##賢": 5425,
      "##速": 5426,
      "##卦": 5427,
      "##右": 5428,
      "##衛": 5429,
      "##ᄄ": 5430,
      "##ᇀ": 5431,
      "##盆": 5432,
      "##踊": 5433,
      "##潟": 5434,
      "##桜": 5435,
      "##厳": 5436,
      "##調": 5437,
      "##整": 5438,
      "##蕎": 5439,
      "##麦": 5440,
      "##ە": 5441,
      "##ڭ": 5442,
      "##破": 5443,
      "##沙": 5444,
      "##长": 5445,
      "##歼": 5446,
      "##霸": 5447,
      "##百": 5448,
      "##敦": 5449,
      "##亜": 5450,
      "##秩": 5451,
      "##序": 5452,
      "##〈": 5453,
      "##¯": 5454,
      "##漢": 5455,
      "##賀": 5456,
      "##企": 5457,
      "##柳": 5458,
      "##よ": 5459,
      "##試": 5460,
      "##権": 5461,
      "##鴉": 5462,
      "##尻": 5463,
      "##尾": 5464,
      "##ᄍ": 5465,
      "##雅": 5466,
      "##ն": 5467,
      "##倾": 5468,
      "##勤": 5469,
      "##惮": 5470,
      "##ใ": 5471,
      "##ถ": 5472,
      "##輩": 5473,
      "##鋒": 5474,
      "##死": 5475,
      "##登": 5476,
      "##ʕ": 5477,
      "##撃": 5478,
      "##ध": 5479,
      "##∞": 5480,
      "##恋": 5481,
      "##為": 5482,
      "##彊": 5483,
      "##設": 5484,
      "##棟": 5485,
      "##ℓ": 5486,
      "##覧": 5487,
      "##轻": 5488,
      "##麻": 5489,
      "##弥": 5490,
      "##露": 5491,
      "##菊": 5492,
      "##„": 5493,
      "##完": 5494,
      "##巾": 5495,
      "##帯": 5496,
      "##从": 5497,
      "##屏": 5498,
      "##门": 5499,
      "##敢": 5500,
      "##當": 5501,
      "##โ": 5502,
      "##﻿": 5503,
      "##陆": 5504,
      "##福": 5505,
      "##建": 5506,
      "##漳": 5507,
      "##浦": 5508,
      "##沿": 5509,
      "##拳": 5510,
      "##幻": 5511,
      "##郷": 5512,
      "##द": 5513,
      "##陈": 5514,
      "##谦": 5515,
      "##众": 5516,
      "##归": 5517,
      "##´": 5518,
      "##催": 5519,
      "##虎": 5520,
      "##袅": 5521,
      "##＋": 5522,
      "##ר": 5523,
      "##贏": 5524,
      "##泄": 5525,
      "##曽": 5526,
      "##嶽": 5527,
      "##愈": 5528,
      "##挹": 5529,
      "##动": 5530,
      "##弁": 5531,
      "##当": 5532,
      "##ғ": 5533,
      "##胧": 5534,
      "##ဝ": 5535,
      "##င": 5536,
      "##မ": 5537,
      "##服": 5538,
      "##ɯ": 5539,
      "##陵": 5540,
      "##ዊ": 5541,
      "##ት": 5542,
      "##張": 5543,
      "##專": 5544,
      "##輯": 5545,
      "##猜": 5546,
      "##超": 5547,
      "##枚": 5548,
      "##逢": 5549,
      "##藤": 5550,
      "##ঘ": 5551,
      "##‍": 5552,
      "##宸": 5553,
      "##额": 5554,
      "##紀": 5555,
      "##肖": 5556,
      "##像": 5557,
      "##郑": 5558,
      "##晓": 5559,
      "##松": 5560,
      "##调": 5561,
      "##联": 5562,
      "##ह": 5563,
      "##": 5564,
      "##玉": 5565,
      "##湾": 5566,
      "##求": 5567,
      "##聞": 5568,
      "##授": 5569,
      "##複": 5570,
      "##団": 5571,
      "##興": 5572,
      "##味": 5573,
      "##挺": 5574,
      "##進": 5575,
      "##強": 5576,
      "##处": 5577,
      "##统": 5578,
      "##銀": 5579,
      "##鈔": 5580,
      "##भ": 5581,
      "##座": 5582,
      "##紅": 5583,
      "##堂": 5584,
      "##ज": 5585,
      "##ञ": 5586,
      "##星": 5587,
      "##气": 5588,
      "##¤": 5589,
      "##အ": 5590,
      "##ထ": 5591,
      "##細": 5592,
      "##ܥ": 5593,
      "##ܠ": 5594,
      "##ܐ": 5595,
      "##簡": 5596,
      "##単": 5597,
      "##弾": 5598,
      "##投": 5599,
      "##团": 5600,
      "##队": 5601,
      "##煮": 5602,
      "##渕": 5603,
      "##監": 5604,
      "##督": 5605,
      "##渡": 5606,
      "##դ": 5607,
      "##ե": 5608,
      "##հ": 5609,
      "##ښ": 5610,
      "##勞": 5611,
      "##በ": 5612,
      "##ባ": 5613,
      "##ʰ": 5614,
      "##宿": 5615,
      "##沇": 5616,
      "##肉": 5617,
      "##北": 5618,
      "##危": 5619,
      "##喜": 5620,
      "##虾": 5621,
      "##档": 5622,
      "##笠": 5623,
      "##掲": 5624,
      "##板": 5625,
      "##萌": 5626,
      "##泰": 5627,
      "##っ": 5628,
      "##鳴": 5629,
      "##ѣ": 5630,
      "##先": 5631,
      "##取": 5632,
      "##氣": 5633,
      "##˜": 5634,
      "##宁": 5635,
      "##麈": 5636,
      "##尺": 5637,
      "##審": 5638,
      "##査": 5639,
      "##別": 5640,
      "##観": 5641,
      "##客": 5642,
      "##ʹ": 5643,
      "##滾": 5644,
      "##臣": 5645,
      "##牛": 5646,
      "##半": 5647,
      "##翻": 5648,
      "##訳": 5649,
      "##労": 5650,
      "##仕": 5651,
      "##詳": 5652,
      "##相": 5653,
      "##昵": 5654,
      "##披": 5655,
      "##东": 5656,
      "##嶋": 5657,
      "##苔": 5658,
      "##佃": 5659,
      "##ゅ": 5660,
      "##九": 5661,
      "##訂": 5662,
      "##还": 5663,
      "###": 5664,
      "##ҷ": 5665,
      "##ҳ": 5666,
      "##ठ": 5667,
      "##ほ": 5668,
      "##ゆ": 5669,
      "##達": 5670,
      "##约": 5671,
      "##栄": 5672,
      "##圏": 5673,
      "##區": 5674,
      "##夏": 5675,
      "##経": 5676,
      "##河": 5677,
      "##鉄": 5678,
      "##尔": 5679,
      "##滨": 5680,
      "##櫻": 5681,
      "##什": 5682,
      "##麼": 5683,
      "##候": 5684,
      "##普": 5685,
      "##通": 5686,
      "##詞": 5687,
      "##押": 5688,
      "##韻": 5689,
      "##ջ": 5690,
      "##յ": 5691,
      "##ⴰ": 5692,
      "##ⵏ": 5693,
      "##ⴾ": 5694,
      "##ⵔ": 5695,
      "##土": 5696,
      "##砂": 5697,
      "##染": 5698,
      "##ծ": 5699,
      "##宙": 5700,
      "##兄": 5701,
      "##弟": 5702,
      "##ª": 5703,
      "##见": 5704,
      "##至": 5705,
      "##权": 5706,
      "##森": 5707,
      "##雲": 5708,
      "##守": 5709,
      "##練": 5710,
      "##雀": 5711,
      "##臺": 5712,
      "##藩": 5713,
      "##蒼": 5714,
      "##縁": 5715,
      "##起": 5716,
      "##役": 5717,
      "##抜": 5718,
      "##风": 5719,
      "##恵": 5720,
      "##ធ": 5721,
      "##ត": 5722,
      "##總": 5723,
      "##屬": 5724,
      "##館": 5725,
      "##ფ": 5726,
      "##絵": 5727,
      "##鑑": 5728,
      "##礎": 5729,
      "##識": 5730,
      "##ฒ": 5731,
      "##貴": 5732,
      "##幸": 5733,
      "##因": 5734,
      "##饮": 5735,
      "##薨": 5736,
      "##牵": 5737,
      "##亚": 5738,
      "##侨": 5739,
      "##姦": 5740,
      "##內": 5741,
      "##容": 5742,
      "##被": 5743,
      "##刪": 5744,
      "##瞳": 5745,
      "##ჟ": 5746,
      "##瓠": 5747,
      "##ӄ": 5748,
      "##鹿": 5749,
      "##察": 5750,
      "##垣": 5751,
      "##₱": 5752,
      "##ซ": 5753,
      "##憂": 5754,
      "##墙": 5755,
      "##都": 5756,
      "##": 5757,
      "##陽": 5758,
      "##休": 5759,
      "##憩": 5760,
      "##岐": 5761,
      "##闵": 5762,
      "##潔": 5763,
      "##错": 5764,
      "##车": 5765,
      "##還": 5766,
      "##ſ": 5767,
      "##兰": 5768,
      "##ʽ": 5769,
      "##ಧ": 5770,
      "##塘": 5771,
      "##沖": 5772,
      "##备": 5773,
      "##徹": 5774,
      "##底": 5775,
      "##析": 5776,
      "##舵": 5777,
      "##可": 5778,
      "##ᅰ": 5779,
      "##遣": 5780,
      "##彦": 5781,
      "##窮": 5782,
      "##乗": 5783,
      "##陰": 5784,
      "##春": 5785,
      "##仮": 5786,
      "##妳": 5787,
      "##ˇ": 5788,
      "##江": 5789,
      "##沉": 5790,
      "##故": 5791,
      "##仍": 5792,
      "##ტ": 5793,
      "##შ": 5794,
      "##訊": 5795,
      "##ض": 5796,
      "##边": 5797,
      "##羊": 5798,
      "##蹄": 5799,
      "##¿": 5800,
      "##ŧ": 5801,
      "##紋": 5802,
      "##章": 5803,
      "##桂": 5804,
      "##珍": 5805,
      "##问": 5806,
      "##达": 5807,
      "##™": 5808,
      "##找": 5809,
      "##烦": 5810,
      "##風": 5811,
      "##紊": 5812,
      "##魔": 5813,
      "##嗤": 5814,
      "##須": 5815,
      "##直": 5816,
      "##鹏": 5817,
      "##妻": 5818,
      "##曝": 5819,
      "##ฟ": 5820,
      "##護": 5821,
      "##ϛ": 5822,
      "##付": 5823,
      "##駆": 5824,
      "##逐": 5825,
      "##艦": 5826,
      "##零": 5827,
      "##雨": 5828,
      "##": 5829,
      "##ѳ": 5830,
      "##省": 5831,
      "##妃": 5832,
      "##举": 5833,
      "##哀": 5834,
      "##爱": 5835,
      "##牙": 5836,
      "##芝": 5837,
      "##替": 5838,
      "##俊": 5839,
      "##凯": 5840,
      "##桌": 5841,
      "##宏": 5842,
      "##藍": 5843,
      "##儂": 5844,
      "##遗": 5845,
      "##瑞": 5846,
      "##延": 5847,
      "##萬": 5848,
      "##託": 5849,
      "##亡": 5850,
      "##ｔ": 5851,
      "##ｏ": 5852,
      "##כ": 5853,
      "##ɜ": 5854,
      "##ᄈ": 5855,
      "##ے": 5856,
      "##予": 5857,
      "##翔": 5858,
      "##贵": 5859,
      "##莫": 5860,
      "##丧": 5861,
      "##ǝ": 5862,
      "##郡": 5863,
      "##双": 5864,
      "##ꮼ": 5865,
      "##ꮒ": 5866,
      "##ꭽ": 5867,
      "##浪": 5868,
      "##末": 5869,
      "##團": 5870,
      "##壽": 5871,
      "##級": 5872,
      "##賽": 5873,
      "##雑": 5874,
      "##誌": 5875,
      "##勢": 5876,
      "##巻": 5877,
      "##每": 5878,
      "##克": 5879,
      "##伊": 5880,
      "##淡": 5881,
      "##災": 5882,
      "##念": 5883,
      "##ռ": 5884,
      "##掌": 5885,
      "##帽": 5886,
      "##គ": 5887,
      "##向": 5888,
      "##未": 5889,
      "##庵": 5890,
      "##番": 5891,
      "##症": 5892,
      "##題": 5893,
      "##袭": 5894,
      "##竊": 5895,
      "##也": 5896,
      "##あ": 5897,
      "##憲": 5898,
      "##同": 5899,
      "##剑": 5900,
      "##进": 5901,
      "##阐": 5902,
      "##关": 5903,
      "##、": 5904,
      "##炊": 5905,
      "##诗": 5906,
      "##戏": 5907,
      "##过": 5908,
      "##瘾": 5909,
      "##伟": 5910,
      "##霆": 5911,
      "##甘": 5912,
      "##折": 5913,
      "##磨": 5914,
      "##牌": 5915,
      "##項": 5916,
      "##俱": 5917,
      "##列": 5918,
      "##諸": 5919,
      "##侯": 5920,
      "##ζ": 5921,
      "##پ": 5922,
      "##帰": 5923,
      "##貞": 5924,
      "##ね": 5925,
      "##ហ": 5926,
      "##暦": 5927,
      "##码": 5928,
      "##敵": 5929,
      "##蔵": 5930,
      "##高": 5931,
      "##覆": 5932,
      "##围": 5933,
      "##棋": 5934,
      "##传": 5935,
      "##杰": 5936,
      "##软": 5937,
      "##ユ": 5938,
      "##乃": 5939,
      "##查": 5940,
      "##据": 5941,
      "##": 5942,
      "##們": 5943,
      "##已": 5944,
      "##經": 5945,
      "##ब": 5946,
      "##峠": 5947,
      "##ღ": 5948,
      "##概": 5949,
      "##遷": 5950,
      "##侍": 5951,
      "##菖": 5952,
      "##痕": 5953,
      "##玲": 5954,
      "##珑": 5955,
      "##琴": 5956,
      "##照": 5957,
      "##善": 5958,
      "##叉": 5959,
      "##深": 5960,
      "##魚": 5961,
      "##ふ": 5962,
      "##獄": 5963,
      "##君": 5964,
      "##љ": 5965,
      "##輿": 5966,
      "##宣": 5967,
      "##ল": 5968,
      "##զ": 5969,
      "##գ": 5970,
      "##卑": 5971,
      "##離": 5972,
      "##冥": 5973,
      "##鰯": 5974,
      "##哭": 5975,
      "##轩": 5976,
      "##帮": 5977,
      "##挡": 5978,
      "##驾": 5979,
      "##窗": 5980,
      "##ү": 5981,
      "##友": 5982,
      "##梨": 5983,
      "##贱": 5984,
      "##≥": 5985,
      "##鍵": 5986,
      "##握": 5987,
      "##描": 5988,
      "##汁": 5989,
      "##炖": 5990,
      "##鱿": 5991,
      "##鱼": 5992,
      "##胞": 5993,
      "##壊": 5994,
      "##ច": 5995,
      "##牧": 5996,
      "##置": 5997,
      "##洪": 5998,
      "##侅": 5999,
      "##参": 6000,
      "##务": 6001,
      "##激": 6002,
      "##拱": 6003,
      "##觀": 6004,
      "##孰": 6005,
      "##צ": 6006,
      "##ই": 6007,
      "##艶": 6008,
      "##ｖ": 6009,
      "##振": 6010,
      "##返": 6011,
      "##衲": 6012,
      "##绩": 6013,
      "##咸": 6014,
      "##熙": 6015,
      "##广": 6016,
      "##到": 6017,
      "##ฤ": 6018,
      "##然": 6019,
      "##镇": 6020,
      "##朱": 6021,
      "##您": 6022,
      "##歲": 6023,
      "##暗": 6024,
      "##玄": 6025,
      "##应": 6026,
      "##阶": 6027,
      "##单": 6028,
      "##値": 6029,
      "##皆": 6030,
      "##涕": 6031,
      "##碁": 6032,
      "##疏": 6033,
      "##猫": 6034,
      "##習": 6035,
      "##𝘰": 6036,
      "##𝘸": 6037,
      "##確": 6038,
      "##狼": 6039,
      "##柔": 6040,
      "##武": 6041,
      "##ⵙ": 6042,
      "##ⵍ": 6043,
      "##ⵓ": 6044,
      "##午": 6045,
      "##句": 6046,
      "##红": 6047,
      "##闭": 6048,
      "##驼": 6049,
      "##肆": 6050,
      "##樂": 6051,
      "##點": 6052,
      "##亮": 6053,
      "##ﬧ": 6054,
      "##呼": 6055,
      "##技": 6056,
      "##最": 6057,
      "##佳": 6058,
      "##唱": 6059,
      "##體": 6060,
      "##具": 6061,
      "##ゝ": 6062,
      "##器": 6063,
      "##劣": 6064,
      "##鬚": 6065,
      "##扇": 6066,
      "##ฐ": 6067,
      "##失": 6068,
      "##巡": 6069,
      "##灣": 6070,
      "##揺": 6071,
      "##径": 6072,
      "##丁": 6073,
      "##奴": 6074,
      "##枉": 6075,
      "##如": 6076,
      "##贤": 6077,
      "##私": 6078,
      "##追": 6079,
      "##姆": 6080,
      "##餐": 6081,
      "##厅": 6082,
      "##潜": 6083,
      "##质": 6084,
      "##奖": 6085,
      "##∑": 6086,
      "##𥉩": 6087,
      "##𧡊": 6088,
      "##㐌": 6089,
      "##𤴬": 6090,
      "##疸": 6091,
      "##𢚸": 6092,
      "##জ": 6093,
      "##夕": 6094,
      "##謂": 6095,
      "##刷": 6096,
      "##怿": 6097,
      "##接": 6098,
      "##奏": 6099,
      "##常": 6100,
      "##卿": 6101,
      "##刘": 6102,
      "##芳": 6103,
      "##议": 6104,
      "##益": 6105,
      "##顶": 6106,
      "##貿": 6107,
      "##క": 6108,
      "##ट": 6109,
      "##刑": 6110,
      "##ʀ": 6111,
      "##ｓ": 6112,
      "##管": 6113,
      "##領": 6114,
      "##们": 6115,
      "##经": 6116,
      "##络": 6117,
      "##销": 6118,
      "##漱": 6119,
      "##溟": 6120,
      "##灵": 6121,
      "##舆": 6122,
      "##庫": 6123,
      "##箇": 6124,
      "##远": 6125,
      "##洋": 6126,
      "##运": 6127,
      "##输": 6128,
      "##雫": 6129,
      "##ｃ": 6130,
      "##ճ": 6131,
      "##錢": 6132,
      "##眸": 6133,
      "##比": 6134,
      "##橫": 6135,
      "##掃": 6136,
      "##關": 6137,
      "##栗": 6138,
      "##嬢": 6139,
      "##犬": 6140,
      "##，": 6141,
      "##創": 6142,
      "##架": 6143,
      "##純": 6144,
      "##締": 6145,
      "##捨": 6146,
      "##滎": 6147,
      "##ስ": 6148,
      "##ጣ": 6149,
      "##掘": 6150,
      "##є": 6151,
      "##ን": 6152,
      "##ሻ": 6153,
      "##ጉ": 6154,
      "##ል": 6155,
      "##獵": 6156,
      "##暫": 6157,
      "##埼": 6158,
      "##諭": 6159,
      "##ހ": 6160,
      "##ދ": 6161,
      "##敬": 6162,
      "##愚": 6163,
      "##考": 6164,
      "##拾": 6165,
      "##遺": 6166,
      "##医": 6167,
      "##ﬁ": 6168,
      "##ஸ": 6169,
      "##綍": 6170,
      "##假": 6171,
      "##跑": 6172,
      "##淑": 6173,
      "##昭": 6174,
      "##養": 6175,
      "##停": 6176,
      "##留": 6177,
      "##∆": 6178,
      "##治": 6179,
      "##兔": 6180,
      "##ւ": 6181,
      "##ց": 6182,
      "##ס": 6183,
      "##夷": 6184,
      "##富": 6185,
      "##惧": 6186,
      "##ә": 6187,
      "##қ": 6188,
      "##ץ": 6189,
      "##瞰": 6190,
      "##支": 6191,
      "##筆": 6192,
      "##网": 6193,
      "##瀬": 6194,
      "##駒": 6195,
      "##裁": 6196,
      "##際": 6197,
      "##箒": 6198,
      "##昌": 6199,
      "##巖": 6200,
      "##ჶ": 6201,
      "##摩": 6202,
      "##季": 6203,
      "##隅": 6204,
      "##評": 6205,
      "##產": 6206,
      "##黨": 6207,
      "##○": 6208,
      "##懷": 6209,
      "##茅": 6210,
      "##跟": 6211,
      "##著": 6212,
      "##込": 6213,
      "##旬": 6214,
      "##ψ": 6215,
      "##駅": 6216,
      "##差": 6217,
      "##傷": 6218,
      "##毅": 6219,
      "##曼": 6220,
      "##丹": 6221,
      "##】": 6222,
      "##欧": 6223,
      "##何": 6224,
      "##珉": 6225,
      "##涉": 6226,
      "##嫌": 6227,
      "##严": 6228,
      "##违": 6229,
      "##组": 6230,
      "##织": 6231,
      "##混": 6232,
      "##थ": 6233,
      "##旅": 6234,
      "##禁": 6235,
      "##چ": 6236,
      "##維": 6237,
      "##勇": 6238,
      "##签": 6239,
      "##韩": 6240,
      "##志": 6241,
      "##走": 6242,
      "##職": 6243,
      "##憶": 6244,
      "##爾": 6245,
      "##术": 6246,
      "##更": 6247,
      "##妈": 6248,
      "##補": 6249,
      "##額": 6250,
      "##貨": 6251,
      "##払": 6252,
      "##端": 6253,
      "##算": 6254,
      "##这": 6255,
      "##ג": 6256,
      "##魂": 6257,
      "##ฎ": 6258,
      "##杯": 6259,
      "##श": 6260,
      "##撑": 6261,
      "##悁": 6262,
      "##貝": 6263,
      "##𦟐": 6264,
      "##慳": 6265,
      "##冤": 6266,
      "##塌": 6267,
      "##噌": 6268,
      "##增": 6269,
      "##津": 6270,
      "##衙": 6271,
      "##伯": 6272,
      "##封": 6273,
      "##级": 6274,
      "##余": 6275,
      "##泱": 6276,
      "##漪": 6277,
      "##载": 6278,
      "##": 6279,
      "##履": 6280,
      "##拏": 6281,
      "##ɟ": 6282,
      "##鬼": 6283,
      "##寛": 6284,
      "##宰": 6285,
      "##फ": 6286,
      "##曦": 6287,
      "##鬥": 6288,
      "##婆": 6289,
      "##釈": 6290,
      "##桥": 6291,
      "##増": 6292,
      "##若": 6293,
      "##徒": 6294,
      "##₨": 6295,
      "##詫": 6296,
      "##議": 6297,
      "##∂": 6298,
      "##巴": 6299,
      "##輝": 6300,
      "##妹": 6301,
      "##邱": 6302,
      "##邑": 6303,
      "##ថ": 6304,
      "##ಚ": 6305,
      "##ಕ": 6306,
      "##ಡ": 6307,
      "##ದ": 6308,
      "##声": 6309,
      "##题": 6310,
      "##湣": 6311,
      "##蒙": 6312,
      "##衆": 6313,
      "##淚": 6314,
      "##喋": 6315,
      "##笃": 6316,
      "##ｍ": 6317,
      "##ｐ": 6318,
      "##免": 6319,
      "##請": 6320,
      "##劍": 6321,
      "##歸": 6322,
      "##彭": 6323,
      "##晏": 6324,
      "##别": 6325,
      "##ۋ": 6326,
      "##铁": 6327,
      "##ۇ": 6328,
      "##彌": 6329,
      "##頂": 6330,
      "##骨": 6331,
      "##针": 6332,
      "##宗": 6333,
      "##弃": 6334,
      "##赛": 6335,
      "##炫": 6336,
      "##晋": 6337,
      "##帥": 6338,
      "##总": 6339,
      "##选": 6340,
      "##肇": 6341,
      "##静": 6342,
      "##《": 6343,
      "##謙": 6344,
      "##ｎ": 6345,
      "##ｅ": 6346,
      "##ｗ": 6347,
      "##炭": 6348,
      "##産": 6349,
      "##釣": 6350,
      "##ষ": 6351,
      "##认": 6352,
      "##踢": 6353,
      "##帖": 6354,
      "##肏": 6355,
      "##♦": 6356,
      "##扬": 6357,
      "##聴": 6358,
      "##晃": 6359,
      "##ര": 6360,
      "##ത": 6361,
      "##ഫ": 6362,
      "##ല": 6363,
      "##ꜥ": 6364,
      "##\u0007": 6365,
      "##赫": 6366,
      "##罪": 6367,
      "##〜": 6368,
      "##附": 6369,
      "##輬": 6370,
      "##把": 6371,
      "##搜": 6372,
      "##尋": 6373,
      "##擎": 6374,
      "##奪": 6375,
      "##ˁ": 6376,
      "##ᆩ": 6377,
      "##ত": 6378,
      "##য": 6379,
      "##纾": 6380,
      "##译": 6381,
      "##ｋ": 6382,
      "##抱": 6383,
      "##娛": 6384,
      "##爭": 6385,
      "##黄": 6386,
      "##量": 6387,
      "##便": 6388,
      "##况": 6389,
      "##注": 6390,
      "##掛": 6391,
      "##號": 6392,
      "##创": 6393,
      "##昆": 6394,
      "##ക": 6395,
      "##ഷ": 6396,
      "##മ": 6397,
      "##怀": 6398,
      "##忍": 6399,
      "##劳": 6400,
      "##盟": 6401,
      "##懂": 6402,
      "##【": 6403,
      "##蓮": 6404,
      "##±": 6405,
      "##背": 6406,
      "##𐤉": 6407,
      "##𐤍": 6408,
      "##𐤊": 6409,
      "##宪": 6410,
      "##ⵎ": 6411,
      "##ⵜ": 6412,
      "##刊": 6413,
      "##娜": 6414,
      "##遭": 6415,
      "##⊞": 6416,
      "##杉": 6417,
      "##√": 6418,
      "##資": 6419,
      "##鮮": 6420,
      "##尸": 6421,
      "##ಮ": 6422,
      "##洁": 6423,
      "##湛": 6424,
      "##逆": 6425,
      "##蕉": 6426,
      "##砲": 6427,
      "##羽": 6428,
      "##鎮": 6429,
      "##撫": 6430,
      "##&": 6431,
      "##娃": 6432,
      "##般": 6433,
      "##浮": 6434,
      "##渊": 6435,
      "##党": 6436,
      "##鶴": 6437,
      "##诞": 6438,
      "##辰": 6439,
      "##紓": 6440,
      "##譯": 6441,
      "##泥": 6442,
      "##马": 6443,
      "##虢": 6444,
      "##补": 6445,
      "##挙": 6446,
      "##極": 6447,
      "##ប": 6448,
      "##ណ": 6449,
      "##銕": 6450,
      "##葱": 6451,
      "##ɴ": 6452,
      "##翼": 6453,
      "##滑": 6454,
      "##ډ": 6455,
      "##璃": 6456,
      "##惑": 6457,
      "##鐘": 6458,
      "##恭": 6459,
      "##恺": 6460,
      "##悌": 6461,
      "##ᆹ": 6462,
      "##坡": 6463,
      "##就": 6464,
      "##消": 6465,
      "##些": 6466,
      "##詠": 6467,
      "##絡": 6468,
      "##☉": 6469,
      "##耶": 6470,
      "##梁": 6471,
      "##谥": 6472,
      "##織": 6473,
      "##指": 6474,
      "##狙": 6475,
      "##眞": 6476,
      "##卓": 6477,
      "##𝑠": 6478,
      "##𝑡": 6479,
      "##": 6480,
      "##紳": 6481,
      "##実": 6482,
      "##頼": 6483,
      "##賜": 6484,
      "##ㆍ": 6485,
      "##ㅣ": 6486,
      "##綱": 6487,
      "##‹": 6488,
      "##漁": 6489,
      "##饅": 6490,
      "##舗": 6491,
      "##吾": 6492,
      "##匠": 6493,
      "##": 6494,
      "##އ": 6495,
      "##ސ": 6496,
      "##ލ": 6497,
      "##ޠ": 6498,
      "##辣": 6499,
      "##閃": 6500,
      "##প": 6501,
      "##倫": 6502,
      "##曇": 6503,
      "##専": 6504,
      "##互": 6505,
      "##强": 6506,
      "##靴": 6507,
      "##粋": 6508,
      "##လ": 6509,
      "##鋼": 6510,
      "##阴": 6511,
      "##阳": 6512,
      "##略": 6513,
      "##姑": 6514,
      "##巒": 6515,
      "##揮": 6516,
      "##塞": 6517,
      "##淮": 6518,
      "##柱": 6519,
      "##怖": 6520,
      "##热": 6521,
      "##彬": 6522,
      "##锁": 6523,
      "##湄": 6524,
      "##寺": 6525,
      "##鸣": 6526,
      "##钟": 6527,
      "##欲": 6528,
      "##饭": 6529,
      "##现": 6530,
      "##幡": 6531,
      "##ｘ": 6532,
      "##☰": 6533,
      "##话": 6534,
      "##杞": 6535,
      "##诀": 6536,
      "##恐": 6537,
      "##ʌ": 6538,
      "##怤": 6539,
      "##峴": 6540,
      "##横": 6541,
      "##孩": 6542,
      "##臂": 6543,
      "##膊": 6544,
      "##哪": 6545,
      "##叱": 6546,
      "##临": 6547,
      "##凡": 6548,
      "##ख": 6549,
      "##园": 6550,
      "##親": 6551,
      "##ဘ": 6552,
      "##ဇ": 6553,
      "##ဒ": 6554,
      "##來": 6555,
      "##韋": 6556,
      "##訪": 6557,
      "##降": 6558,
      "##厥": 6559,
      "##两": 6560,
      "##派": 6561,
      "##观": 6562,
      "##ⵄ": 6563,
      "##矢": 6564,
      "##琳": 6565,
      "##涙": 6566,
      "##鼎": 6567,
      "##⇭": 6568,
      "##层": 6569,
      "##设": 6570,
      "##计": 6571,
      "##儿": 6572,
      "##隋": 6573,
      "##膚": 6574,
      "##鄭": 6575,
      "##願": 6576,
      "##絆": 6577,
      "##晚": 6578,
      "##儀": 6579,
      "##憑": 6580,
      "##续": 6581,
      "##碟": 6582,
      "##𢆥": 6583,
      "##𥪞": 6584,
      "##𡎝": 6585,
      "##𠊛": 6586,
      "##漏": 6587,
      "##ћ": 6588,
      "##七": 6589,
      "##濃": 6590,
      "##谭": 6591,
      "##洗": 6592,
      "##ײ": 6593,
      "##ತ": 6594,
      "##ಯ": 6595,
      "##ಭ": 6596,
      "##梓": 6597,
      "##□": 6598,
      "##ɕ": 6599,
      "##ʑ": 6600,
      "##鼓": 6601,
      "##实": 6602,
      "##掖": 6603,
      "##幼": 6604,
      "##羅": 6605,
      "##萧": 6606,
      "##抑": 6607,
      "##止": 6608,
      "##ळ": 6609,
      "##辞": 6610,
      "##靖": 6611,
      "##ｈ": 6612,
      "##ｕ": 6613,
      "##寇": 6614,
      "##芭": 6615,
      "##莎": 6616,
      "##儚": 6617,
      "##蘭": 6618,
      "##ঙ": 6619,
      "##ぃ": 6620,
      "##箍": 6621,
      "##擊": 6622,
      "##雷": 6623,
      "##వ": 6624,
      "##ల": 6625,
      "##频": 6626,
      "##宛": 6627,
      "##谢": 6628,
      "##嬬": 6629,
      "##ງ": 6630,
      "##ກ": 6631,
      "##ຣ": 6632,
      "##ນ": 6633,
      "##ძ": 6634,
      "##弦": 6635,
      "##快": 6636,
      "##靓": 6637,
      "##持": 6638,
      "##দ": 6639,
      "##শ": 6640,
      "##孝": 6641,
      "##¸": 6642,
      "##避": 6643,
      "##率": 6644,
      "##挽": 6645,
      "##退": 6646,
      "##റ": 6647,
      "##വ": 6648,
      "##廈": 6649,
      "##舟": 6650,
      "##魯": 6651,
      "##毎": 6652,
      "##‎": 6653,
      "##": 6654,
      "##毛": 6655,
      "##祥": 6656,
      "##粵": 6657,
      "##卻": 6658,
      "##樣": 6659,
      "##狗": 6660,
      "##漿": 6661,
      "##蜻": 6662,
      "##蛉": 6663,
      "##致": 6664,
      "##積": 6665,
      "##凰": 6666,
      "##輸": 6667,
      "##躍": 6668,
      "##襄": 6669,
      "##迅": 6670,
      "##馀": 6671,
      "##嗟": 6672,
      "##痛": 6673,
      "##ग": 6674,
      "##偵": 6675,
      "##健": 6676,
      "##ヌ": 6677,
      "##恃": 6678,
      "##僣": 6679,
      "##ڑ": 6680,
      "##售": 6681,
      "##氷": 6682,
      "##穴": 6683,
      "##禅": 6684,
      "##携": 6685,
      "##绎": 6686,
      "##騒": 6687,
      "##俄": 6688,
      "##盃": 6689,
      "##ና": 6690,
      "##ʲ": 6691,
      "##趾": 6692,
      "##舉": 6693,
      "##龄": 6694,
      "##𐎠": 6695,
      "##𐎭": 6696,
      "##汽": 6697,
      "##分": 6698,
      "##排": 6699,
      "##汝": 6700,
      "##ᐨ": 6701,
      "##佛": 6702,
      "##腥": 6703,
      "##扒": 6704,
      "##溢": 6705,
      "##ដ": 6706,
      "##ឋ": 6707,
      "##両": 6708,
      "##欽": 6709,
      "##ܕ": 6710,
      "##ܣ": 6711,
      "##ܡ": 6712,
      "##ܢ": 6713,
      "##税": 6714,
      "##簽": 6715,
      "##÷": 6716,
      "##才": 6717,
      "##𡦂": 6718,
      "##窖": 6719,
      "##恄": 6720,
      "##饒": 6721,
      "##卒": 6722,
      "##敝": 6723,
      "##劇": 6724,
      "##俳": 6725,
      "##祇": 6726,
      "##継": 6727,
      "##鲁": 6728,
      "##廟": 6729,
      "##拓": 6730,
      "##髪": 6731,
      "##納": 6732,
      "##濆": 6733,
      "##戻": 6734,
      "##粟": 6735,
      "##蝶": 6736,
      "##殿": 6737,
      "##ভ": 6738,
      "##綠": 6739,
      "##寄": 6740,
      "##群": 6741,
      "##ች": 6742,
      "##傑": 6743,
      "##斬": 6744,
      "##警": 6745,
      "##戒": 6746,
      "##悪": 6747,
      "##誰": 6748,
      "##诛": 6749,
      "##诸": 6750,
      "##": 6751,
      "##优": 6752,
      "##條": 6753,
      "##␀": 6754,
      "##廊": 6755,
      "##♡": 6756,
      "##遍": 6757,
      "##涛": 6758,
      "##梅": 6759,
      "##婷": 6760,
      "##軽": 6761,
      "##诠": 6762,
      "##释": 6763,
      "##根": 6764,
      "##շ": 6765,
      "##տ": 6766,
      "##紫": 6767,
      "##錦": 6768,
      "##蒻": 6769,
      "##薯": 6770,
      "##駿": 6771,
      "##印": 6772,
      "##维": 6773,
      "##永": 6774,
      "##敷": 6775,
      "##謎": 6776,
      "##往": 6777,
      "##": 6778,
      "##規": 6779,
      "##模": 6780,
      "##陁": 6781,
      "##评": 6782,
      "##今": 6783,
      "##岗": 6784,
      "##祉": 6785,
      "##測": 6786,
      "##援": 6787,
      "##鞍": 6788,
      "##珀": 6789,
      "##鹅": 6790,
      "##數": 6791,
      "##池": 6792,
      "##豆": 6793,
      "##巳": 6794,
      "##ஷ": 6795,
      "##պ": 6796,
      "##蝉": 6797,
      "##њ": 6798,
      "##槍": 6799,
      "##壌": 6800,
      "##焼": 6801,
      "##焦": 6802,
      "##焔": 6803,
      "##划": 6804,
      "##桑": 6805,
      "##թ": 6806,
      "##固": 6807,
      "##খ": 6808,
      "##ᆬ": 6809,
      "##恩": 6810,
      "##惠": 6811,
      "##亦": 6812,
      "##斎": 6813,
      "##漫": 6814,
      "##ｒ": 6815,
      "##討": 6816,
      "##偏": 6817,
      "##歡": 6818,
      "##盂": 6819,
      "##凌": 6820,
      "##毯": 6821,
      "##办": 6822,
      "##և": 6823,
      "##త": 6824,
      "##谓": 6825,
      "##仆": 6826,
      "##切": 6827,
      "##忘": 6828,
      "##却": 6829,
      "##ನ": 6830,
      "##ವ": 6831,
      "##姗": 6832,
      "##菲": 6833,
      "##召": 6834,
      "##址": 6835,
      "##ɹ": 6836,
      "##ƃ": 6837,
      "##俗": 6838,
      "##ղ": 6839,
      "##ｇ": 6840,
      "##歴": 6841,
      "##苗": 6842,
      "##谁": 6843,
      "##អ": 6844,
      "##ខ": 6845,
      "##缅": 6846,
      "##辉": 6847,
      "##բ": 6848,
      "##ᆰ": 6849,
      "##尙": 6850,
      "##營": 6851,
      "##ც": 6852,
      "##贲": 6853,
      "##劒": 6854,
      "##縣": 6855,
      "##朴": 6856,
      "##鎚": 6857,
      "##蜀": 6858,
      "##涯": 6859,
      "##（": 6860,
      "##歷": 6861,
      "##脈": 6862,
      "##爰": 6863,
      "##鰻": 6864,
      "##偶": 6865,
      "##图": 6866,
      "##值": 6867,
      "##升": 6868,
      "##炉": 6869,
      "##嵐": 6870,
      "##歩": 6871,
      "##贸": 6872,
      "##廳": 6873,
      "##➝": 6874,
      "##貓": 6875,
      "##连": 6876,
      "##郵": 6877,
      "##": 6878,
      "##荘": 6879,
      "##帅": 6880,
      "##秋": 6881,
      "##恶": 6882,
      "##菱": 6883,
      "##莉": 6884,
      "##態": 6885,
      "##婚": 6886,
      "##姻": 6887,
      "##權": 6888,
      "##პ": 6889,
      "##葆": 6890,
      "##溜": 6891,
      "##ܒ": 6892,
      "##ܝ": 6893,
      "##ట": 6894,
      "##య": 6895,
      "##亭": 6896,
      "##丰": 6897,
      "##済": 6898,
      "##務": 6899,
      "##ള": 6900,
      "##ഭ": 6901,
      "##ս": 6902,
      "##違": 6903,
      "##韓": 6904,
      "##茜": 6905,
      "##微": 6906,
      "##険": 6907,
      "##ˤ": 6908,
      "##闘": 6909,
      "##燃": 6910,
      "##實": 6911,
      "##离": 6912,
      "##歉": 6913,
      "##魅": 6914,
      "##栞": 6915,
      "##屑": 6916,
      "##辟": 6917,
      "##杏": 6918,
      "##կ": 6919,
      "##似": 6920,
      "##祓": 6921,
      "##栋": 6922,
      "##脫": 6923,
      "##敗": 6924,
      "##俣": 6925,
      "##ᅤ": 6926,
      "##爆": 6927,
      "##栖": 6928,
      "##哉": 6929,
      "##卡": 6930,
      "##拉": 6931,
      "##頻": 6932,
      "##": 6933,
      "##釐": 6934,
      "##揆": 6935,
      "##迭": 6936,
      "##ވ": 6937,
      "##ޖ": 6938,
      "##ގ": 6939,
      "##冲": 6940,
      "##薩": 6941,
      "##清": 6942,
      "##浄": 6943,
      "##負": 6944,
      "##築": 6945,
      "##′": 6946,
      "##施": 6947,
      "##脇": 6948,
      "##铉": 6949,
      "##夭": 6950,
      "##ஜ": 6951,
      "##牢": 6952,
      "##决": 6953,
      "##酒": 6954,
      "##环": 6955,
      "##ະ": 6956,
      "##ພ": 6957,
      "##奠": 6958,
      "##処": 6959,
      "##缶": 6960,
      "##戈": 6961,
      "##撒": 6962,
      "##冷": 6963,
      "##墓": 6964,
      "##莊": 6965,
      "##僑": 6966,
      "##晶": 6967,
      "##廠": 6968,
      "##灘": 6969,
      "##鐵": 6970,
      "##裕": 6971,
      "##紐": 6972,
      "##耳": 6973,
      "##惨": 6974,
      "##蔡": 6975,
      "##祠": 6976,
      "##祀": 6977,
      "##咖": 6978,
      "##云": 6979,
      "##庆": 6980,
      "##◆": 6981,
      "##ｂ": 6982,
      "##卉": 6983,
      "##葳": 6984,
      "##饰": 6985,
      "##惜": 6986,
      "##麾": 6987,
      "##ⵣ": 6988,
      "##转": 6989,
      "##蛮": 6990,
      "##კ": 6991,
      "##‭": 6992,
      "##裂": 6993,
      "##貌": 6994,
      "##胃": 6995,
      "##宝": 6996,
      "##塚": 6997,
      "##鹰": 6998,
      "##购": 6999,
      "##轰": 7000,
      "##斋": 7001,
      "##": 7002,
      "##憐": 7003,
      "##键": 7004,
      "##锋": 7005,
      "##搭": 7006,
      "##諾": 7007,
      "##恆": 7008,
      "##艾": 7009,
      "##稲": 7010,
      "##供": 7011,
      "##雖": 7012,
      "##绝": 7013,
      "##忧": 7014,
      "##郁": 7015,
      "##ឈ": 7016,
      "##皮": 7017,
      "##鞑": 7018,
      "##短": 7019,
      "##希": 7020,
      "##懸": 7021,
      "##₣": 7022,
      "##佩": 7023,
      "##孚": 7024,
      "##证": 7025,
      "##泽": 7026,
      "##茵": 7027,
      "##翁": 7028,
      "##ৰ": 7029,
      "##珲": 7030,
      "##蘇": 7031,
      "##埃": 7032,
      "##踞": 7033,
      "##类": 7034,
      "##蕭": 7035,
      "##ዋ": 7036,
      "##ሕ": 7037,
      "##ዶ": 7038,
      "##扫": 7039,
      "##銃": 7040,
      "##魏": 7041,
      "##晖": 7042,
      "##仪": 7043,
      "##嗇": 7044,
      "##豐": 7045,
      "##许": 7046,
      "##彩": 7047,
      "##喫": 7048,
      "##妆": 7049,
      "##宜": 7050,
      "##悉": 7051,
      "##眾": 7052,
      "##軌": 7053,
      "##މ": 7054,
      "##ޔ": 7055,
      "##収": 7056,
      "##況": 7057,
      "##剛": 7058,
      "##孔": 7059,
      "##唄": 7060,
      "##｜": 7061,
      "##剩": 7062,
      "##ʷ": 7063,
      "##♫": 7064,
      "##－": 7065,
      "##醤": 7066,
      "##油": 7067,
      "##『": 7068,
      "##佈": 7069,
      "##過": 7070,
      "##濾": 7071,
      "##沒": 7072,
      "##𣷭": 7073,
      "##橷": 7074,
      "##塗": 7075,
      "##／": 7076,
      "##噴": 7077,
      "##犁": 7078,
      "##己": 7079,
      "##圣": 7080,
      "##衷": 7081,
      "##臼": 7082,
      "##疗": 7083,
      "##ឆ": 7084,
      "##捲": 7085,
      "##⁠": 7086,
      "##ը": 7087,
      "##亲": 7088,
      "##药": 7089,
      "##膳": 7090,
      "##寧": 7091,
      "##閣": 7092,
      "##蹴": 7093,
      "##ꞌ": 7094,
      "##ന": 7095,
      "##യ": 7096,
      "##历": 7097,
      "##碗": 7098,
      "##ደ": 7099,
      "##砕": 7100,
      "##→": 7101,
      "##ﻳ": 7102,
      "##ﻨ": 7103,
      "##ﺎ": 7104,
      "##ﺭ": 7105,
      "##堪": 7106,
      "##徼": 7107,
      "##乘": 7108,
      "##暴": 7109,
      "##ﻩ": 7110,
      "##緋": 7111,
      "##熟": 7112,
      "##ぅ": 7113,
      "##ぁ": 7114,
      "##♭": 7115,
      "##崇": 7116,
      "##钺": 7117,
      "##佑": 7118,
      "##滝": 7119,
      "##袋": 7120,
      "##₹": 7121,
      "##慧": 7122,
      "##ۈ": 7123,
      "##畑": 7124,
      "##勲": 7125,
      "##虜": 7126,
      "##无": 7127,
      "##或": 7128,
      "##陣": 7129,
      "##ክ": 7130,
      "##逃": 7131,
      "##ព": 7132,
      "##ជ": 7133,
      "##睛": 7134,
      "##包": 7135,
      "##揽": 7136,
      "##项": 7137,
      "##开": 7138,
      "##箭": 7139,
      "##迁": 7140,
      "##游": 7141,
      "##宽": 7142,
      "##續": 7143,
      "##闇": 7144,
      "##悦": 7145,
      "##彧": 7146,
      "##幅": 7147,
      "##狩": 7148,
      "##頁": 7149,
      "##預": 7150,
      "##購": 7151,
      "##虹": 7152,
      "##状": 7153,
      "##倪": 7154,
      "##页": 7155,
      "##円": 7156,
      "##係": 7157,
      "##浒": 7158,
      "##桃": 7159,
      "##抄": 7160,
      "##倶": 7161,
      "##摂": 7162,
      "##ⲓ": 7163,
      "##ⲣ": 7164,
      "##ⲉ": 7165,
      "##ⲙ": 7166,
      "##ⲛ": 7167,
      "##ⲭ": 7168,
      "##ⲏ": 7169,
      "##淳": 7170,
      "##琶": 7171,
      "##娱": 7172,
      "##怒": 7173,
      "##迹": 7174,
      "##襲": 7175,
      "##媛": 7176,
      "##澪": 7177,
      "##褆": 7178,
      "##黑": 7179,
      "##击": 7180,
      "##ছ": 7181,
      "##狭": 7182,
      "##礫": 7183,
      "##啼": 7184,
      "##聶": 7185,
      "##ዲ": 7186,
      "##屄": 7187,
      "##ሙ": 7188,
      "##ዝ": 7189,
      "##嘢": 7190,
      "##講": 7191,
      "##累": 7192,
      "##胎": 7193,
      "##桐": 7194,
      "##凱": 7195,
      "##瑩": 7196,
      "##鶏": 7197,
      "##勳": 7198,
      "##怨": 7199,
      "##韵": 7200,
      "##煊": 7201,
      "##ရ": 7202,
      "##現": 7203,
      "##朵": 7204,
      "##‡": 7205,
      "##嚴": 7206,
      "##ℏ": 7207,
      "##詰": 7208,
      "##適": 7209,
      "##记": 7210,
      "##跳": 7211,
      "##歐": 7212,
      "##响": 7213,
      "##綺": 7214,
      "##试": 7215,
      "##柴": 7216,
      "##晗": 7217,
      "##杨": 7218,
      "##怪": 7219,
      "##殃": 7220,
      "##斉": 7221,
      "##邪": 7222,
      "##睇": 7223,
      "##佢": 7224,
      "##哋": 7225,
      "##废": 7226,
      "##繰": 7227,
      "##騷": 7228,
      "##鏞": 7229,
      "##喆": 7230,
      "##寻": 7231,
      "##將": 7232,
      "##妮": 7233,
      "##裳": 7234,
      "##庭": 7235,
      "##燧": 7236,
      "##颁": 7237,
      "##齎": 7238,
      "##毒": 7239,
      "##￥": 7240,
      "##朋": 7241,
      "##荷": 7242,
      "##忽": 7243,
      "##暮": 7244,
      "##ฮ": 7245,
      "##复": 7246,
      "##绛": 7247,
      "##函": 7248,
      "##ㅏ": 7249,
      "##ㅜ": 7250,
      "##ㅗ": 7251,
      "##銮": 7252,
      "##辂": 7253,
      "##旒": 7254,
      "##繕": 7255,
      "##撲": 7256,
      "##宫": 7257,
      "##判": 7258,
      "##虏": 7259,
      "##树": 7260,
      "##晨": 7261,
      "##圾": 7262,
      "##劾": 7263,
      "##泊": 7264,
      "##屆": 7265,
      "##榮": 7266,
      "##跨": 7267,
      "##渤": 7268,
      "##急": 7269,
      "##除": 7270,
      "##职": 7271,
      "##ဖ": 7272,
      "##蕃": 7273,
      "##価": 7274,
      "##櫓": 7275,
      "##腹": 7276,
      "##ಶ": 7277,
      "##ಥ": 7278,
      "##坠": 7279,
      "##帳": 7280,
      "##迩": 7281,
      "##佶": 7282,
      "##ㅡ": 7283,
      "##甲": 7284,
      "##ң": 7285,
      "##ဣ": 7286,
      "##挨": 7287,
      "##拶": 7288,
      "##拯": 7289,
      "##迴": 7290,
      "##吊": 7291,
      "##雍": 7292,
      "##沛": 7293,
      "##瑤": 7294,
      "##舘": 7295,
      "##伤": 7296,
      "##撰": 7297,
      "##伸": 7298,
      "##待": 7299,
      "##彙": 7300,
      "##ㇱ": 7301,
      "##ㇼ": 7302,
      "##搬": 7303,
      "##巧": 7304,
      "##衢": 7305,
      "##ں": 7306,
      "##む": 7307,
      "##誓": 7308,
      "##ⴸ": 7309,
      "##謹": 7310,
      "##釁": 7311,
      "##ር": 7312,
      "##识": 7313,
      "##禄": 7314,
      "##述": 7315,
      "##论": 7316,
      "##协": 7317,
      "##敌": 7318,
      "##赠": 7319,
      "##昏": 7320,
      "##腕": 7321,
      "##廷": 7322,
      "##鷹": 7323,
      "##靡": 7324,
      "##坐": 7325,
      "##鄕": 7326,
      "##▮": 7327,
      "##＃": 7328,
      "##戯": 7329,
      "##誘": 7330,
      "##笑": 7331,
      "##顔": 7332,
      "##旋": 7333,
      "##藝": 7334,
      "##访": 7335,
      "##隠": 7336,
      "##枝": 7337,
      "##ಗ": 7338,
      "##橙": 7339,
      "##邙": 7340,
      "##戴": 7341,
      "##ɣ": 7342,
      "##虚": 7343,
      "##拟": 7344,
      "##₩": 7345,
      "##糖": 7346,
      "##款": 7347,
      "##ێ": 7348,
      "##ڕ": 7349,
      "##遂": 7350,
      "##败": 7351,
      "##迫": 7352,
      "##鸟": 7353,
      "##昊": 7354,
      "##懼": 7355,
      "##闺": 7356,
      "##蜜": 7357,
      "##戎": 7358,
      "##旆": 7359,
      "##霜": 7360,
      "##触": 7361,
      "##踏": 7362,
      "##慑": 7363,
      "##恨": 7364,
      "##難": 7365,
      "##範": 7366,
      "##麟": 7367,
      "##～": 7368,
      "##咲": 7369,
      "##￼": 7370,
      "##併": 7371,
      "##♝": 7372,
      "##醉": 7373,
      "##轄": 7374,
      "##": 7375,
      "##忑": 7376,
      "##": 7377,
      "##琵": 7378,
      "##姜": 7379,
      "##ĸ": 7380,
      "##熊": 7381,
      "##岷": 7382,
      "##奉": 7383,
      "##牟": 7384,
      "##婁": 7385,
      "##承": 7386,
      "##認": 7387,
      "##陕": 7388,
      "##恒": 7389,
      "##穗": 7390,
      "##問": 7391,
      "##甚": 7392,
      "##舎": 7393,
      "##硬": 7394,
      "##ឡ": 7395,
      "##ញ": 7396,
      "##财": 7397,
      "##旭": 7398,
      "##吴": 7399,
      "##羲": 7400,
      "##苏": 7401,
      "##න": 7402,
      "##ස": 7403,
      "##ර": 7404,
      "##ව": 7405,
      "##ද": 7406,
      "##咏": 7407,
      "##燕": 7408,
      "##卍": 7409,
      "##含": 7410,
      "##昇": 7411,
      "##辛": 7412,
      "##冒": 7413,
      "##児": 7414,
      "##麩": 7415,
      "##辿": 7416,
      "##麺": 7417,
      "##霖": 7418,
      "##褥": 7419,
      "##裹": 7420,
      "##讓": 7421,
      "##愉": 7422,
      "##劔": 7423,
      "##轅": 7424,
      "##覽": 7425,
      "##傘": 7426,
      "##ක": 7427,
      "##ම": 7428,
      "##ය": 7429,
      "##ჯ": 7430,
      "##匙": 7431,
      "##尽": 7432,
      "##痊": 7433,
      "##ҕ": 7434,
      "##檔": 7435,
      "th": 7436,
      "the": 7437,
      "##er": 7438,
      "##in": 7439,
      "##on": 7440,
      "##at": 7441,
      "##nd": 7442,
      "##es": 7443,
      "##or": 7444,
      "##en": 7445,
      "##ed": 7446,
      "of": 7447,
      "##ing": 7448,
      "##ou": 7449,
      "##al": 7450,
      "##an": 7451,
      "and": 7452,
      "in": 7453,
      "##it": 7454,
      "to": 7455,
      "##ion": 7456,
      "##is": 7457,
      "##ar": 7458,
      "##ic": 7459,
      "##re": 7460,
      "##ent": 7461,
      "##om": 7462,
      "##as": 7463,
      "##le": 7464,
      "##ec": 7465,
      "##ation": 7466,
      "##et": 7467,
      "##ro": 7468,
      "##el": 7469,
      "you": 7470,
      "for": 7471,
      "##st": 7472,
      "##il": 7473,
      "re": 7474,
      "on": 7475,
      "##ct": 7476,
      "##ut": 7477,
      "wh": 7478,
      "##ment": 7479,
      "##id": 7480,
      "##ur": 7481,
      "##ve": 7482,
      "be": 7483,
      "st": 7484,
      "##ot": 7485,
      "##ly": 7486,
      "or": 7487,
      "##ow": 7488,
      "pro": 7489,
      "##ol": 7490,
      "sh": 7491,
      "##ig": 7492,
      "##ad": 7493,
      "##ce": 7494,
      "##se": 7495,
      "is": 7496,
      "it": 7497,
      "##ay": 7498,
      "that": 7499,
      "##ir": 7500,
      "as": 7501,
      "##ch": 7502,
      "##ith": 7503,
      "##ter": 7504,
      "##am": 7505,
      "con": 7506,
      "with": 7507,
      "##ul": 7508,
      "##im": 7509,
      "##ver": 7510,
      "com": 7511,
      "an": 7512,
      "he": 7513,
      "##ies": 7514,
      "##th": 7515,
      "##ers": 7516,
      "ha": 7517,
      "##est": 7518,
      "al": 7519,
      "##ate": 7520,
      "su": 7521,
      "##ra": 7522,
      "##ist": 7523,
      "##ess": 7524,
      "was": 7525,
      "##pp": 7526,
      "##all": 7527,
      "ex": 7528,
      "##ect": 7529,
      "##od": 7530,
      "##if": 7531,
      "##op": 7532,
      "##ge": 7533,
      "de": 7534,
      "this": 7535,
      "fr": 7536,
      "at": 7537,
      "ch": 7538,
      "##iv": 7539,
      "are": 7540,
      "##ust": 7541,
      "##ld": 7542,
      "ar": 7543,
      "##ant": 7544,
      "pr": 7545,
      "me": 7546,
      "##igh": 7547,
      "by": 7548,
      "##ity": 7549,
      "##ort": 7550,
      "##ak": 7551,
      "en": 7552,
      "we": 7553,
      "##ab": 7554,
      "not": 7555,
      "do": 7556,
      "##ere": 7557,
      "##ill": 7558,
      "##mp": 7559,
      "go": 7560,
      "##us": 7561,
      "##ial": 7562,
      "se": 7563,
      "le": 7564,
      "tr": 7565,
      "from": 7566,
      "##ac": 7567,
      "your": 7568,
      "so": 7569,
      "##ain": 7570,
      "##and": 7571,
      "ne": 7572,
      "##os": 7573,
      "have": 7574,
      "##iz": 7575,
      "##ive": 7576,
      "##art": 7577,
      "##ations": 7578,
      "##ight": 7579,
      "##..": 7580,
      "comp": 7581,
      "sp": 7582,
      "##ib": 7583,
      "##un": 7584,
      "wor": 7585,
      "shall": 7586,
      "##ould": 7587,
      "##ions": 7588,
      "pl": 7589,
      "if": 7590,
      "but": 7591,
      "##ip": 7592,
      "##ore": 7593,
      "man": 7594,
      "##um": 7595,
      "lo": 7596,
      "##ance": 7597,
      "##ard": 7598,
      "##qu": 7599,
      "can": 7600,
      "##uct": 7601,
      "ac": 7602,
      "min": 7603,
      "##ap": 7604,
      "##ud": 7605,
      "ag": 7606,
      "res": 7607,
      "they": 7608,
      "ab": 7609,
      "all": 7610,
      "app": 7611,
      "un": 7612,
      "##ry": 7613,
      "##gh": 7614,
      "##ell": 7615,
      "##em": 7616,
      "##age": 7617,
      "cl": 7618,
      "##ated": 7619,
      "cont": 7620,
      "no": 7621,
      "art": 7622,
      "his": 7623,
      "##ans": 7624,
      "dec": 7625,
      "##out": 7626,
      "##au": 7627,
      "##ure": 7628,
      "ad": 7629,
      "reg": 7630,
      "##ice": 7631,
      "##oun": 7632,
      "##ome": 7633,
      "##ich": 7634,
      "artic": 7635,
      "##per": 7636,
      "imp": 7637,
      "out": 7638,
      "##ime": 7639,
      "##ual": 7640,
      "##our": 7641,
      "##ord": 7642,
      "##ok": 7643,
      "up": 7644,
      "my": 7645,
      "##ie": 7646,
      "##ign": 7647,
      "##ical": 7648,
      "sa": 7649,
      "acc": 7650,
      "her": 7651,
      "##ther": 7652,
      "article": 7653,
      "##ear": 7654,
      "##ough": 7655,
      "she": 7656,
      "prov": 7657,
      "##ag": 7658,
      "comm": 7659,
      "us": 7660,
      "##vel": 7661,
      "##ake": 7662,
      "one": 7663,
      "##her": 7664,
      "##orm": 7665,
      "what": 7666,
      "had": 7667,
      "##ik": 7668,
      "pe": 7669,
      "inv": 7670,
      "##ine": 7671,
      "which": 7672,
      "##ast": 7673,
      "per": 7674,
      "there": 7675,
      "their": 7676,
      "##ities": 7677,
      "##ire": 7678,
      "int": 7679,
      "af": 7680,
      "kn": 7681,
      "##ong": 7682,
      "##itt": 7683,
      "##ach": 7684,
      "when": 7685,
      "##one": 7686,
      "##ous": 7687,
      "##ber": 7688,
      "rec": 7689,
      "##ments": 7690,
      "who": 7691,
      "##ish": 7692,
      "co": 7693,
      "la": 7694,
      "##ame": 7695,
      "##pr": 7696,
      "work": 7697,
      "##ide": 7698,
      "##enc": 7699,
      "##ound": 7700,
      "##ause": 7701,
      "##ree": 7702,
      "vi": 7703,
      "##gan": 7704,
      "other": 7705,
      "will": 7706,
      "about": 7707,
      "peop": 7708,
      "##oc": 7709,
      "##ary": 7710,
      "##ack": 7711,
      "##ult": 7712,
      "##end": 7713,
      "people": 7714,
      "##ount": 7715,
      "inc": 7716,
      "exp": 7717,
      "ind": 7718,
      "fin": 7719,
      "off": 7720,
      "##form": 7721,
      "##lic": 7722,
      "##ied": 7723,
      "am": 7724,
      "lik": 7725,
      "act": 7726,
      "##ue": 7727,
      "time": 7728,
      "##ase": 7729,
      "were": 7730,
      "##nder": 7731,
      "dis": 7732,
      "fe": 7733,
      "ass": 7734,
      "mo": 7735,
      "know": 7736,
      "ser": 7737,
      "part": 7738,
      "##act": 7739,
      "them": 7740,
      "##ject": 7741,
      "##og": 7742,
      "##istr": 7743,
      "##ater": 7744,
      "law": 7745,
      "##able": 7746,
      "organ": 7747,
      "##ence": 7748,
      "under": 7749,
      "any": 7750,
      "state": 7751,
      "##ff": 7752,
      "##ific": 7753,
      "ev": 7754,
      "gr": 7755,
      "##ational": 7756,
      "ins": 7757,
      "like": 7758,
      "##ens": 7759,
      "##oll": 7760,
      "more": 7761,
      "rep": 7762,
      "sc": 7763,
      "organiz": 7764,
      "##ep": 7765,
      "inter": 7766,
      "po": 7767,
      "some": 7768,
      "him": 7769,
      "pres": 7770,
      "pre": 7771,
      "##int": 7772,
      "has": 7773,
      "just": 7774,
      "may": 7775,
      "invest": 7776,
      "##uc": 7777,
      "##fer": 7778,
      "##ons": 7779,
      "##ub": 7780,
      "into": 7781,
      "over": 7782,
      "##ace": 7783,
      "##cial": 7784,
      "##lect": 7785,
      "##ass": 7786,
      "##ely": 7787,
      "spec": 7788,
      "year": 7789,
      "##ays": 7790,
      "bec": 7791,
      "car": 7792,
      "would": 7793,
      "##ose": 7794,
      "mar": 7795,
      "##ruct": 7796,
      "##ia": 7797,
      "##ors": 7798,
      "##ang": 7799,
      "##ks": 7800,
      "te": 7801,
      "how": 7802,
      "##lo": 7803,
      "don": 7804,
      "after": 7805,
      "##duct": 7806,
      "get": 7807,
      "trans": 7808,
      "##ract": 7809,
      "been": 7810,
      "than": 7811,
      "##ail": 7812,
      "good": 7813,
      "##wn": 7814,
      "##ade": 7815,
      "use": 7816,
      "...": 7817,
      "sub": 7818,
      "bo": 7819,
      "##ents": 7820,
      "##ink": 7821,
      "##pt": 7822,
      "##ert": 7823,
      "cons": 7824,
      "must": 7825,
      "br": 7826,
      "right": 7827,
      "##reat": 7828,
      "ever": 7829,
      "qu": 7830,
      "tw": 7831,
      "said": 7832,
      "serv": 7833,
      "##ech": 7834,
      "sec": 7835,
      "##ally": 7836,
      "cr": 7837,
      "##ings": 7838,
      "regul": 7839,
      "fir": 7840,
      "gu": 7841,
      "##ision": 7842,
      "tra": 7843,
      "proc": 7844,
      "new": 7845,
      "##old": 7846,
      "##rib": 7847,
      "then": 7848,
      "##ax": 7849,
      "##lement": 7850,
      "its": 7851,
      "##min": 7852,
      "##ond": 7853,
      "##ise": 7854,
      "dep": 7855,
      "manage": 7856,
      "##ating": 7857,
      "##ild": 7858,
      "##ection": 7859,
      "accord": 7860,
      "could": 7861,
      "##les": 7862,
      "##ning": 7863,
      "here": 7864,
      "inst": 7865,
      "requ": 7866,
      "make": 7867,
      "pers": 7868,
      "##ile": 7869,
      "rel": 7870,
      "##nam": 7871,
      "want": 7872,
      "##ices": 7873,
      "did": 7874,
      "form": 7875,
      "cap": 7876,
      "ro": 7877,
      "viet": 7878,
      "##gr": 7879,
      "now": 7880,
      "bet": 7881,
      "##ory": 7882,
      "##ollow": 7883,
      "where": 7884,
      "##ces": 7885,
      "sy": 7886,
      "##ures": 7887,
      "supp": 7888,
      "agenc": 7889,
      "##velop": 7890,
      "##ition": 7891,
      "enter": 7892,
      "vietnam": 7893,
      "follow": 7894,
      "ph": 7895,
      "first": 7896,
      "look": 7897,
      "##ister": 7898,
      "develop": 7899,
      "these": 7900,
      "##ates": 7901,
      "##av": 7902,
      "##elf": 7903,
      "product": 7904,
      "##irect": 7905,
      "##hing": 7906,
      "##ite": 7907,
      "##so": 7908,
      "management": 7909,
      "##fore": 7910,
      "aut": 7911,
      "resp": 7912,
      "direct": 7913,
      "only": 7914,
      "dr": 7915,
      "##ular": 7916,
      "plan": 7917,
      "##own": 7918,
      "##get": 7919,
      "see": 7920,
      "gover": 7921,
      "##istry": 7922,
      "ve": 7923,
      "such": 7924,
      "our": 7925,
      "govern": 7926,
      "##ind": 7927,
      "gen": 7928,
      "tech": 7929,
      "str": 7930,
      "every": 7931,
      "bu": 7932,
      "##lud": 7933,
      "##su": 7934,
      "est": 7935,
      "also": 7936,
      "project": 7937,
      "two": 7938,
      "##....": 7939,
      "ministry": 7940,
      "ob": 7941,
      "##ick": 7942,
      "think": 7943,
      "##we": 7944,
      "##cu": 7945,
      "##lish": 7946,
      "inform": 7947,
      "well": 7948,
      "##ative": 7949,
      "hand": 7950,
      "cert": 7951,
      "back": 7952,
      "const": 7953,
      "before": 7954,
      "des": 7955,
      "level": 7956,
      "##are": 7957,
      "##its": 7958,
      "techn": 7959,
      "##ict": 7960,
      "oper": 7961,
      "col": 7962,
      "bus": 7963,
      "cent": 7964,
      "##und": 7965,
      "wr": 7966,
      "##ved": 7967,
      "##ery": 7968,
      "##irc": 7969,
      "hel": 7970,
      "tax": 7971,
      "rem": 7972,
      "##olog": 7973,
      "##ital": 7974,
      "##iness": 7975,
      "need": 7976,
      "mon": 7977,
      "##ian": 7978,
      "##iss": 7979,
      "land": 7980,
      "##ious": 7981,
      "own": 7982,
      "pay": 7983,
      "##crib": 7984,
      "thr": 7985,
      "##te": 7986,
      "set": 7987,
      "sm": 7988,
      "import": 7989,
      "includ": 7990,
      "loc": 7991,
      "##ank": 7992,
      "##ft": 7993,
      "information": 7994,
      "pub": 7995,
      "##ss": 7996,
      "##ility": 7997,
      "##urn": 7998,
      "again": 7999,
      "investment": 8000,
      "jo": 8001,
      "enterpr": 8002,
      "auth": 8003,
      "because": 8004,
      "clause": 8005,
      "##led": 8006,
      "government": 8007,
      "##iver": 8008,
      "det": 8009,
      "take": 8010,
      "pol": 8011,
      "##ution": 8012,
      "char": 8013,
      "fore": 8014,
      "##omet": 8015,
      "bas": 8016,
      "bl": 8017,
      "val": 8018,
      "business": 8019,
      "down": 8020,
      "##mb": 8021,
      "##uring": 8022,
      "##ving": 8023,
      "even": 8024,
      "appro": 8025,
      "##ty": 8026,
      "ll": 8027,
      "num": 8028,
      "##ful": 8029,
      "way": 8030,
      "through": 8031,
      "##ife": 8032,
      "head": 8033,
      "point": 8034,
      "according": 8035,
      "author": 8036,
      "##amp": 8037,
      "pur": 8038,
      "report": 8039,
      "##ified": 8040,
      "person": 8041,
      "circ": 8042,
      "ter": 8043,
      "##ible": 8044,
      "gener": 8045,
      "national": 8046,
      "##other": 8047,
      "dif": 8048,
      "##stem": 8049,
      "##air": 8050,
      "agencies": 8051,
      "most": 8052,
      "high": 8053,
      "att": 8054,
      "foreign": 8055,
      "##ric": 8056,
      "##ruction": 8057,
      "let": 8058,
      "should": 8059,
      "years": 8060,
      "##cribed": 8061,
      "##ug": 8062,
      "##ural": 8063,
      "each": 8064,
      "somet": 8065,
      "implement": 8066,
      "provin": 8067,
      "par": 8068,
      "organizations": 8069,
      "system": 8070,
      "fl": 8071,
      "ed": 8072,
      "ord": 8073,
      "compan": 8074,
      "add": 8075,
      "##ower": 8076,
      "##aking": 8077,
      "##ange": 8078,
      "##ood": 8079,
      "##alk": 8080,
      "##ts": 8081,
      "insp": 8082,
      "day": 8083,
      "eff": 8084,
      "##ath": 8085,
      "##way": 8086,
      "##ward": 8087,
      "##ix": 8088,
      "committ": 8089,
      ").": 8090,
      "sch": 8091,
      "say": 8092,
      "going": 8093,
      "##ient": 8094,
      "contract": 8095,
      "med": 8096,
      "regulations": 8097,
      "applic": 8098,
      "long": 8099,
      "ke": 8100,
      "compet": 8101,
      "##ivid": 8102,
      "made": 8103,
      "##rol": 8104,
      "rece": 8105,
      "docu": 8106,
      "##con": 8107,
      "though": 8108,
      "##ee": 8109,
      "ent": 8110,
      "equ": 8111,
      "##row": 8112,
      "call": 8113,
      "##isions": 8114,
      "minister": 8115,
      "public": 8116,
      "world": 8117,
      "##ween": 8118,
      "help": 8119,
      "##ily": 8120,
      "between": 8121,
      "activ": 8122,
      "pos": 8123,
      "##ting": 8124,
      "being": 8125,
      "very": 8126,
      "def": 8127,
      "##ized": 8128,
      "construction": 8129,
      "development": 8130,
      "water": 8131,
      "sign": 8132,
      "mu": 8133,
      "##ining": 8134,
      "op": 8135,
      "viol": 8136,
      "those": 8137,
      "sur": 8138,
      "##ablish": 8139,
      "goods": 8140,
      "establish": 8141,
      "met": 8142,
      "##ually": 8143,
      "##ying": 8144,
      "prescribed": 8145,
      "count": 8146,
      "within": 8147,
      "##oth": 8148,
      "id": 8149,
      "prot": 8150,
      "list": 8151,
      "el": 8152,
      "##ys": 8153,
      "##als": 8154,
      "##ises": 8155,
      "##red": 8156,
      "##ph": 8157,
      "bel": 8158,
      "decree": 8159,
      "issu": 8160,
      "war": 8161,
      "cust": 8162,
      "cor": 8163,
      "ear": 8164,
      "used": 8165,
      "##ives": 8166,
      "##ier": 8167,
      "individ": 8168,
      "##ody": 8169,
      "case": 8170,
      "fund": 8171,
      "conc": 8172,
      "individual": 8173,
      "##ather": 8174,
      "number": 8175,
      "decision": 8176,
      "##alth": 8177,
      "##ited": 8178,
      "certific": 8179,
      "emp": 8180,
      "capital": 8181,
      "life": 8182,
      "same": 8183,
      "##ock": 8184,
      "respons": 8185,
      "##ms": 8186,
      "following": 8187,
      "inf": 8188,
      "##ouse": 8189,
      "##io": 8190,
      "##oup": 8191,
      "elect": 8192,
      "stud": 8193,
      "stand": 8194,
      "depart": 8195,
      "progr": 8196,
      "im": 8197,
      "##self": 8198,
      "many": 8199,
      "custom": 8200,
      "##ense": 8201,
      "intern": 8202,
      "leg": 8203,
      "##istration": 8204,
      "secur": 8205,
      "process": 8206,
      "days": 8207,
      "##ling": 8208,
      "got": 8209,
      "##port": 8210,
      "ret": 8211,
      "account": 8212,
      "feel": 8213,
      "circular": 8214,
      "cour": 8215,
      "start": 8216,
      "end": 8217,
      "cle": 8218,
      "provid": 8219,
      "does": 8220,
      "bank": 8221,
      "##ines": 8222,
      "prom": 8223,
      "something": 8224,
      "ann": 8225,
      "##ale": 8226,
      "##ention": 8227,
      "##ember": 8228,
      "much": 8229,
      "cur": 8230,
      "admin": 8231,
      "cond": 8232,
      "econ": 8233,
      "##itions": 8234,
      "##iving": 8235,
      "mark": 8236,
      "health": 8237,
      "##ety": 8238,
      "econom": 8239,
      "##sp": 8240,
      "--": 8241,
      "commun": 8242,
      "##hip": 8243,
      "##ets": 8244,
      "),": 8245,
      "##ble": 8246,
      "differ": 8247,
      "##ize": 8248,
      "##ases": 8249,
      "##ees": 8250,
      "social": 8251,
      "ask": 8252,
      "##osed": 8253,
      "##imes": 8254,
      "order": 8255,
      "come": 8256,
      "around": 8257,
      "##land": 8258,
      "activities": 8259,
      "indust": 8260,
      "happ": 8261,
      "find": 8262,
      "still": 8263,
      "lab": 8264,
      "while": 8265,
      "mod": 8266,
      "request": 8267,
      "rele": 8268,
      "during": 8269,
      "tell": 8270,
      "##cept": 8271,
      "comple": 8272,
      "child": 8273,
      "##atch": 8274,
      "control": 8275,
      "technolog": 8276,
      "env": 8277,
      "documents": 8278,
      "##ene": 8279,
      "##man": 8280,
      "##ider": 8281,
      "ext": 8282,
      "##na": 8283,
      "found": 8284,
      "disc": 8285,
      "three": 8286,
      "services": 8287,
      "##ool": 8288,
      "prof": 8289,
      "why": 8290,
      "sl": 8291,
      "local": 8292,
      "program": 8293,
      "rev": 8294,
      "##onment": 8295,
      "general": 8296,
      "aff": 8297,
      "##yp": 8298,
      "enterprises": 8299,
      "result": 8300,
      "effect": 8301,
      "envir": 8302,
      "##xt": 8303,
      "nat": 8304,
      "saf": 8305,
      "##ession": 8306,
      "never": 8307,
      "too": 8308,
      "month": 8309,
      "##thing": 8310,
      "##……": 8311,
      "house": 8312,
      "ful": 8313,
      "really": 8314,
      "real": 8315,
      "perform": 8316,
      "bro": 8317,
      "partic": 8318,
      "##ident": 8319,
      "sim": 8320,
      "em": 8321,
      "environment": 8322,
      "things": 8323,
      "##ics": 8324,
      "training": 8325,
      "##ah": 8326,
      "open": 8327,
      "##ave": 8328,
      "service": 8329,
      "##ittle": 8330,
      "build": 8331,
      "red": 8332,
      "power": 8333,
      "prev": 8334,
      "implementation": 8335,
      "qual": 8336,
      "##iod": 8337,
      "little": 8338,
      "##ves": 8339,
      "proced": 8340,
      "##cc": 8341,
      "sk": 8342,
      "put": 8343,
      "name": 8344,
      "##ady": 8345,
      "##ral": 8346,
      "fam": 8347,
      "##iend": 8348,
      "company": 8349,
      "meet": 8350,
      "##ants": 8351,
      "another": 8352,
      "place": 8353,
      "didn": 8354,
      "consider": 8355,
      "without": 8356,
      "##loy": 8357,
      "keep": 8358,
      "instit": 8359,
      "hum": 8360,
      "##ards": 8361,
      "period": 8362,
      "working": 8363,
      "individuals": 8364,
      "exper": 8365,
      "group": 8366,
      "##ading": 8367,
      "air": 8368,
      "talk": 8369,
      "##ined": 8370,
      "##........": 8371,
      "##ience": 8372,
      "##iting": 8373,
      "##urance": 8374,
      "##ru": 8375,
      "##atter": 8376,
      "projects": 8377,
      "conf": 8378,
      "##ese": 8379,
      "interest": 8380,
      "##ness": 8381,
      "collect": 8382,
      "main": 8383,
      "pass": 8384,
      "ref": 8385,
      "cre": 8386,
      "old": 8387,
      "against": 8388,
      "##ned": 8389,
      "##ost": 8390,
      "##anc": 8391,
      "super": 8392,
      "special": 8393,
      "cred": 8394,
      "department": 8395,
      "##erg": 8396,
      "educ": 8397,
      "organization": 8398,
      "play": 8399,
      "bud": 8400,
      "area": 8401,
      "bre": 8402,
      "offic": 8403,
      "application": 8404,
      "record": 8405,
      "might": 8406,
      "competent": 8407,
      "har": 8408,
      "including": 8409,
      "registration": 8410,
      "show": 8411,
      "eng": 8412,
      "operation": 8413,
      "##augh": 8414,
      "##ner": 8415,
      "dra": 8416,
      "##ince": 8417,
      "production": 8418,
      "proper": 8419,
      "support": 8420,
      "distr": 8421,
      "##ten": 8422,
      "##utions": 8423,
      "specified": 8424,
      "\".": 8425,
      "cal": 8426,
      "##ior": 8427,
      "great": 8428,
      "##ounc": 8429,
      "##ources": 8430,
      "##ted": 8431,
      "economic": 8432,
      "turn": 8433,
      "lar": 8434,
      "av": 8435,
      "meas": 8436,
      "##ages": 8437,
      "friend": 8438,
      "provisions": 8439,
      "give": 8440,
      "school": 8441,
      "typ": 8442,
      "subm": 8443,
      "customs": 8444,
      "##ilities": 8445,
      "conditions": 8446,
      "second": 8447,
      "different": 8448,
      "sol": 8449,
      "small": 8450,
      "using": 8451,
      "mater": 8452,
      "ey": 8453,
      "last": 8454,
      "export": 8455,
      "inspection": 8456,
      "credit": 8457,
      "having": 8458,
      "treat": 8459,
      "##til": 8460,
      "responsib": 8461,
      "##eng": 8462,
      "##akes": 8463,
      "products": 8464,
      "sw": 8465,
      "##illion": 8466,
      "expl": 8467,
      "##ds": 8468,
      "amount": 8469,
      "wom": 8470,
      "##over": 8471,
      "run": 8472,
      "city": 8473,
      "fac": 8474,
      "curr": 8475,
      "##par": 8476,
      "##ically": 8477,
      "##vant": 8478,
      "rest": 8479,
      "employ": 8480,
      "repr": 8481,
      "design": 8482,
      "deter": 8483,
      "procedures": 8484,
      "##inc": 8485,
      "##ash": 8486,
      "fun": 8487,
      "ca": 8488,
      "cost": 8489,
      "material": 8490,
      "decl": 8491,
      "##ins": 8492,
      "both": 8493,
      "##ency": 8494,
      "##ways": 8495,
      "works": 8496,
      "test": 8497,
      "ma": 8498,
      "##ission": 8499,
      "value": 8500,
      "##aster": 8501,
      "##rop": 8502,
      "##ron": 8503,
      "insurance": 8504,
      "class": 8505,
      "ra": 8506,
      "##iel": 8507,
      "administr": 8508,
      "thing": 8509,
      "means": 8510,
      "fact": 8511,
      "finance": 8512,
      "budget": 8513,
      "##ute": 8514,
      "areas": 8515,
      "lim": 8516,
      "lic": 8517,
      "##oney": 8518,
      ".-": 8519,
      "repres": 8520,
      "exam": 8521,
      "tas": 8522,
      "manag": 8523,
      "away": 8524,
      "thought": 8525,
      "vnd": 8526,
      "transport": 8527,
      "allow": 8528,
      "payment": 8529,
      "##ected": 8530,
      "##ination": 8531,
      "nor": 8532,
      "gra": 8533,
      "finan": 8534,
      "fail": 8535,
      "toget": 8536,
      "care": 8537,
      "together": 8538,
      "cp": 8539,
      "market": 8540,
      "##ired": 8541,
      "##itten": 8542,
      "##ived": 8543,
      "mean": 8544,
      "security": 8545,
      "quality": 8546,
      "international": 8547,
      "financial": 8548,
      "dat": 8549,
      "until": 8550,
      "home": 8551,
      "prop": 8552,
      "transfer": 8553,
      "clear": 8554,
      "##iew": 8555,
      "few": 8556,
      "##ivers": 8557,
      "##med": 8558,
      "office": 8559,
      "book": 8560,
      "prime": 8561,
      "##ently": 8562,
      "provincial": 8563,
      "sure": 8564,
      "doss": 8565,
      "##tain": 8566,
      "guid": 8567,
      "##uck": 8568,
      "beh": 8569,
      "represent": 8570,
      "cases": 8571,
      "##ew": 8572,
      "planning": 8573,
      "##ism": 8574,
      "##ulation": 8575,
      "kind": 8576,
      "food": 8577,
      "labor": 8578,
      "sat": 8579,
      "trade": 8580,
      "##anch": 8581,
      "##uation": 8582,
      "sou": 8583,
      "##iation": 8584,
      "##ever": 8585,
      "accordance": 8586,
      "##tion": 8587,
      "dem": 8588,
      "memb": 8589,
      "subject": 8590,
      "called": 8591,
      "body": 8592,
      "##mber": 8593,
      "written": 8594,
      "sal": 8595,
      "##ren": 8596,
      "lot": 8597,
      "change": 8598,
      "##ify": 8599,
      "far": 8600,
      "date": 8601,
      "technology": 8602,
      "##ina": 8603,
      "violations": 8604,
      "##idd": 8605,
      "based": 8606,
      "##ead": 8607,
      "making": 8608,
      "bra": 8609,
      "gre": 8610,
      "polic": 8611,
      "##ark": 8612,
      "safety": 8613,
      "require": 8614,
      "enterprise": 8615,
      "##ization": 8616,
      "members": 8617,
      "pop": 8618,
      "since": 8619,
      "poss": 8620,
      "once": 8621,
      "send": 8622,
      "##up": 8623,
      "proble": 8624,
      "related": 8625,
      "left": 8626,
      "##be": 8627,
      "committee": 8628,
      "##ross": 8629,
      "money": 8630,
      "least": 8631,
      "less": 8632,
      "ide": 8633,
      "spe": 8634,
      "belie": 8635,
      "##ification": 8636,
      "sett": 8637,
      "pract": 8638,
      "sit": 8639,
      "dom": 8640,
      "contin": 8641,
      "next": 8642,
      "ur": 8643,
      "administrative": 8644,
      "##ising": 8645,
      "##ork": 8646,
      "later": 8647,
      "pa": 8648,
      "non": 8649,
      "price": 8650,
      "##ason": 8651,
      "lead": 8652,
      "##ately": 8653,
      "kill": 8654,
      "four": 8655,
      "ens": 8656,
      "##eric": 8657,
      "assess": 8658,
      "deb": 8659,
      "authority": 8660,
      "certificate": 8661,
      "del": 8662,
      "##ne": 8663,
      "##oss": 8664,
      "port": 8665,
      "temp": 8666,
      "##ased": 8667,
      "mil": 8668,
      "men": 8669,
      "##day": 8670,
      "forest": 8671,
      "fil": 8672,
      "pat": 8673,
      "big": 8674,
      "units": 8675,
      "agency": 8676,
      "cop": 8677,
      "post": 8678,
      "gl": 8679,
      "enc": 8680,
      "##pped": 8681,
      "##ists": 8682,
      "##ction": 8683,
      "hold": 8684,
      "incre": 8685,
      "face": 8686,
      "protection": 8687,
      "came": 8688,
      "grant": 8689,
      "perm": 8690,
      "human": 8691,
      "education": 8692,
      "##eck": 8693,
      "dated": 8694,
      "##ering": 8695,
      "tot": 8696,
      "##stand": 8697,
      "always": 8698,
      "##inal": 8699,
      "hour": 8700,
      "branch": 8701,
      "##ium": 8702,
      "mus": 8703,
      "##els": 8704,
      "try": 8705,
      "legal": 8706,
      "provide": 8707,
      "orig": 8708,
      "##ially": 8709,
      "important": 8710,
      "better": 8711,
      "americ": 8712,
      "central": 8713,
      "declar": 8714,
      "##az": 8715,
      "##ump": 8716,
      "nd": 8717,
      "##iven": 8718,
      "board": 8719,
      "tre": 8720,
      "best": 8721,
      "room": 8722,
      "##ven": 8723,
      "adv": 8724,
      "##ipment": 8725,
      "seem": 8726,
      "technical": 8727,
      "lear": 8728,
      "family": 8729,
      "##ger": 8730,
      "children": 8731,
      "##ample": 8732,
      "doing": 8733,
      "aud": 8734,
      "##oper": 8735,
      "times": 8736,
      "night": 8737,
      "hard": 8738,
      "light": 8739,
      "chang": 8740,
      "##ructure": 8741,
      "ste": 8742,
      "sing": 8743,
      "sever": 8744,
      "relevant": 8745,
      "happen": 8746,
      "##bs": 8747,
      "##ended": 8748,
      "bar": 8749,
      "natural": 8750,
      "agree": 8751,
      "disp": 8752,
      "actually": 8753,
      "equipment": 8754,
      "prod": 8755,
      "upon": 8756,
      "quest": 8757,
      "arr": 8758,
      "mom": 8759,
      "rights": 8760,
      "country": 8761,
      "exc": 8762,
      "cooper": 8763,
      "wee": 8764,
      "industr": 8765,
      "vietnamese": 8766,
      "soc": 8767,
      "##ready": 8768,
      "already": 8769,
      "went": 8770,
      "##utes": 8771,
      "##less": 8772,
      "cult": 8773,
      "##ids": 8774,
      "pap": 8775,
      "meth": 8776,
      "##ending": 8777,
      "love": 8778,
      "##iet": 8779,
      "rate": 8780,
      "##val": 8781,
      "plans": 8782,
      "anim": 8783,
      "five": 8784,
      "father": 8785,
      "var": 8786,
      "however": 8787,
      "nam": 8788,
      "tasks": 8789,
      "##orn": 8790,
      "##ress": 8791,
      "stat": 8792,
      "##ences": 8793,
      "took": 8794,
      "contents": 8795,
      "##ove": 8796,
      "##uss": 8797,
      "##fact": 8798,
      "##iers": 8799,
      "##iqu": 8800,
      "##earch": 8801,
      "##itor": 8802,
      "research": 8803,
      "counc": 8804,
      "committees": 8805,
      "mr": 8806,
      "jud": 8807,
      "assign": 8808,
      "enough": 8809,
      "wind": 8810,
      "dam": 8811,
      "council": 8812,
      "##ief": 8813,
      "##thers": 8814,
      "drug": 8815,
      "##ances": 8816,
      "wa": 8817,
      "side": 8818,
      "data": 8819,
      "months": 8820,
      "##ively": 8821,
      "total": 8822,
      "arm": 8823,
      "compl": 8824,
      "##ters": 8825,
      "##ope": 8826,
      "superv": 8827,
      "##ury": 8828,
      "determin": 8829,
      "party": 8830,
      "##enses": 8831,
      "##ont": 8832,
      "##iter": 8833,
      "road": 8834,
      "##erv": 8835,
      "course": 8836,
      "authorities": 8837,
      "##ones": 8838,
      "return": 8839,
      "princ": 8840,
      "method": 8841,
      "sent": 8842,
      "ho": 8843,
      "##oice": 8844,
      "fine": 8845,
      "yourself": 8846,
      "##ered": 8847,
      "million": 8848,
      "full": 8849,
      "carry": 8850,
      "##gg": 8851,
      "##ret": 8852,
      "civ": 8853,
      "results": 8854,
      "ii": 8855,
      "##ung": 8856,
      "move": 8857,
      "##ern": 8858,
      "##ator": 8859,
      "##irl": 8860,
      "eyes": 8861,
      "told": 8862,
      "##hold": 8863,
      "director": 8864,
      "apply": 8865,
      "##ck": 8866,
      "dut": 8867,
      "##onna": 8868,
      "grow": 8869,
      "understand": 8870,
      "near": 8871,
      "##bo": 8872,
      "ant": 8873,
      "property": 8874,
      "##atic": 8875,
      "##iate": 8876,
      "anything": 8877,
      "requirements": 8878,
      "civil": 8879,
      "##ecess": 8880,
      "dist": 8881,
      "example": 8882,
      "team": 8883,
      "##ised": 8884,
      "resources": 8885,
      "##lood": 8886,
      "rad": 8887,
      "##ars": 8888,
      "object": 8889,
      "refer": 8890,
      "mind": 8891,
      "##of": 8892,
      "##ably": 8893,
      "pet": 8894,
      "someone": 8895,
      "ship": 8896,
      "##sel": 8897,
      "simp": 8898,
      "ris": 8899,
      "##airs": 8900,
      "mor": 8901,
      "issued": 8902,
      "profession": 8903,
      "purch": 8904,
      "vis": 8905,
      "##used": 8906,
      "girl": 8907,
      "conduct": 8908,
      "district": 8909,
      "yet": 8910,
      "companies": 8911,
      "provided": 8912,
      "san": 8913,
      "pain": 8914,
      "remain": 8915,
      "##ues": 8916,
      "top": 8917,
      "institutions": 8918,
      "##ured": 8919,
      "beg": 8920,
      "##une": 8921,
      "building": 8922,
      "particip": 8923,
      "##sc": 8924,
      "free": 8925,
      "##ached": 8926,
      "medical": 8927,
      "trad": 8928,
      "nothing": 8929,
      "##ges": 8930,
      "##vers": 8931,
      "tele": 8932,
      "able": 8933,
      "whole": 8934,
      "hist": 8935,
      "gonna": 8936,
      "##sue": 8937,
      "follows": 8938,
      "inspect": 8939,
      "step": 8940,
      "ok": 8941,
      "persons": 8942,
      "##ried": 8943,
      "matter": 8944,
      "##att": 8945,
      "won": 8946,
      "tt": 8947,
      "##alf": 8948,
      "shar": 8949,
      "##ries": 8950,
      "##ients": 8951,
      "##omm": 8952,
      "net": 8953,
      "known": 8954,
      "maj": 8955,
      "industrial": 8956,
      "##fic": 8957,
      "ban": 8958,
      "##ield": 8959,
      "lang": 8960,
      "line": 8961,
      "assets": 8962,
      "asked": 8963,
      "thir": 8964,
      "miss": 8965,
      "purp": 8966,
      "responsibility": 8967,
      "exec": 8968,
      "##ffic": 8969,
      "cla": 8970,
      "done": 8971,
      "press": 8972,
      "god": 8973,
      "##ability": 8974,
      "##side": 8975,
      "ap": 8976,
      "industry": 8977,
      "contain": 8978,
      "necess": 8979,
      "##ceed": 8980,
      "##ordin": 8981,
      "polit": 8982,
      "materials": 8983,
      "fire": 8984,
      "measures": 8985,
      "include": 8986,
      "hy": 8987,
      "mother": 8988,
      "div": 8989,
      "short": 8990,
      "##ume": 8991,
      "sect": 8992,
      "often": 8993,
      "il": 8994,
      "official": 8995,
      "check": 8996,
      "##ulated": 8997,
      "walk": 8998,
      "##ov": 8999,
      "become": 9000,
      "##ode": 9001,
      "##ott": 9002,
      "eas": 9003,
      "##oot": 9004,
      "univers": 9005,
      "addition": 9006,
      "princip": 9007,
      "electric": 9008,
      "sell": 9009,
      "invol": 9010,
      "##ush": 9011,
      "##uce": 9012,
      "##itted": 9013,
      "charge": 9014,
      "impro": 9015,
      "issue": 9016,
      "term": 9017,
      "others": 9018,
      "##ulg": 9019,
      "conn": 9020,
      "vol": 9021,
      "pursu": 9022,
      "detail": 9023,
      "##olution": 9024,
      "phys": 9025,
      "comply": 9026,
      "ident": 9027,
      "president": 9028,
      "doesn": 9029,
      "##ng": 9030,
      "states": 9031,
      "select": 9032,
      "looking": 9033,
      "##wh": 9034,
      "everything": 9035,
      "##istries": 9036,
      "ensure": 9037,
      "fre": 9038,
      "obl": 9039,
      "king": 9040,
      "##line": 9041,
      "##ought": 9042,
      "section": 9043,
      "laws": 9044,
      "along": 9045,
      "ple": 9046,
      "treatment": 9047,
      "environmental": 9048,
      "bad": 9049,
      "toward": 9050,
      "decisions": 9051,
      "plant": 9052,
      "ministries": 9053,
      "oh": 9054,
      "certain": 9055,
      "dev": 9056,
      "establishment": 9057,
      "wanted": 9058,
      "##ban": 9059,
      "ju": 9060,
      "specific": 9061,
      "tour": 9062,
      "assessment": 9063,
      "agric": 9064,
      "agricult": 9065,
      "oil": 9066,
      "sum": 9067,
      "son": 9068,
      "force": 9069,
      "six": 9070,
      "stor": 9071,
      "jan": 9072,
      "##cent": 9073,
      "united": 9074,
      "##sw": 9075,
      "yes": 9076,
      "susp": 9077,
      "saw": 9078,
      "##raph": 9079,
      "stop": 9080,
      "infr": 9081,
      "scient": 9082,
      "common": 9083,
      "present": 9084,
      "south": 9085,
      "##ili": 9086,
      "##ither": 9087,
      "##itation": 9088,
      "assoc": 9089,
      "appear": 9090,
      "##idence": 9091,
      "mot": 9092,
      "bene": 9093,
      "manu": 9094,
      "##itch": 9095,
      "regard": 9096,
      "##ateg": 9097,
      "##ai": 9098,
      "##oint": 9099,
      "several": 9100,
      "dest": 9101,
      "oblig": 9102,
      "study": 9103,
      ");": 9104,
      "relations": 9105,
      "##ged": 9106,
      "##ential": 9107,
      "reason": 9108,
      "bord": 9109,
      "large": 9110,
      "remember": 9111,
      "professional": 9112,
      "science": 9113,
      "watch": 9114,
      "women": 9115,
      "commer": 9116,
      "adj": 9117,
      "##selves": 9118,
      "register": 9119,
      "given": 9120,
      "##co": 9121,
      "##tern": 9122,
      "contrib": 9123,
      "manufact": 9124,
      "##aken": 9125,
      "maybe": 9126,
      "repl": 9127,
      "looked": 9128,
      "##ats": 9129,
      "unit": 9130,
      "hous": 9131,
      "comb": 9132,
      "black": 9133,
      "cover": 9134,
      "calc": 9135,
      "became": 9136,
      "norm": 9137,
      "read": 9138,
      "taking": 9139,
      "promulg": 9140,
      "standards": 9141,
      "policies": 9142,
      "##uses": 9143,
      "fall": 9144,
      "respect": 9145,
      "directly": 9146,
      "##erc": 9147,
      "major": 9148,
      "basis": 9149,
      "##arant": 9150,
      "approved": 9151,
      "began": 9152,
      "trying": 9153,
      "stay": 9154,
      "appl": 9155,
      "except": 9156,
      "##body": 9157,
      "##ension": 9158,
      "succ": 9159,
      "death": 9160,
      "##aughter": 9161,
      "idea": 9162,
      "type": 9163,
      "plac": 9164,
      "minutes": 9165,
      "particular": 9166,
      "regulation": 9167,
      "cause": 9168,
      "occ": 9169,
      "dead": 9170,
      "estim": 9171,
      "knew": 9172,
      "di": 9173,
      "opp": 9174,
      "##ream": 9175,
      "ge": 9176,
      "##ke": 9177,
      "##ton": 9178,
      "teach": 9179,
      "neg": 9180,
      "believe": 9181,
      "doct": 9182,
      "reports": 9183,
      "##ogn": 9184,
      "december": 9185,
      "##…………": 9186,
      "answ": 9187,
      "hours": 9188,
      "produc": 9189,
      "approval": 9190,
      "today": 9191,
      "branches": 9192,
      "prob": 9193,
      "self": 9194,
      "##semb": 9195,
      "instead": 9196,
      "leave": 9197,
      "##oy": 9198,
      "veh": 9199,
      "region": 9200,
      "##ipt": 9201,
      "##work": 9202,
      "medic": 9203,
      "win": 9204,
      "else": 9205,
      "programs": 9206,
      "pursuant": 9207,
      "court": 9208,
      "vehic": 9209,
      "heads": 9210,
      "securities": 9211,
      "current": 9212,
      "deal": 9213,
      "##for": 9214,
      "getting": 9215,
      "diffic": 9216,
      "sea": 9217,
      "difficult": 9218,
      "moment": 9219,
      "##acter": 9220,
      "provinces": 9221,
      "##res": 9222,
      "heart": 9223,
      "##aps": 9224,
      "recogn": 9225,
      "friends": 9226,
      "meeting": 9227,
      "##itive": 9228,
      "sound": 9229,
      "north": 9230,
      "dossier": 9231,
      "accept": 9232,
      "comput": 9233,
      "past": 9234,
      "##oid": 9235,
      "ir": 9236,
      "##ergy": 9237,
      "mach": 9238,
      "early": 9239,
      "##ison": 9240,
      "##ri": 9241,
      "##elt": 9242,
      "live": 9243,
      "problem": 9244,
      "share": 9245,
      "terr": 9246,
      "levels": 9247,
      "##................": 9248,
      "success": 9249,
      "assemb": 9250,
      "eval": 9251,
      "blood": 9252,
      "half": 9253,
      "eu": 9254,
      "##most": 9255,
      "license": 9256,
      "satis": 9257,
      "##ether": 9258,
      "##ides": 9259,
      "receiving": 9260,
      "ground": 9261,
      "job": 9262,
      "sil": 9263,
      "young": 9264,
      "star": 9265,
      "owners": 9266,
      "pen": 9267,
      "tar": 9268,
      "assist": 9269,
      "##estic": 9270,
      "submit": 9271,
      "fight": 9272,
      "coordin": 9273,
      "mult": 9274,
      "##lus": 9275,
      "percent": 9276,
      "supplement": 9277,
      "started": 9278,
      "seen": 9279,
      "town": 9280,
      "front": 9281,
      "fur": 9282,
      "window": 9283,
      "hands": 9284,
      "necessary": 9285,
      "mag": 9286,
      "creat": 9287,
      "contracts": 9288,
      "center": 9289,
      "cities": 9290,
      "trading": 9291,
      "##asing": 9292,
      "white": 9293,
      "door": 9294,
      "##iety": 9295,
      "week": 9296,
      "##erve": 9297,
      "island": 9298,
      "##por": 9299,
      "processing": 9300,
      "ger": 9301,
      "possible": 9302,
      "age": 9303,
      "bit": 9304,
      "paid": 9305,
      "hair": 9306,
      "electricity": 9307,
      "supply": 9308,
      "above": 9309,
      "accounting": 9310,
      "##ength": 9311,
      "##uary": 9312,
      "exch": 9313,
      "single": 9314,
      "sn": 9315,
      "hear": 9316,
      "risk": 9317,
      "handling": 9318,
      "responsible": 9319,
      "##ex": 9320,
      "energy": 9321,
      "experi": 9322,
      "bring": 9323,
      "milit": 9324,
      "##tc": 9325,
      "pot": 9326,
      "chair": 9327,
      "countries": 9328,
      "##pping": 9329,
      "among": 9330,
      "ye": 9331,
      "outside": 9332,
      "due": 9333,
      "sle": 9334,
      "province": 9335,
      "sale": 9336,
      "member": 9337,
      "##ouch": 9338,
      "begin": 9339,
      "transact": 9340,
      "certificates": 9341,
      "quick": 9342,
      "concer": 9343,
      "bir": 9344,
      "communic": 9345,
      "urban": 9346,
      "##acy": 9347,
      "pack": 9348,
      "commercial": 9349,
      "representative": 9350,
      "border": 9351,
      "##ival": 9352,
      "dise": 9353,
      "cra": 9354,
      "document": 9355,
      "employees": 9356,
      "adjust": 9357,
      "##itting": 9358,
      "providing": 9359,
      "examination": 9360,
      "opt": 9361,
      "esp": 9362,
      "infrast": 9363,
      "personal": 9364,
      "ver": 9365,
      "march": 9366,
      "##ature": 9367,
      "##owers": 9368,
      "cann": 9369,
      "says": 9370,
      "foc": 9371,
      "##ided": 9372,
      "sold": 9373,
      "##osp": 9374,
      "question": 9375,
      "woman": 9376,
      "##uction": 9377,
      "##ots": 9378,
      "himself": 9379,
      "obs": 9380,
      "almost": 9381,
      "limit": 9382,
      "##unch": 9383,
      "required": 9384,
      "##emp": 9385,
      "create": 9386,
      "##arch": 9387,
      "langu": 9388,
      "low": 9389,
      "##ware": 9390,
      "june": 9391,
      "##--": 9392,
      "##atory": 9393,
      "soon": 9394,
      "##atives": 9395,
      "##apan": 9396,
      "establishments": 9397,
      "earth": 9398,
      "bal": 9399,
      "arch": 9400,
      "waste": 9401,
      "##by": 9402,
      "##leg": 9403,
      "##ians": 9404,
      "whether": 9405,
      "propos": 9406,
      "er": 9407,
      "decide": 9408,
      "japan": 9409,
      "pul": 9410,
      "okay": 9411,
      "funds": 9412,
      "##unic": 9413,
      "exist": 9414,
      "january": 9415,
      "behind": 9416,
      "##ished": 9417,
      "cut": 9418,
      "##ape": 9419,
      "buy": 9420,
      "bond": 9421,
      "entire": 9422,
      "writing": 9423,
      "wasn": 9424,
      "fig": 9425,
      "squ": 9426,
      "ten": 9427,
      "ang": 9428,
      "##ograph": 9429,
      "##oke": 9430,
      "music": 9431,
      "key": 9432,
      "protect": 9433,
      "articles": 9434,
      "prepar": 9435,
      "den": 9436,
      "break": 9437,
      "thinking": 9438,
      "##sh": 9439,
      "command": 9440,
      "espec": 9441,
      "felt": 9442,
      "##ilt": 9443,
      "especially": 9444,
      "copy": 9445,
      "domestic": 9446,
      "story": 9447,
      "mass": 9448,
      "\",": 9449,
      "acts": 9450,
      "master": 9451,
      "capac": 9452,
      "clean": 9453,
      "july": 9454,
      "expenses": 9455,
      "agreement": 9456,
      "higher": 9457,
      "##go": 9458,
      "managing": 9459,
      "relationship": 9460,
      "dark": 9461,
      "close": 9462,
      "inside": 9463,
      "code": 9464,
      "taken": 9465,
      "chem": 9466,
      "priv": 9467,
      "##ane": 9468,
      "game": 9469,
      "stock": 9470,
      "##iously": 9471,
      "american": 9472,
      "bed": 9473,
      "annual": 9474,
      "practice": 9475,
      "oct": 9476,
      "across": 9477,
      "strong": 9478,
      "##ators": 9479,
      "referred": 9480,
      "##ule": 9481,
      "facilities": 9482,
      "parties": 9483,
      "##hn": 9484,
      "cho": 9485,
      "fut": 9486,
      "rural": 9487,
      "prevent": 9488,
      "sun": 9489,
      "listen": 9490,
      "##orts": 9491,
      "provision": 9492,
      "words": 9493,
      "systems": 9494,
      "init": 9495,
      "separ": 9496,
      "consult": 9497,
      "hosp": 9498,
      "cannot": 9499,
      "promot": 9500,
      "stra": 9501,
      "clos": 9502,
      "either": 9503,
      "political": 9504,
      "##me": 9505,
      "cell": 9506,
      "heard": 9507,
      "assembly": 9508,
      "purchase": 9509,
      "##ills": 9510,
      "##ann": 9511,
      "##let": 9512,
      "capacity": 9513,
      "hospital": 9514,
      "li": 9515,
      "sex": 9516,
      "##ource": 9517,
      "attack": 9518,
      "settlement": 9519,
      "makes": 9520,
      "nove": 9521,
      "turned": 9522,
      "income": 9523,
      "november": 9524,
      "skin": 9525,
      "space": 9526,
      "dossiers": 9527,
      "military": 9528,
      "##ced": 9529,
      "##ley": 9530,
      "sources": 9531,
      "doctor": 9532,
      "prior": 9533,
      "administration": 9534,
      "aug": 9535,
      "forms": 9536,
      "dig": 9537,
      "reach": 9538,
      "field": 9539,
      "complain": 9540,
      "joint": 9541,
      "hot": 9542,
      "##ilar": 9543,
      "effective": 9544,
      "##idents": 9545,
      "prices": 9546,
      "offices": 9547,
      "address": 9548,
      "deep": 9549,
      "demand": 9550,
      "##aut": 9551,
      "affairs": 9552,
      "tit": 9553,
      "bor": 9554,
      "##ibility": 9555,
      "assigned": 9556,
      "declaration": 9557,
      "##oura": 9558,
      "oc": 9559,
      "responsibilities": 9560,
      "points": 9561,
      "infrastructure": 9562,
      "europ": 9563,
      "bur": 9564,
      "ce": 9565,
      "exchange": 9566,
      "wall": 9567,
      "view": 9568,
      "voice": 9569,
      "##cup": 9570,
      "dd": 9571,
      "soft": 9572,
      "saying": 9573,
      "rather": 9574,
      "event": 9575,
      "lost": 9576,
      "university": 9577,
      "##dd": 9578,
      "gold": 9579,
      "complete": 9580,
      "sometimes": 9581,
      "apr": 9582,
      "item": 9583,
      "publish": 9584,
      "police": 9585,
      "held": 9586,
      "vide": 9587,
      "immed": 9588,
      "##ench": 9589,
      "probably": 9590,
      "true": 9591,
      "position": 9592,
      "stre": 9593,
      "unc": 9594,
      "reven": 9595,
      "park": 9596,
      "longer": 9597,
      "coming": 9598,
      "##rupt": 9599,
      "living": 9600,
      "##ept": 9601,
      "themselves": 9602,
      "investors": 9603,
      "collection": 9604,
      "##eral": 9605,
      "flo": 9606,
      "further": 9607,
      "everyone": 9608,
      "##ties": 9609,
      "violation": 9610,
      "europe": 9611,
      "mention": 9612,
      "anal": 9613,
      "avoid": 9614,
      "draw": 9615,
      "situation": 9616,
      "##anger": 9617,
      "depos": 9618,
      "sept": 9619,
      "loss": 9620,
      "continu": 9621,
      "##fort": 9622,
      "costs": 9623,
      "tempor": 9624,
      "similar": 9625,
      "##ronic": 9626,
      "bod": 9627,
      "##gu": 9628,
      "bi": 9629,
      "cit": 9630,
      "hon": 9631,
      "foot": 9632,
      "conv": 9633,
      "##ames": 9634,
      "mech": 9635,
      "scientific": 9636,
      "third": 9637,
      "yeah": 9638,
      "gave": 9639,
      "##bers": 9640,
      "monitor": 9641,
      "camp": 9642,
      "future": 9643,
      "distrib": 9644,
      "isn": 9645,
      "coll": 9646,
      "august": 9647,
      "wrong": 9648,
      "late": 9649,
      "rul": 9650,
      "fix": 9651,
      "history": 9652,
      "word": 9653,
      "##uted": 9654,
      "##ober": 9655,
      "alth": 9656,
      "##omp": 9657,
      "##ler": 9658,
      "##oses": 9659,
      "experience": 9660,
      "alloc": 9661,
      "october": 9662,
      "although": 9663,
      "##fully": 9664,
      "increase": 9665,
      "##izing": 9666,
      "talking": 9667,
      "table": 9668,
      "mechan": 9669,
      "strateg": 9670,
      "april": 9671,
      "discover": 9672,
      "summ": 9673,
      "imag": 9674,
      "chr": 9675,
      "performance": 9676,
      "mob": 9677,
      "chief": 9678,
      "conform": 9679,
      "original": 9680,
      "comes": 9681,
      "population": 9682,
      "##urs": 9683,
      "couldn": 9684,
      "equal": 9685,
      "abs": 9686,
      "defense": 9687,
      "pi": 9688,
      "occup": 9689,
      "institution": 9690,
      "stip": 9691,
      "##omes": 9692,
      "##aries": 9693,
      "card": 9694,
      "##raft": 9695,
      "myself": 9696,
      "##gn": 9697,
      "phot": 9698,
      "mess": 9699,
      "entit": 9700,
      "final": 9701,
      "species": 9702,
      "ele": 9703,
      "##ners": 9704,
      "imported": 9705,
      "origin": 9706,
      "ago": 9707,
      "sleep": 9708,
      "september": 9709,
      "decided": 9710,
      "guarant": 9711,
      "received": 9712,
      "issuance": 9713,
      "happened": 9714,
      "organize": 9715,
      "##aw": 9716,
      "takes": 9717,
      "##ological": 9718,
      "infl": 9719,
      "print": 9720,
      "problems": 9721,
      "file": 9722,
      "##imum": 9723,
      "receive": 9724,
      "corpor": 9725,
      "powers": 9726,
      "coordinate": 9727,
      "cross": 9728,
      "paper": 9729,
      "##aged": 9730,
      "surve": 9731,
      "vir": 9732,
      "secret": 9733,
      "appra": 9734,
      "notice": 9735,
      "access": 9736,
      "sor": 9737,
      "ep": 9738,
      "localities": 9739,
      "##inary": 9740,
      "pret": 9741,
      "investig": 9742,
      "lib": 9743,
      "bott": 9744,
      "##ike": 9745,
      "hund": 9746,
      "heav": 9747,
      "bidd": 9748,
      "appoint": 9749,
      "##ming": 9750,
      "improve": 9751,
      "obligations": 9752,
      "append": 9753,
      "hundred": 9754,
      "quant": 9755,
      "directors": 9756,
      "##ift": 9757,
      "vict": 9758,
      "expr": 9759,
      "ach": 9760,
      "river": 9761,
      "elig": 9762,
      "german": 9763,
      "household": 9764,
      "satisf": 9765,
      "##ring": 9766,
      "lower": 9767,
      "cat": 9768,
      "hur": 9769,
      "##ob": 9770,
      "##yc": 9771,
      "mount": 9772,
      "compens": 9773,
      "##ared": 9774,
      "exerc": 9775,
      "mem": 9776,
      "apart": 9777,
      "dou": 9778,
      "vers": 9779,
      "operations": 9780,
      "computer": 9781,
      "##ipl": 9782,
      "amend": 9783,
      "sense": 9784,
      "##ctions": 9785,
      "function": 9786,
      "regular": 9787,
      "audit": 9788,
      "considered": 9789,
      "##arily": 9790,
      "search": 9791,
      "concerned": 9792,
      "##app": 9793,
      "wond": 9794,
      "morning": 9795,
      "benef": 9796,
      "prevention": 9797,
      "tur": 9798,
      "gas": 9799,
      "##ledge": 9800,
      "fish": 9801,
      "harry": 9802,
      "explain": 9803,
      "specialized": 9804,
      "\\/": 9805,
      "operating": 9806,
      "boy": 9807,
      "song": 9808,
      "owner": 9809,
      "drugs": 9810,
      "standard": 9811,
      "termin": 9812,
      "##der": 9813,
      "hor": 9814,
      "language": 9815,
      "valid": 9816,
      "damage": 9817,
      "supervision": 9818,
      "##uff": 9819,
      "involved": 9820,
      "pick": 9821,
      "##eter": 9822,
      "aver": 9823,
      "cam": 9824,
      "speak": 9825,
      "army": 9826,
      "exact": 9827,
      "structure": 9828,
      "##where": 9829,
      "enj": 9830,
      "determined": 9831,
      "ah": 9832,
      "needs": 9833,
      "character": 9834,
      "##sy": 9835,
      "dog": 9836,
      "##to": 9837,
      "changes": 9838,
      "engine": 9839,
      "##epend": 9840,
      "sho": 9841,
      "canc": 9842,
      "##abor": 9843,
      "breat": 9844,
      "forces": 9845,
      "expend": 9846,
      "students": 9847,
      "indic": 9848,
      "slow": 9849,
      "phone": 9850,
      "avail": 9851,
      "##ories": 9852,
      "scre": 9853,
      "bodies": 9854,
      "socio": 9855,
      "##ulate": 9856,
      "coun": 9857,
      "built": 9858,
      "##using": 9859,
      "expendit": 9860,
      "chemical": 9861,
      "china": 9862,
      "##cr": 9863,
      "##bit": 9864,
      "mic": 9865,
      "##ifying": 9866,
      "opin": 9867,
      "investor": 9868,
      "fully": 9869,
      "applicable": 9870,
      "sugg": 9871,
      "established": 9872,
      "suggest": 9873,
      "independ": 9874,
      "##uth": 9875,
      "##aff": 9876,
      "fear": 9877,
      "hu": 9878,
      "##ration": 9879,
      "deliver": 9880,
      "added": 9881,
      "banks": 9882,
      "standing": 9883,
      "defined": 9884,
      "batt": 9885,
      "film": 9886,
      "network": 9887,
      "explo": 9888,
      "leav": 9889,
      "brain": 9890,
      "entitled": 9891,
      "receipt": 9892,
      "physical": 9893,
      "review": 9894,
      "convers": 9895,
      "century": 9896,
      "piec": 9897,
      "##oms": 9898,
      "appendix": 9899,
      "books": 9900,
      "thous": 9901,
      "nature": 9902,
      "##pl": 9903,
      "likely": 9904,
      "##imate": 9905,
      "attached": 9906,
      "thousand": 9907,
      "fees": 9908,
      "##umb": 9909,
      "wife": 9910,
      "tim": 9911,
      "animal": 9912,
      "adop": 9913,
      "##ney": 9914,
      "fav": 9915,
      "answer": 9916,
      "mal": 9917,
      "beaut": 9918,
      "russ": 9919,
      "##thern": 9920,
      "bab": 9921,
      "##ology": 9922,
      "animals": 9923,
      "patients": 9924,
      "usually": 9925,
      "guy": 9926,
      "##rod": 9927,
      "colle": 9928,
      "radio": 9929,
      "granted": 9930,
      "john": 9931,
      "tom": 9932,
      "please": 9933,
      "##iately": 9934,
      "##iff": 9935,
      "imposed": 9936,
      "##sequ": 9937,
      "aw": 9938,
      "modern": 9939,
      "video": 9940,
      "prefer": 9941,
      "citiz": 9942,
      "size": 9943,
      "safe": 9944,
      "emb": 9945,
      "##essed": 9946,
      "applied": 9947,
      "prim": 9948,
      "##aring": 9949,
      "max": 9950,
      "eat": 9951,
      "glo": 9952,
      "instruct": 9953,
      "##rap": 9954,
      "policy": 9955,
      "groups": 9956,
      "issues": 9957,
      "pict": 9958,
      "recover": 9959,
      "learn": 9960,
      "allowed": 9961,
      "grad": 9962,
      "##ony": 9963,
      "##hib": 9964,
      "grand": 9965,
      "##vert": 9966,
      "##ging": 9967,
      "deg": 9968,
      "exceed": 9969,
      "agriculture": 9970,
      "terms": 9971,
      "maintain": 9972,
      "##ta": 9973,
      "signed": 9974,
      "anyone": 9975,
      "places": 9976,
      "emerg": 9977,
      "achie": 9978,
      "duty": 9979,
      "quickly": 9980,
      "feeling": 9981,
      "##ips": 9982,
      "##iated": 9983,
      "mentioned": 9984,
      "brought": 9985,
      "seemed": 9986,
      "##enty": 9987,
      "perf": 9988,
      "write": 9989,
      "alone": 9990,
      "##ma": 9991,
      "##cement": 9992,
      "trust": 9993,
      "attention": 9994,
      "departments": 9995,
      "debt": 9996,
      "target": 9997,
      "repub": 9998,
      "available": 9999,
      "purpose": 10000,
      "wouldn": 10001,
      "##mpt": 10002,
      "behav": 10003,
      "whose": 10004,
      "average": 10005,
      "houses": 10006,
      "wait": 10007,
      "danger": 10008,
      "amounts": 10009,
      "##ains": 10010,
      "vill": 10011,
      "carried": 10012,
      "##he": 10013,
      "content": 10014,
      "sorry": 10015,
      "quite": 10016,
      "led": 10017,
      "pal": 10018,
      "green": 10019,
      "itself": 10020,
      "republic": 10021,
      "##iddle": 10022,
      "clearly": 10023,
      "encoura": 10024,
      "electronic": 10025,
      "culture": 10026,
      "claim": 10027,
      "interests": 10028,
      "immediately": 10029,
      "hope": 10030,
      "private": 10031,
      "##ude": 10032,
      "##gest": 10033,
      "##read": 10034,
      "color": 10035,
      "dur": 10036,
      "enfor": 10037,
      "encl": 10038,
      "born": 10039,
      "##ancy": 10040,
      "prec": 10041,
      "below": 10042,
      "types": 10043,
      "killed": 10044,
      "continue": 10045,
      "rout": 10046,
      "suff": 10047,
      "##oud": 10048,
      "poor": 10049,
      "finally": 10050,
      "competence": 10051,
      "measure": 10052,
      "news": 10053,
      "model": 10054,
      "fill": 10055,
      "##etic": 10056,
      "aqu": 10057,
      "lay": 10058,
      "ways": 10059,
      "fle": 10060,
      "feb": 10061,
      "##unt": 10062,
      "base": 10063,
      "zones": 10064,
      "ones": 10065,
      "tried": 10066,
      "##ables": 10067,
      "box": 10068,
      "##iding": 10069,
      "guiding": 10070,
      "esc": 10071,
      "knowledge": 10072,
      "commission": 10073,
      "##ounced": 10074,
      "french": 10075,
      "##anced": 10076,
      "wish": 10077,
      "destro": 10078,
      "union": 10079,
      "charter": 10080,
      "charges": 10081,
      "die": 10082,
      "subst": 10083,
      "workers": 10084,
      "cold": 10085,
      "agre": 10086,
      "##son": 10087,
      "criter": 10088,
      "qd": 10089,
      "traffic": 10090,
      "vehicles": 10091,
      "##inh": 10092,
      "adm": 10093,
      "coup": 10094,
      "effic": 10095,
      "##oph": 10096,
      "##ae": 10097,
      "rail": 10098,
      "billion": 10099,
      "eight": 10100,
      "parts": 10101,
      "middle": 10102,
      "##ruary": 10103,
      "february": 10104,
      "text": 10105,
      "community": 10106,
      "eye": 10107,
      "##iance": 10108,
      "corre": 10109,
      "fa": 10110,
      "papers": 10111,
      "feet": 10112,
      "surf": 10113,
      "##ops": 10114,
      "lives": 10115,
      "guidance": 10116,
      "##haps": 10117,
      "sanction": 10118,
      "nav": 10119,
      "travel": 10120,
      "airc": 10121,
      "quar": 10122,
      "gone": 10123,
      "##asons": 10124,
      "##bal": 10125,
      "perhaps": 10126,
      "install": 10127,
      "zone": 10128,
      "internal": 10129,
      "parents": 10130,
      "brit": 10131,
      "contact": 10132,
      "running": 10133,
      "rat": 10134,
      "prem": 10135,
      "bul": 10136,
      "tend": 10137,
      "additional": 10138,
      "##dden": 10139,
      "##ote": 10140,
      "fif": 10141,
      "aircraft": 10142,
      "scale": 10143,
      "##mine": 10144,
      "christ": 10145,
      "loan": 10146,
      "imm": 10147,
      "##istics": 10148,
      "complet": 10149,
      "eth": 10150,
      "serious": 10151,
      "east": 10152,
      "source": 10153,
      "##put": 10154,
      "##fficient": 10155,
      "commit": 10156,
      "##ensive": 10157,
      "testing": 10158,
      "enjoy": 10159,
      "seven": 10160,
      "weight": 10161,
      "sudden": 10162,
      "##af": 10163,
      "##arm": 10164,
      "leaders": 10165,
      "kh": 10166,
      "kept": 10167,
      "regarding": 10168,
      "suit": 10169,
      "bill": 10170,
      "thank": 10171,
      "sto": 10172,
      "appropr": 10173,
      "numbers": 10174,
      "fell": 10175,
      "various": 10176,
      "mer": 10177,
      "sort": 10178,
      "afric": 10179,
      "methods": 10180,
      "released": 10181,
      "sched": 10182,
      "che": 10183,
      "ton": 10184,
      "died": 10185,
      "##ius": 10186,
      "feed": 10187,
      "##ervation": 10188,
      "drink": 10189,
      "occur": 10190,
      "##uel": 10191,
      "action": 10192,
      "status": 10193,
      "questions": 10194,
      "ill": 10195,
      "hit": 10196,
      "names": 10197,
      "street": 10198,
      "bidding": 10199,
      "simple": 10200,
      "named": 10201,
      "loans": 10202,
      "mur": 10203,
      "suppl": 10204,
      "gun": 10205,
      "functions": 10206,
      "micro": 10207,
      "##iction": 10208,
      "west": 10209,
      "rich": 10210,
      "tradition": 10211,
      "aid": 10212,
      "ess": 10213,
      "discuss": 10214,
      "disease": 10215,
      "concent": 10216,
      "needed": 10217,
      "##ened": 10218,
      "##iations": 10219,
      "agreed": 10220,
      "liqu": 10221,
      "signific": 10222,
      "forward": 10223,
      "centers": 10224,
      "completely": 10225,
      "##outh": 10226,
      "##ny": 10227,
      "enclosed": 10228,
      "inval": 10229,
      "brother": 10230,
      "touch": 10231,
      "worked": 10232,
      "compensation": 10233,
      "sir": 10234,
      "##oles": 10235,
      "€": 10236,
      "included": 10237,
      "judg": 10238,
      "evaluation": 10239,
      "##eth": 10240,
      "truth": 10241,
      "##rown": 10242,
      "##yl": 10243,
      "york": 10244,
      "rates": 10245,
      "##oon": 10246,
      "##onse": 10247,
      "rom": 10248,
      "##ites": 10249,
      "moved": 10250,
      "confir": 10251,
      "hey": 10252,
      "##yle": 10253,
      "justice": 10254,
      "cup": 10255,
      "##itory": 10256,
      "lines": 10257,
      "##ett": 10258,
      "stipulated": 10259,
      "floor": 10260,
      "fixed": 10261,
      "pretty": 10262,
      "response": 10263,
      "simply": 10264,
      "chap": 10265,
      "accounts": 10266,
      "series": 10267,
      "jour": 10268,
      "exactly": 10269,
      "basic": 10270,
      "station": 10271,
      "je": 10272,
      "easy": 10273,
      "guide": 10274,
      "mad": 10275,
      "favor": 10276,
      "actual": 10277,
      "giving": 10278,
      "staff": 10279,
      "hyd": 10280,
      "strength": 10281,
      "determine": 10282,
      "growth": 10283,
      "fee": 10284,
      "mid": 10285,
      "ready": 10286,
      "focus": 10287,
      "ast": 10288,
      "happy": 10289,
      "swe": 10290,
      "wood": 10291,
      "exemp": 10292,
      "affili": 10293,
      "ministerial": 10294,
      "overse": 10295,
      "##rid": 10296,
      "criteria": 10297,
      "##nel": 10298,
      "purposes": 10299,
      "dry": 10300,
      "voc": 10301,
      "registered": 10302,
      "ded": 10303,
      "multip": 10304,
      "##istic": 10305,
      "##ps": 10306,
      "hell": 10307,
      "condition": 10308,
      "fing": 10309,
      "weeks": 10310,
      "emot": 10311,
      "penal": 10312,
      "##band": 10313,
      "alb": 10314,
      "##ugg": 10315,
      "evidence": 10316,
      "whate": 10317,
      "whatever": 10318,
      "obtain": 10319,
      "mainten": 10320,
      "cooperation": 10321,
      "birth": 10322,
      "perfect": 10323,
      "maintenance": 10324,
      "cultural": 10325,
      "society": 10326,
      "duties": 10327,
      "america": 10328,
      "tool": 10329,
      "##amm": 10330,
      "##anging": 10331,
      "entities": 10332,
      "phil": 10333,
      "certification": 10334,
      "online": 10335,
      "dream": 10336,
      "site": 10337,
      "sen": 10338,
      "award": 10339,
      "coast": 10340,
      "chance": 10341,
      "changed": 10342,
      "debts": 10343,
      "created": 10344,
      "duration": 10345,
      "role": 10346,
      "plants": 10347,
      "schools": 10348,
      "customers": 10349,
      "airport": 10350,
      "flight": 10351,
      "location": 10352,
      "crim": 10353,
      "##uced": 10354,
      "internet": 10355,
      "assume": 10356,
      "mix": 10357,
      "hus": 10358,
      "##aught": 10359,
      "fast": 10360,
      "pan": 10361,
      "##ires": 10362,
      "surpr": 10363,
      "webs": 10364,
      "impact": 10365,
      "caused": 10366,
      "agricultural": 10367,
      "##cy": 10368,
      "displ": 10369,
      "doll": 10370,
      "draft": 10371,
      "division": 10372,
      "schem": 10373,
      "reasons": 10374,
      "surv": 10375,
      "##atures": 10376,
      "announced": 10377,
      "apprais": 10378,
      "deput": 10379,
      "##ects": 10380,
      "frequ": 10381,
      "records": 10382,
      "burn": 10383,
      "stated": 10384,
      "extra": 10385,
      "##ama": 10386,
      "towards": 10387,
      "influ": 10388,
      "od": 10389,
      "react": 10390,
      "sector": 10391,
      "host": 10392,
      "mouth": 10393,
      "ships": 10394,
      "##ague": 10395,
      "located": 10396,
      "##riage": 10397,
      "developed": 10398,
      "ren": 10399,
      "store": 10400,
      "serve": 10401,
      "##ocks": 10402,
      "blue": 10403,
      "##yal": 10404,
      "destroy": 10405,
      "##ored": 10406,
      "##pper": 10407,
      "##lt": 10408,
      "autom": 10409,
      "exercise": 10410,
      "asset": 10411,
      "includes": 10412,
      "brok": 10413,
      "##antly": 10414,
      "opened": 10415,
      "diss": 10416,
      "consist": 10417,
      "subs": 10418,
      "rules": 10419,
      "breed": 10420,
      "match": 10421,
      "pred": 10422,
      "sens": 10423,
      "recorded": 10424,
      "battle": 10425,
      "commune": 10426,
      "broad": 10427,
      "shares": 10428,
      "currency": 10429,
      "items": 10430,
      "recomm": 10431,
      "relig": 10432,
      "telec": 10433,
      "##olid": 10434,
      "selling": 10435,
      "fem": 10436,
      "carrying": 10437,
      "looks": 10438,
      "##oming": 10439,
      "difference": 10440,
      "reported": 10441,
      "##iful": 10442,
      "##dom": 10443,
      "surface": 10444,
      "laughter": 10445,
      "bey": 10446,
      "returned": 10447,
      "cast": 10448,
      "reserve": 10449,
      "##iled": 10450,
      "##esh": 10451,
      "former": 10452,
      "figure": 10453,
      "##osing": 10454,
      "##rated": 10455,
      "laugh": 10456,
      "moving": 10457,
      "officials": 10458,
      "positive": 10459,
      "scope": 10460,
      "cooperate": 10461,
      "threat": 10462,
      "appraisal": 10463,
      "gar": 10464,
      "normal": 10465,
      "beginning": 10466,
      "club": 10467,
      "technological": 10468,
      "inte": 10469,
      "execution": 10470,
      "temporary": 10471,
      "##use": 10472,
      "dong": 10473,
      "click": 10474,
[...]
