{
  "version": "1.0",
  "truncation": null,
  "padding": null,
  "added_tokens": [
    {
      "id": 0,
      "content": "[UNK]",
      "single_word": false,
      "lstrip": false,
      "rstrip": false,
      "normalized": false,
      "special": true
    },
    {
      "id": 1,
      "content": "[CLS]",
      "single_word": false,
      "lstrip": false,
      "rstrip": false,
      "normalized": false,
      "special": true
    },
    {
      "id": 2,
      "content": "[SEP]",
      "single_word": false,
      "lstrip": false,
      "rstrip": false,
      "normalized": false,
      "special": true
    },
    {
      "id": 3,
      "content": "[PAD]",
      "single_word": false,
      "lstrip": false,
      "rstrip": false,
      "normalized": false,
      "special": true
    },
    {
      "id": 4,
      "content": "[MASK]",
      "single_word": false,
      "lstrip": false,
      "rstrip": false,
      "normalized": false,
      "special": true
    }
  ],
  "normalizer": {
    "type": "Sequence",
    "normalizers": [
      {
        "type": "NFD"
      },
      {
        "type": "Lowercase"
      }
    ]
  },
  "pre_tokenizer": {
    "type": "Sequence",
    "pretokenizers": [
      {
        "type": "Whitespace"
      },
      {
        "type": "Digits",
        "individual_digits": true
      }
    ]
  },
  "post_processor": {
    "type": "TemplateProcessing",
    "single": [
      {
        "SpecialToken": {
          "id": "[CLS]",
          "type_id": 0
        }
      },
      {
        "Sequence": {
          "id": "A",
          "type_id": 0
        }
      },
      {
        "SpecialToken": {
          "id": "[SEP]",
          "type_id": 0
        }
      }
    ],
    "pair": [
      {
        "SpecialToken": {
          "id": "[CLS]",
          "type_id": 0
        }
      },
      {
        "Sequence": {
          "id": "A",
          "type_id": 0
        }
      },
      {
        "SpecialToken": {
          "id": "[SEP]",
          "type_id": 0
        }
      },
      {
        "Sequence": {
          "id": "B",
          "type_id": 1
        }
      },
      {
        "SpecialToken": {
          "id": "[SEP]",
          "type_id": 1
        }
      }
    ],
    "special_tokens": {
      "[CLS]": {
        "id": "[CLS]",
        "ids": [
          1
        ],
        "tokens": [
          "[CLS]"
        ]
      },
      "[SEP]": {
        "id": "[SEP]",
        "ids": [
          2
        ],
        "tokens": [
          "[SEP]"
        ]
      }
    }
  },
  "decoder": null,
  "model": {
    "type": "WordPiece",
    "unk_token": "[UNK]",
    "continuing_subword_prefix": "##",
    "max_input_chars_per_word": 100,
    "vocab": {
      "[UNK]": 0,
      "[CLS]": 1,
      "[SEP]": 2,
      "[PAD]": 3,
      "[MASK]": 4,
      "!": 5,
      "\"": 6,
      "#": 7,
      "$": 8,
      "%": 9,
      "&": 10,
      "'": 11,
      "(": 12,
      ")": 13,
      "*": 14,
      "+": 15,
      ",": 16,
      "-": 17,
      ".": 18,
      "/": 19,
      "0": 20,
      "1": 21,
      "2": 22,
      "3": 23,
      "4": 24,
      "5": 25,
      "6": 26,
      "7": 27,
      "8": 28,
      "9": 29,
      ":": 30,
      ";": 31,
      "<": 32,
      "=": 33,
      ">": 34,
      "?": 35,
      "@": 36,
      "\\": 37,
      "^": 38,
      "`": 39,
      "a": 40,
      "b": 41,
      "c": 42,
      "d": 43,
      "e": 44,
      "f": 45,
      "g": 46,
      "h": 47,
      "i": 48,
      "j": 49,
      "k": 50,
      "l": 51,
      "m": 52,
      "n": 53,
      "o": 54,
      "p": 55,
      "q": 56,
      "r": 57,
      "s": 58,
      "t": 59,
      "u": 60,
      "v": 61,
      "w": 62,
      "x": 63,
      "y": 64,
      "z": 65,
      "{": 66,
      "|": 67,
      "}": 68,
      "~": 69,
      "": 70,
      "": 71,
      "": 72,
      "": 73,
      "": 74,
      "": 75,
      "": 76,
      "": 77,
      "": 78,
      "": 79,
      "": 80,
      "": 81,
      "": 82,
      "": 83,
      "¡": 84,
      "¢": 85,
      "£": 86,
      "¤": 87,
      "¥": 88,
      "§": 89,
      "¨": 90,
      "©": 91,
      "ª": 92,
      "«": 93,
      "¬": 94,
      "­": 95,
      "®": 96,
      "¯": 97,
      "°": 98,
      "±": 99,
      "²": 100,
      "³": 101,
      "´": 102,
      "µ": 103,
      "¶": 104,
      "·": 105,
      "¸": 106,
      "¹": 107,
      "º": 108,
      "»": 109,
      "¼": 110,
      "½": 111,
      "¾": 112,
      "¿": 113,
      "×": 114,
      "ß": 115,
      "æ": 116,
      "ð": 117,
      "÷": 118,
      "ø": 119,
      "þ": 120,
      "đ": 121,
      "ħ": 122,
      "ı": 123,
      "ĸ": 124,
      "ł": 125,
      "ŋ": 126,
      "œ": 127,
      "ŧ": 128,
      "ſ": 129,
      "ƒ": 130,
      "ƙ": 131,
      "ƣ": 132,
      "ǁ": 133,
      "ǝ": 134,
      "ȝ": 135,
      "ɑ": 136,
      "ɒ": 137,
      "ɓ": 138,
      "ɔ": 139,
      "ɕ": 140,
      "ɖ": 141,
      "ɗ": 142,
      "ə": 143,
      "ɛ": 144,
      "ɜ": 145,
      "ɝ": 146,
      "ɡ": 147,
      "ɣ": 148,
      "ɤ": 149,
      "ɨ": 150,
      "ɪ": 151,
      "ɯ": 152,
      "ɰ": 153,
      "ɴ": 154,
      "ɸ": 155,
      "ɹ": 156,
      "ɾ": 157,
      "ʀ": 158,
      "ʁ": 159,
      "ʃ": 160,
      "ʊ": 161,
      "ʋ": 162,
      "ʌ": 163,
      "ʑ": 164,
      "ʒ": 165,
      "ʔ": 166,
      "ʕ": 167,
      "ʖ": 168,
      "ʰ": 169,
      "ʲ": 170,
      "ʷ": 171,
      "ʹ": 172,
      "ʻ": 173,
      "ʼ": 174,
      "ʽ": 175,
      "ʾ": 176,
      "ʿ": 177,
      "ˁ": 178,
      "˂": 179,
      "˃": 180,
      "ˈ": 181,
      "ˌ": 182,
      "ː": 183,
      "˙": 184,
      "˚": 185,
      "˛": 186,
      "ˠ": 187,
      "ˤ": 188,
      "ˮ": 189,
      "̀": 190,
      "́": 191,
      "̂": 192,
      "̃": 193,
      "̄": 194,
      "̅": 195,
      "̆": 196,
      "̇": 197,
      "̈": 198,
      "̉": 199,
      "̊": 200,
      "̋": 201,
      "̌": 202,
      "̏": 203,
      "̓": 204,
      "̔": 205,
      "̛": 206,
      "̜": 207,
      "̟": 208,
      "̣": 209,
      "̥": 210,
      "̦": 211,
      "̧": 212,
      "̨": 213,
      "̪": 214,
      "̮": 215,
      "̯": 216,
      "̱": 217,
      "̲": 218,
      "̶": 219,
      "̸": 220,
      "̺": 221,
      "̻": 222,
      "͂": 223,
      "ͅ": 224,
      "͜": 225,
      "͡": 226,
      "΄": 227,
      "α": 228,
      "β": 229,
      "γ": 230,
      "δ": 231,
      "ε": 232,
      "ζ": 233,
      "η": 234,
      "θ": 235,
      "ι": 236,
      "κ": 237,
      "λ": 238,
      "μ": 239,
      "ν": 240,
      "ξ": 241,
      "ο": 242,
      "π": 243,
      "ρ": 244,
      "ς": 245,
      "σ": 246,
      "τ": 247,
      "υ": 248,
      "φ": 249,
      "χ": 250,
      "ψ": 251,
      "ω": 252,
      "ϑ": 253,
      "ϒ": 254,
      "ϕ": 255,
      "ϙ": 256,
      "ϛ": 257,
      "ϵ": 258,
      "а": 259,
      "б": 260,
      "в": 261,
      "г": 262,
      "д": 263,
      "е": 264,
      "ж": 265,
      "з": 266,
      "и": 267,
      "к": 268,
      "л": 269,
      "м": 270,
      "н": 271,
      "о": 272,
      "п": 273,
      "р": 274,
      "с": 275,
      "т": 276,
      "у": 277,
      "ф": 278,
      "х": 279,
      "ц": 280,
      "ч": 281,
      "ш": 282,
      "щ": 283,
      "ъ": 284,
      "ы": 285,
      "ь": 286,
      "э": 287,
      "ю": 288,
      "я": 289,
      "ђ": 290,
      "є": 291,
      "ѕ": 292,
      "і": 293,
      "ј": 294,
      "љ": 295,
      "њ": 296,
      "ћ": 297,
      "ѣ": 298,
      "ѳ": 299,
      "ѵ": 300,
      "ґ": 301,
      "ғ": 302,
      "ҕ": 303,
      "қ": 304,
      "ң": 305,
      "ҫ": 306,
      "ү": 307,
      "ұ": 308,
      "ҳ": 309,
      "ҷ": 310,
      "ӄ": 311,
      "ә": 312,
      "ө": 313,
      "ӷ": 314,
      "ԥ": 315,
      "ա": 316,
      "բ": 317,
      "գ": 318,
      "դ": 319,
      "ե": 320,
      "զ": 321,
      "է": 322,
      "ը": 323,
      "թ": 324,
      "ի": 325,
      "լ": 326,
      "խ": 327,
      "ծ": 328,
      "կ": 329,
      "հ": 330,
      "ղ": 331,
      "ճ": 332,
      "մ": 333,
      "յ": 334,
      "ն": 335,
      "շ": 336,
      "ո": 337,
      "չ": 338,
      "պ": 339,
      "ջ": 340,
      "ռ": 341,
      "ս": 342,
      "վ": 343,
      "տ": 344,
      "ր": 345,
      "ց": 346,
      "ւ": 347,
      "փ": 348,
      "ք": 349,
      "ְ": 350,
      "ֱ": 351,
      "ֲ": 352,
      "ִ": 353,
      "ֵ": 354,
      "ֶ": 355,
      "ַ": 356,
      "ָ": 357,
      "ֹ": 358,
      "ּ": 359,
      "־": 360,
      "ֿ": 361,
      "ׁ": 362,
      "ׂ": 363,
      "א": 364,
      "ב": 365,
      "ג": 366,
      "ד": 367,
      "ה": 368,
      "ו": 369,
      "ז": 370,
      "ח": 371,
      "ט": 372,
      "י": 373,
      "כ": 374,
      "ל": 375,
      "ם": 376,
      "מ": 377,
      "ן": 378,
      "נ": 379,
      "ס": 380,
      "ע": 381,
      "פ": 382,
      "ץ": 383,
      "צ": 384,
      "ק": 385,
      "ר": 386,
      "ש": 387,
      "ת": 388,
      "ײ": 389,
      "؛": 390,
      "؟": 391,
      "ء": 392,
      "ا": 393,
      "ب": 394,
      "ة": 395,
      "ت": 396,
      "ث": 397,
      "ج": 398,
      "ح": 399,
      "خ": 400,
      "د": 401,
      "ذ": 402,
      "ر": 403,
      "ز": 404,
      "س": 405,
      "ش": 406,
      "ص": 407,
      "ض": 408,
      "ط": 409,
      "ظ": 410,
      "ع": 411,
      "غ": 412,
      "ـ": 413,
      "ف": 414,
      "ق": 415,
      "ك": 416,
      "ل": 417,
      "م": 418,
      "ن": 419,
      "ه": 420,
      "و": 421,
      "ى": 422,
      "ي": 423,
      "ً": 424,
      "َ": 425,
      "ُ": 426,
      "ِ": 427,
      "ّ": 428,
      "ْ": 429,
      "ٓ": 430,
      "ٔ": 431,
      "ٕ": 432,
      "ٜ": 433,
      "٠": 434,
      "١": 435,
      "٢": 436,
      "٣": 437,
      "٤": 438,
      "٥": 439,
      "٦": 440,
      "٧": 441,
      "٨": 442,
      "٩": 443,
      "ټ": 444,
      "پ": 445,
      "چ": 446,
      "ډ": 447,
      "ڑ": 448,
      "ڕ": 449,
      "ژ": 450,
      "ښ": 451,
      "ڠ": 452,
      "ک": 453,
      "ڭ": 454,
      "گ": 455,
      "ھ": 456,
      "ہ": 457,
      "ۇ": 458,
      "ۈ": 459,
      "ۋ": 460,
      "ی": 461,
      "ۍ": 462,
      "ێ": 463,
      "ے": 464,
      "ە": 465,
      "۰": 466,
      "۱": 467,
      "۲": 468,
      "۵": 469,
      "ܐ": 470,
      "ܒ": 471,
      "ܓ": 472,
      "ܕ": 473,
      "ܝ": 474,
      "ܠ": 475,
      "ܡ": 476,
      "ܢ": 477,
      "ܣ": 478,
      "ܥ": 479,
      "ܪ": 480,
      "ހ": 481,
      "ނ": 482,
      "ރ": 483,
      "ބ": 484,
      "އ": 485,
      "މ": 486,
      "ދ": 487,
      "ލ": 488,
      "ސ": 489,
      "ޖ": 490,
      "ޚ": 491,
      "ޠ": 492,
      "ަ": 493,
      "ާ": 494,
      "ި": 495,
      "ީ": 496,
      "ު": 497,
      "ެ": 498,
      "ް": 499,
      "ं": 500,
      "अ": 501,
      "आ": 502,
      "इ": 503,
      "ई": 504,
      "उ": 505,
      "ऑ": 506,
      "औ": 507,
      "क": 508,
      "ख": 509,
      "ग": 510,
      "च": 511,
      "छ": 512,
      "ज": 513,
      "ट": 514,
      "ठ": 515,
      "ड": 516,
      "ढ": 517,
      "ण": 518,
      "त": 519,
      "थ": 520,
      "द": 521,
      "ध": 522,
      "न": 523,
      "प": 524,
      "फ": 525,
      "ब": 526,
      "भ": 527,
      "म": 528,
      "य": 529,
      "र": 530,
      "ल": 531,
      "व": 532,
      "श": 533,
      "ष": 534,
      "स": 535,
      "ह": 536,
      "़": 537,
      "ा": 538,
      "ि": 539,
      "ी": 540,
      "ु": 541,
      "ू": 542,
      "े": 543,
      "ै": 544,
      "ॉ": 545,
      "ो": 546,
      "ौ": 547,
      "्": 548,
      "ং": 549,
      "আ": 550,
      "ই": 551,
      "উ": 552,
      "এ": 553,
      "ও": 554,
      "ক": 555,
      "খ": 556,
      "গ": 557,
      "ঘ": 558,
      "ঙ": 559,
      "চ": 560,
      "ছ": 561,
      "জ": 562,
      "ট": 563,
      "ঢ": 564,
      "ণ": 565,
      "ত": 566,
      "দ": 567,
      "ধ": 568,
      "ন": 569,
      "প": 570,
      "ব": 571,
      "ভ": 572,
      "ম": 573,
      "য": 574,
      "র": 575,
      "ল": 576,
      "শ": 577,
      "ষ": 578,
      "স": 579,
      "হ": 580,
      "়": 581,
      "া": 582,
      "ি": 583,
      "ী": 584,
      "ু": 585,
      "ৃ": 586,
      "ে": 587,
      "্": 588,
      "ৗ": 589,
      "ৰ": 590,
      "৳": 591,
      "ਪ": 592,
      "ਹ": 593,
      "ਾ": 594,
      "ੜ": 595,
      "ੱ": 596,
      "ી": 597,
      "அ": 598,
      "க": 599,
      "ங": 600,
      "ச": 601,
      "ட": 602,
      "ண": 603,
      "த": 604,
      "ந": 605,
      "ன": 606,
      "ப": 607,
      "ம": 608,
      "ய": 609,
      "ர": 610,
      "ற": 611,
      "ல": 612,
      "ழ": 613,
      "வ": 614,
      "ா": 615,
      "ி": 616,
      "ு": 617,
      "ூ": 618,
      "ெ": 619,
      "ை": 620,
      "்": 621,
      "చ": 622,
      "త": 623,
      "ద": 624,
      "ర": 625,
      "ల": 626,
      "వ": 627,
      "శ": 628,
      "ా": 629,
      "ి": 630,
      "ు": 631,
      "్": 632,
      "ಂ": 633,
      "ಗ": 634,
      "ಠ": 635,
      "ತ": 636,
      "ಧ": 637,
      "ಪ": 638,
      "ರ": 639,
      "ವ": 640,
      "ಾ": 641,
      "ಿ": 642,
      "್": 643,
      "ം": 644,
      "ക": 645,
      "ട": 646,
      "ദ": 647,
      "പ": 648,
      "ഭ": 649,
      "മ": 650,
      "റ": 651,
      "ല": 652,
      "ള": 653,
      "വ": 654,
      "ഷ": 655,
      "ീ": 656,
      "ു": 657,
      "്": 658,
      "අ": 659,
      "ක": 660,
      "ත": 661,
      "ද": 662,
      "න": 663,
      "ම": 664,
      "ය": 665,
      "ර": 666,
      "ල": 667,
      "ව": 668,
      "ස": 669,
      "්": 670,
      "ා": 671,
      "ි": 672,
      "ු": 673,
      "ก": 674,
      "ข": 675,
      "ฃ": 676,
      "ค": 677,
      "ฅ": 678,
      "ฆ": 679,
      "ง": 680,
      "จ": 681,
      "ฉ": 682,
      "ช": 683,
      "ซ": 684,
      "ฌ": 685,
      "ญ": 686,
      "ฎ": 687,
      "ฐ": 688,
      "ฑ": 689,
      "ฒ": 690,
      "ณ": 691,
      "ด": 692,
      "ต": 693,
      "ถ": 694,
      "ท": 695,
      "ธ": 696,
      "น": 697,
      "บ": 698,
      "ป": 699,
      "ผ": 700,
      "ฝ": 701,
      "พ": 702,
      "ฟ": 703,
      "ภ": 704,
      "ม": 705,
      "ย": 706,
      "ร": 707,
      "ฤ": 708,
      "ล": 709,
      "ว": 710,
      "ศ": 711,
      "ษ": 712,
      "ส": 713,
      "ห": 714,
      "ฬ": 715,
      "อ": 716,
      "ฮ": 717,
      "ะ": 718,
      "ั": 719,
      "า": 720,
      "ำ": 721,
      "ิ": 722,
      "ี": 723,
      "ึ": 724,
      "ื": 725,
      "ุ": 726,
      "ู": 727,
      "฿": 728,
      "เ": 729,
      "แ": 730,
      "โ": 731,
      "ใ": 732,
      "ไ": 733,
      "็": 734,
      "่": 735,
      "้": 736,
      "๊": 737,
      "๋": 738,
      "์": 739,
      "๑": 740,
      "๘": 741,
      "ກ": 742,
      "ປ": 743,
      "ພ": 744,
      "ມ": 745,
      "ຣ": 746,
      "ລ": 747,
      "ວ": 748,
      "ະ": 749,
      "ັ": 750,
      "າ": 751,
      "ີ": 752,
      "ຸ": 753,
      "ໃ": 754,
      "່": 755,
      "ໝ": 756,
      "་": 757,
      "ཁ": 758,
      "ག": 759,
      "ང": 760,
      "ཐ": 761,
      "ན": 762,
      "བ": 763,
      "མ": 764,
      "ར": 765,
      "ཨ": 766,
      "ི": 767,
      "ུ": 768,
      "ོ": 769,
      "ྫ": 770,
      "ྰ": 771,
      "က": 772,
      "ခ": 773,
      "င": 774,
      "စ": 775,
      "ဆ": 776,
      "ဇ": 777,
      "ည": 778,
      "ဋ": 779,
      "တ": 780,
      "ထ": 781,
      "ဒ": 782,
      "ဓ": 783,
      "န": 784,
      "ပ": 785,
      "ဖ": 786,
      "ဗ": 787,
      "ဘ": 788,
      "မ": 789,
      "ယ": 790,
      "ရ": 791,
      "လ": 792,
      "ဝ": 793,
      "သ": 794,
      "ဟ": 795,
      "အ": 796,
      "ဣ": 797,
      "ါ": 798,
      "ာ": 799,
      "ိ": 800,
      "ီ": 801,
      "ု": 802,
      "ူ": 803,
      "ေ": 804,
      "ဲ": 805,
      "ံ": 806,
      "့": 807,
      "း": 808,
      "္": 809,
      "်": 810,
      "ျ": 811,
      "ြ": 812,
      "ွ": 813,
      "ှ": 814,
      "႓": 815,
      "ა": 816,
      "ბ": 817,
      "გ": 818,
      "დ": 819,
      "ე": 820,
      "ვ": 821,
      "ზ": 822,
      "თ": 823,
      "ი": 824,
      "კ": 825,
      "ლ": 826,
      "მ": 827,
      "ნ": 828,
      "ო": 829,
      "პ": 830,
      "ჟ": 831,
      "რ": 832,
      "ს": 833,
      "ტ": 834,
      "უ": 835,
      "ფ": 836,
      "ქ": 837,
      "ღ": 838,
      "შ": 839,
      "ც": 840,
      "ძ": 841,
      "ხ": 842,
      "ᄀ": 843,
      "ᄁ": 844,
      "ᄂ": 845,
      "ᄃ": 846,
      "ᄄ": 847,
      "ᄅ": 848,
      "ᄆ": 849,
      "ᄇ": 850,
      "ᄈ": 851,
      "ᄉ": 852,
      "ᄊ": 853,
      "ᄋ": 854,
      "ᄌ": 855,
      "ᄍ": 856,
      "ᄎ": 857,
      "ᄏ": 858,
      "ᄐ": 859,
      "ᄑ": 860,
      "ᄒ": 861,
      "ᅡ": 862,
      "ᅢ": 863,
      "ᅣ": 864,
      "ᅤ": 865,
      "ᅥ": 866,
      "ᅦ": 867,
      "ᅧ": 868,
      "ᅨ": 869,
      "ᅩ": 870,
      "ᅪ": 871,
      "ᅫ": 872,
      "ᅬ": 873,
      "ᅭ": 874,
      "ᅮ": 875,
      "ᅯ": 876,
      "ᅰ": 877,
      "ᅱ": 878,
      "ᅲ": 879,
      "ᅳ": 880,
      "ᅴ": 881,
      "ᅵ": 882,
      "ᆨ": 883,
      "ᆩ": 884,
      "ᆫ": 885,
      "ᆬ": 886,
      "ᆭ": 887,
      "ᆮ": 888,
      "ᆯ": 889,
      "ᆰ": 890,
      "ᆲ": 891,
      "ᆶ": 892,
      "ᆷ": 893,
      "ᆸ": 894,
      "ᆹ": 895,
      "ᆺ": 896,
      "ᆻ": 897,
      "ᆼ": 898,
      "ᆽ": 899,
      "ᆾ": 900,
      "ᇀ": 901,
      "ᇁ": 902,
      "ᇂ": 903,
      "ህ": 904,
      "ለ": 905,
      "ል": 906,
      "ሐ": 907,
      "ም": 908,
      "ር": 909,
      "ሳ": 910,
      "ስ": 911,
      "ሻ": 912,
      "ቅ": 913,
      "በ": 914,
      "ባ": 915,
      "ቤ": 916,
      "ና": 917,
      "ን": 918,
      "አ": 919,
      "ወ": 920,
      "ው": 921,
      "ዕ": 922,
      "ዘ": 923,
      "ዝ": 924,
      "ይ": 925,
      "ዲ": 926,
      "ዴ": 927,
      "ጉ": 928,
      "ግ": 929,
      "ጣ": 930,
      "ጻ": 931,
      "ក": 932,
      "ខ": 933,
      "គ": 934,
      "ង": 935,
      "ច": 936,
      "ឆ": 937,
      "ជ": 938,
      "ឈ": 939,
      "ញ": 940,
      "ដ": 941,
      "ឋ": 942,
      "ឌ": 943,
      "ណ": 944,
      "ត": 945,
      "ថ": 946,
      "ទ": 947,
      "ធ": 948,
      "ន": 949,
      "ប": 950,
      "ព": 951,
      "ភ": 952,
      "ម": 953,
      "យ": 954,
      "រ": 955,
      "ល": 956,
      "វ": 957,
      "ស": 958,
      "ហ": 959,
      "ឡ": 960,
      "អ": 961,
      "ឥ": 962,
      "ឧ": 963,
      "ា": 964,
      "ិ": 965,
      "ី": 966,
      "ឹ": 967,
      "ុ": 968,
      "ូ": 969,
      "ួ": 970,
      "ើ": 971,
      "ៀ": 972,
      "េ": 973,
      "ែ": 974,
      "ៃ": 975,
      "ោ": 976,
      "ៅ": 977,
      "ំ": 978,
      "ះ": 979,
      "៉": 980,
      "៊": 981,
      "់": 982,
      "៍": 983,
      "័": 984,
      "្": 985,
      "២": 986,
      "៣": 987,
      "ᴅ": 988,
      "ᵻ": 989,
      "​": 990,
      "‌": 991,
      "‍": 992,
      "‎": 993,
      "‐": 994,
      "‑": 995,
      "‒": 996,
      "―": 997,
      "‖": 998,
      "‚": 999,
      "„": 1000,
      "‟": 1001,
      "†": 1002,
      "‡": 1003,
      "•": 1004,
      "‥": 1005,
      "…": 1006,
      "‧": 1007,
      "‪": 1008,
      "‬": 1009,
      "‭": 1010,
      "‰": 1011,
      "′": 1012,
      "″": 1013,
      "‹": 1014,
      "›": 1015,
      "‼": 1016,
      "⁄": 1017,
      "⁝": 1018,
      "⁠": 1019,
      "⁡": 1020,
      "⁰": 1021,
      "⁸": 1022,
      "⁹": 1023,
      "⁻": 1024,
      "₂": 1025,
      "₋": 1026,
      "₣": 1027,
      "₤": 1028,
      "₨": 1029,
      "₩": 1030,
      "₫": 1031,
      "€": 1032,
      "₱": 1033,
      "₹": 1034,
      "℃": 1035,
      "℉": 1036,
      "ℍ": 1037,
      "ℏ": 1038,
      "ℓ": 1039,
      "№": 1040,
      "ℝ": 1041,
      "™": 1042,
      "⅓": 1043,
      "⅔": 1044,
      "⅛": 1045,
      "⅜": 1046,
      "⅝": 1047,
      "⅞": 1048,
      "ⅰ": 1049,
      "ⅱ": 1050,
      "ⅲ": 1051,
      "ⅵ": 1052,
      "←": 1053,
      "↑": 1054,
      "→": 1055,
      "↓": 1056,
      "↔": 1057,
      "↵": 1058,
      "↹": 1059,
      "↽": 1060,
      "⇀": 1061,
      "⇌": 1062,
      "⇒": 1063,
      "⇧": 1064,
      "⇩": 1065,
      "⇬": 1066,
      "⇭": 1067,
      "⇱": 1068,
      "∀": 1069,
      "∂": 1070,
      "∃": 1071,
      "∅": 1072,
      "∆": 1073,
      "∇": 1074,
      "∈": 1075,
      "∎": 1076,
      "∏": 1077,
      "∑": 1078,
      "−": 1079,
      "∓": 1080,
      "∖": 1081,
      "∗": 1082,
      "∘": 1083,
      "√": 1084,
      "∝": 1085,
      "∞": 1086,
      "∠": 1087,
      "∥": 1088,
      "∧": 1089,
      "∨": 1090,
      "∩": 1091,
      "∪": 1092,
      "∫": 1093,
      "∮": 1094,
      "∼": 1095,
      "≅": 1096,
      "≈": 1097,
      "≡": 1098,
      "≤": 1099,
      "≥": 1100,
      "≪": 1101,
      "≫": 1102,
      "≶": 1103,
      "⊂": 1104,
      "⊆": 1105,
      "⊊": 1106,
      "⊕": 1107,
      "⊙": 1108,
      "⊞": 1109,
      "⊥": 1110,
      "⋅": 1111,
      "⋆": 1112,
      "⋮": 1113,
      "⋯": 1114,
      "⌈": 1115,
      "⌉": 1116,
      "⌊": 1117,
      "⌋": 1118,
      "⌘": 1119,
      "⌥": 1120,
      "⎙": 1121,
      "⏎": 1122,
      "⏏": 1123,
      "⏞": 1124,
      "⏭": 1125,
      "␀": 1126,
      "⑆": 1127,
      "①": 1128,
      "⑥": 1129,
      "⑫": 1130,
      "⑮": 1131,
      "ⓒ": 1132,
      "ⓘ": 1133,
      "ⓧ": 1134,
      "━": 1135,
      "┉": 1136,
      "┴": 1137,
      "┻": 1138,
      "╯": 1139,
      "■": 1140,
      "□": 1141,
      "▪": 1142,
      "▮": 1143,
      "▲": 1144,
      "△": 1145,
      "▴": 1146,
      "▶": 1147,
      "▷": 1148,
      "►": 1149,
      "▼": 1150,
      "◆": 1151,
      "○": 1152,
      "●": 1153,
      "★": 1154,
      "☆": 1155,
      "☉": 1156,
      "☐": 1157,
      "☒": 1158,
      "☞": 1159,
      "☠": 1160,
      "☰": 1161,
      "☲": 1162,
      "☷": 1163,
      "☺": 1164,
      "♀": 1165,
      "♂": 1166,
      "♗": 1167,
      "♝": 1168,
      "♠": 1169,
      "♡": 1170,
      "♥": 1171,
      "♦": 1172,
      "♩": 1173,
      "♪": 1174,
      "♫": 1175,
      "♭": 1176,
      "♯": 1177,
      "♰": 1178,
      "⚙": 1179,
      "✈": 1180,
      "✓": 1181,
      "❄": 1182,
      "❑": 1183,
      "❖": 1184,
      "❤": 1185,
      "➕": 1186,
      "➝": 1187,
      "⟨": 1188,
      "⟩": 1189,
      "⟳": 1190,
      "⟶": 1191,
      "⦾": 1192,
      "⬆": 1193,
      "ⰶ": 1194,
      "ⲉ": 1195,
      "ⲏ": 1196,
      "ⲓ": 1197,
      "ⲙ": 1198,
      "ⲛ": 1199,
      "ⲣ": 1200,
      "ⲭ": 1201,
      "ⴰ": 1202,
      "ⴷ": 1203,
      "ⴸ": 1204,
      "ⴹ": 1205,
      "ⴾ": 1206,
      "ⵄ": 1207,
      "ⵉ": 1208,
      "ⵍ": 1209,
      "ⵎ": 1210,
      "ⵏ": 1211,
      "ⵓ": 1212,
      "ⵔ": 1213,
      "ⵙ": 1214,
      "ⵜ": 1215,
      "ⵢ": 1216,
      "ⵣ": 1217,
      "⹋": 1218,
      "、": 1219,
      "。": 1220,
      "々": 1221,
      "〈": 1222,
      "〉": 1223,
      "《": 1224,
      "》": 1225,
      "「": 1226,
      "」": 1227,
      "『": 1228,
      "』": 1229,
      "【": 1230,
      "】": 1231,
      "〒": 1232,
      "〔": 1233,
      "〕": 1234,
      "〜": 1235,
      "ぁ": 1236,
      "あ": 1237,
      "ぃ": 1238,
      "い": 1239,
      "ぅ": 1240,
      "う": 1241,
      "え": 1242,
      "お": 1243,
      "か": 1244,
      "き": 1245,
      "く": 1246,
      "け": 1247,
      "こ": 1248,
      "さ": 1249,
      "し": 1250,
      "す": 1251,
      "せ": 1252,
      "そ": 1253,
      "た": 1254,
      "ち": 1255,
      "っ": 1256,
      "つ": 1257,
      "て": 1258,
      "と": 1259,
      "な": 1260,
      "に": 1261,
      "ぬ": 1262,
      "ね": 1263,
      "の": 1264,
      "は": 1265,
      "ひ": 1266,
      "ふ": 1267,
      "へ": 1268,
      "ほ": 1269,
      "ま": 1270,
      "み": 1271,
      "む": 1272,
      "め": 1273,
      "も": 1274,
      "ゃ": 1275,
      "や": 1276,
      "ゅ": 1277,
      "ゆ": 1278,
      "ょ": 1279,
      "よ": 1280,
      "ら": 1281,
      "り": 1282,
      "る": 1283,
      "れ": 1284,
      "ろ": 1285,
      "わ": 1286,
      "ゐ": 1287,
      "ゑ": 1288,
      "を": 1289,
      "ん": 1290,
      "゙": 1291,
      "゚": 1292,
      "゜": 1293,
      "ゝ": 1294,
      "ァ": 1295,
      "ア": 1296,
      "ィ": 1297,
      "イ": 1298,
      "ゥ": 1299,
      "ウ": 1300,
      "ェ": 1301,
      "エ": 1302,
      "ォ": 1303,
      "オ": 1304,
      "カ": 1305,
      "キ": 1306,
      "ク": 1307,
      "ケ": 1308,
      "コ": 1309,
      "サ": 1310,
      "シ": 1311,
      "ス": 1312,
      "セ": 1313,
      "ソ": 1314,
      "タ": 1315,
      "チ": 1316,
      "ッ": 1317,
      "ツ": 1318,
      "テ": 1319,
      "ト": 1320,
      "ナ": 1321,
      "ニ": 1322,
      "ヌ": 1323,
      "ネ": 1324,
      "ノ": 1325,
      "ハ": 1326,
      "ヒ": 1327,
      "フ": 1328,
      "ヘ": 1329,
      "ホ": 1330,
      "マ": 1331,
      "ミ": 1332,
      "ム": 1333,
      "メ": 1334,
      "モ": 1335,
      "ャ": 1336,
      "ヤ": 1337,
      "ュ": 1338,
      "ユ": 1339,
      "ョ": 1340,
      "ヨ": 1341,
      "ラ": 1342,
      "リ": 1343,
      "ル": 1344,
      "レ": 1345,
      "ロ": 1346,
      "ヮ": 1347,
      "ワ": 1348,
      "ヱ": 1349,
      "ン": 1350,
      "ヶ": 1351,
      "・": 1352,
      "ー": 1353,
      "ㄞ": 1354,
      "ㄱ": 1355,
      "ㄹ": 1356,
      "ㅁ": 1357,
      "ㅏ": 1358,
      "ㅐ": 1359,
      "ㅑ": 1360,
      "ㅓ": 1361,
      "ㅕ": 1362,
      "ㅗ": 1363,
      "ㅜ": 1364,
      "ㅡ": 1365,
      "ㅣ": 1366,
      "ㆍ": 1367,
      "ㇱ": 1368,
      "ㇼ": 1369,
      "㊙": 1370,
      "一": 1371,
      "丁": 1372,
      "七": 1373,
      "万": 1374,
      "丈": 1375,
      "三": 1376,
      "上": 1377,
      "下": 1378,
      "不": 1379,
      "与": 1380,
      "专": 1381,
      "丕": 1382,
      "世": 1383,
      "丙": 1384,
      "业": 1385,
      "东": 1386,
      "丞": 1387,
      "両": 1388,
      "两": 1389,
      "严": 1390,
      "並": 1391,
      "丧": 1392,
      "丨": 1393,
      "个": 1394,
      "中": 1395,
      "丰": 1396,
      "丸": 1397,
      "丹": 1398,
      "为": 1399,
      "主": 1400,
      "丽": 1401,
      "举": 1402,
      "乃": 1403,
      "久": 1404,
      "义": 1405,
      "之": 1406,
      "乎": 1407,
      "乐": 1408,
      "乗": 1409,
      "乙": 1410,
      "九": 1411,
      "也": 1412,
      "习": 1413,
      "乡": 1414,
      "书": 1415,
      "乱": 1416,
      "乳": 1417,
      "亀": 1418,
      "亂": 1419,
      "了": 1420,
      "予": 1421,
      "争": 1422,
      "事": 1423,
      "二": 1424,
      "于": 1425,
      "云": 1426,
      "互": 1427,
      "五": 1428,
      "井": 1429,
      "亚": 1430,
      "些": 1431,
      "亜": 1432,
      "亞": 1433,
      "亡": 1434,
      "交": 1435,
      "亦": 1436,
      "产": 1437,
      "亨": 1438,
      "享": 1439,
      "京": 1440,
      "亭": 1441,
      "亮": 1442,
      "人": 1443,
      "亿": 1444,
      "仁": 1445,
      "仆": 1446,
      "今": 1447,
      "介": 1448,
      "仍": 1449,
      "仏": 1450,
      "仓": 1451,
      "仔": 1452,
      "仕": 1453,
      "他": 1454,
      "仗": 1455,
      "付": 1456,
      "仙": 1457,
      "代": 1458,
      "令": 1459,
      "以": 1460,
      "们": 1461,
      "仮": 1462,
      "仲": 1463,
      "件": 1464,
      "任": 1465,
      "份": 1466,
      "仿": 1467,
      "企": 1468,
      "伊": 1469,
      "伏": 1470,
      "伐": 1471,
      "休": 1472,
      "众": 1473,
      "优": 1474,
      "会": 1475,
      "伝": 1476,
      "伟": 1477,
      "传": 1478,
      "伯": 1479,
      "估": 1480,
      "伴": 1481,
      "伸": 1482,
      "似": 1483,
      "佃": 1484,
      "佈": 1485,
      "位": 1486,
      "住": 1487,
      "佐": 1488,
      "佑": 1489,
      "体": 1490,
      "佔": 1491,
      "何": 1492,
      "余": 1493,
      "佛": 1494,
      "作": 1495,
      "你": 1496,
      "佢": 1497,
      "佩": 1498,
      "佬": 1499,
      "佳": 1500,
      "併": 1501,
      "佶": 1502,
      "使": 1503,
      "侅": 1504,
      "來": 1505,
      "例": 1506,
      "侍": 1507,
      "侘": 1508,
      "供": 1509,
      "依": 1510,
      "侠": 1511,
      "価": 1512,
      "侨": 1513,
      "侬": 1514,
      "侯": 1515,
      "便": 1516,
      "係": 1517,
      "俄": 1518,
      "俊": 1519,
      "俗": 1520,
      "保": 1521,
      "信": 1522,
      "俣": 1523,
      "修": 1524,
      "俯": 1525,
      "俺": 1526,
      "倉": 1527,
      "個": 1528,
      "倍": 1529,
      "們": 1530,
      "候": 1531,
      "値": 1532,
      "倪": 1533,
      "倫": 1534,
      "倭": 1535,
      "倶": 1536,
      "值": 1537,
      "倾": 1538,
      "偃": 1539,
      "假": 1540,
      "偉": 1541,
      "偏": 1542,
      "做": 1543,
      "停": 1544,
      "健": 1545,
      "偵": 1546,
      "偶": 1547,
      "傑": 1548,
      "傘": 1549,
      "備": 1550,
      "傣": 1551,
      "催": 1552,
      "傳": 1553,
      "傷": 1554,
      "傾": 1555,
      "像": 1556,
      "僑": 1557,
      "僕": 1558,
      "僧": 1559,
      "儀": 1560,
      "億": 1561,
      "儒": 1562,
      "儚": 1563,
      "優": 1564,
      "儼": 1565,
      "儿": 1566,
      "元": 1567,
      "兄": 1568,
      "兆": 1569,
      "先": 1570,
      "光": 1571,
      "克": 1572,
      "兌": 1573,
      "免": 1574,
      "児": 1575,
      "兒": 1576,
      "兔": 1577,
      "党": 1578,
      "兜": 1579,
      "入": 1580,
      "內": 1581,
      "全": 1582,
      "兩": 1583,
      "八": 1584,
      "公": 1585,
      "六": 1586,
      "兰": 1587,
      "共": 1588,
      "关": 1589,
      "兴": 1590,
      "兵": 1591,
      "其": 1592,
      "具": 1593,
      "典": 1594,
      "兼": 1595,
      "兽": 1596,
      "内": 1597,
      "円": 1598,
      "冉": 1599,
      "冊": 1600,
      "再": 1601,
      "冒": 1602,
      "写": 1603,
      "军": 1604,
      "冠": 1605,
      "冤": 1606,
      "冥": 1607,
      "冬": 1608,
      "冲": 1609,
      "决": 1610,
      "况": 1611,
      "冷": 1612,
      "凄": 1613,
      "准": 1614,
      "凌": 1615,
      "凛": 1616,
      "凡": 1617,
      "凤": 1618,
      "処": 1619,
      "凪": 1620,
      "凯": 1621,
      "凰": 1622,
      "凱": 1623,
      "出": 1624,
      "击": 1625,
      "函": 1626,
      "刀": 1627,
      "刃": 1628,
      "分": 1629,
      "刊": 1630,
      "刑": 1631,
      "划": 1632,
      "列": 1633,
      "刘": 1634,
      "刚": 1635,
      "创": 1636,
      "初": 1637,
      "判": 1638,
      "別": 1639,
      "利": 1640,
      "刪": 1641,
      "别": 1642,
      "到": 1643,
      "制": 1644,
      "刷": 1645,
      "券": 1646,
      "則": 1647,
      "前": 1648,
      "剑": 1649,
      "剛": 1650,
      "剣": 1651,
      "剧": 1652,
      "剩": 1653,
      "副": 1654,
      "創": 1655,
      "劃": 1656,
      "劇": 1657,
      "劉": 1658,
      "劍": 1659,
      "力": 1660,
      "办": 1661,
      "功": 1662,
      "加": 1663,
      "务": 1664,
      "劣": 1665,
      "动": 1666,
      "助": 1667,
      "劳": 1668,
      "労": 1669,
      "効": 1670,
      "勅": 1671,
      "動": 1672,
      "勘": 1673,
      "務": 1674,
      "勝": 1675,
      "勞": 1676,
      "勢": 1677,
      "勲": 1678,
      "勳": 1679,
      "勾": 1680,
      "勿": 1681,
      "匂": 1682,
      "包": 1683,
      "化": 1684,
      "北": 1685,
      "匙": 1686,
      "匠": 1687,
      "匡": 1688,
      "区": 1689,
      "医": 1690,
      "區": 1691,
      "十": 1692,
      "千": 1693,
      "升": 1694,
      "午": 1695,
      "卉": 1696,
      "半": 1697,
      "卍": 1698,
      "华": 1699,
      "协": 1700,
      "卑": 1701,
      "卓": 1702,
      "協": 1703,
      "单": 1704,
      "卖": 1705,
      "南": 1706,
      "単": 1707,
      "博": 1708,
      "占": 1709,
      "卡": 1710,
      "卦": 1711,
      "卫": 1712,
      "印": 1713,
      "危": 1714,
      "却": 1715,
      "卿": 1716,
      "厅": 1717,
      "厚": 1718,
      "原": 1719,
      "厦": 1720,
      "厳": 1721,
      "去": 1722,
      "县": 1723,
      "参": 1724,
      "參": 1725,
      "又": 1726,
      "叉": 1727,
      "及": 1728,
      "友": 1729,
      "双": 1730,
      "反": 1731,
      "収": 1732,
      "发": 1733,
      "叔": 1734,
      "取": 1735,
      "受": 1736,
      "变": 1737,
      "叡": 1738,
      "口": 1739,
      "古": 1740,
      "句": 1741,
      "叩": 1742,
      "只": 1743,
      "叫": 1744,
      "召": 1745,
      "可": 1746,
      "台": 1747,
      "史": 1748,
      "右": 1749,
      "叶": 1750,
      "号": 1751,
      "司": 1752,
      "吃": 1753,
      "各": 1754,
      "合": 1755,
      "吉": 1756,
      "吊": 1757,
      "同": 1758,
      "名": 1759,
      "后": 1760,
      "吏": 1761,
      "吐": 1762,
      "向": 1763,
      "吕": 1764,
      "吗": 1765,
      "君": 1766,
      "否": 1767,
      "含": 1768,
      "吭": 1769,
      "吳": 1770,
      "吴": 1771,
      "吸": 1772,
      "吹": 1773,
      "吻": 1774,
      "吾": 1775,
      "呂": 1776,
      "呃": 1777,
      "呉": 1778,
      "告": 1779,
      "呎": 1780,
      "员": 1781,
      "周": 1782,
      "味": 1783,
      "呼": 1784,
      "命": 1785,
      "和": 1786,
      "咕": 1787,
      "咖": 1788,
      "咲": 1789,
      "哀": 1790,
      "品": 1791,
      "哈": 1792,
      "哉": 1793,
      "哋": 1794,
      "响": 1795,
      "員": 1796,
      "哪": 1797,
      "哭": 1798,
      "唆": 1799,
      "唐": 1800,
      "唔": 1801,
      "售": 1802,
      "唯": 1803,
      "唱": 1804,
      "商": 1805,
      "問": 1806,
      "啓": 1807,
      "啟": 1808,
      "啼": 1809,
      "善": 1810,
      "喆": 1811,
      "喇": 1812,
      "喋": 1813,
      "喜": 1814,
      "喫": 1815,
      "單": 1816,
      "喰": 1817,
      "営": 1818,
      "嗇": 1819,
      "嗟": 1820,
      "嗣": 1821,
      "嗤": 1822,
      "嗶": 1823,
      "嗹": 1824,
      "嘉": 1825,
      "嘢": 1826,
      "嘴": 1827,
      "噌": 1828,
      "器": 1829,
      "噴": 1830,
      "四": 1831,
      "回": 1832,
      "因": 1833,
      "团": 1834,
      "団": 1835,
      "园": 1836,
      "囮": 1837,
      "囯": 1838,
      "囲": 1839,
      "図": 1840,
      "围": 1841,
      "固": 1842,
      "国": 1843,
      "图": 1844,
      "國": 1845,
      "圏": 1846,
      "園": 1847,
      "圖": 1848,
      "團": 1849,
      "土": 1850,
      "在": 1851,
      "地": 1852,
      "场": 1853,
      "圾": 1854,
      "址": 1855,
      "坂": 1856,
      "均": 1857,
      "坊": 1858,
      "坎": 1859,
      "坏": 1860,
      "坐": 1861,
      "坡": 1862,
      "坤": 1863,
      "垂": 1864,
      "垃": 1865,
      "型": 1866,
      "垣": 1867,
      "埃": 1868,
      "城": 1869,
      "埙": 1870,
      "域": 1871,
      "執": 1872,
      "培": 1873,
      "基": 1874,
      "埼": 1875,
      "堀": 1876,
      "堂": 1877,
      "堅": 1878,
      "堡": 1879,
      "堤": 1880,
      "堪": 1881,
      "堯": 1882,
      "報": 1883,
      "場": 1884,
      "塔": 1885,
      "塗": 1886,
      "塘": 1887,
      "塚": 1888,
      "塞": 1889,
      "塩": 1890,
      "塵": 1891,
      "塾": 1892,
      "境": 1893,
      "墓": 1894,
      "増": 1895,
      "墙": 1896,
      "增": 1897,
      "壁": 1898,
      "壇": 1899,
      "壊": 1900,
      "壌": 1901,
      "壞": 1902,
      "士": 1903,
      "壬": 1904,
      "壮": 1905,
      "声": 1906,
      "壱": 1907,
      "売": 1908,
      "壽": 1909,
      "处": 1910,
      "备": 1911,
      "変": 1912,
      "复": 1913,
      "夏": 1914,
      "夕": 1915,
      "外": 1916,
      "夙": 1917,
      "多": 1918,
      "夜": 1919,
      "够": 1920,
      "夢": 1921,
      "大": 1922,
      "天": 1923,
      "太": 1924,
      "夫": 1925,
      "夭": 1926,
      "央": 1927,
      "失": 1928,
      "头": 1929,
      "夷": 1930,
      "夺": 1931,
      "奄": 1932,
      "奇": 1933,
      "奈": 1934,
      "奉": 1935,
      "奋": 1936,
      "奎": 1937,
      "奏": 1938,
      "奖": 1939,
      "奠": 1940,
      "奥": 1941,
      "奪": 1942,
      "女": 1943,
      "奴": 1944,
      "她": 1945,
      "好": 1946,
      "如": 1947,
      "妃": 1948,
      "妆": 1949,
      "妇": 1950,
      "妈": 1951,
      "妖": 1952,
      "妙": 1953,
      "妮": 1954,
      "妹": 1955,
      "妻": 1956,
      "妾": 1957,
      "姆": 1958,
      "姉": 1959,
      "始": 1960,
      "姐": 1961,
      "姑": 1962,
      "姓": 1963,
      "委": 1964,
      "姗": 1965,
      "姚": 1966,
      "姜": 1967,
      "姦": 1968,
      "姫": 1969,
      "姬": 1970,
      "姻": 1971,
      "威": 1972,
      "娃": 1973,
      "娘": 1974,
      "娛": 1975,
      "娜": 1976,
      "娱": 1977,
      "婁": 1978,
      "婆": 1979,
      "婚": 1980,
      "婧": 1981,
      "婷": 1982,
      "媛": 1983,
      "媵": 1984,
      "嫁": 1985,
      "嫌": 1986,
      "嬌": 1987,
      "嬢": 1988,
      "嬪": 1989,
      "嬬": 1990,
      "子": 1991,
      "孔": 1992,
      "字": 1993,
      "存": 1994,
      "孚": 1995,
      "孝": 1996,
      "孟": 1997,
      "季": 1998,
      "孤": 1999,
      "学": 2000,
      "孩": 2001,
      "孫": 2002,
      "學": 2003,
      "宁": 2004,
      "宅": 2005,
      "宇": 2006,
      "守": 2007,
      "安": 2008,
      "宋": 2009,
      "完": 2010,
      "宏": 2011,
      "宗": 2012,
      "官": 2013,
      "宙": 2014,
      "定": 2015,
      "宜": 2016,
      "宝": 2017,
      "实": 2018,
      "実": 2019,
      "客": 2020,
      "宣": 2021,
      "室": 2022,
      "宪": 2023,
      "宫": 2024,
      "宮": 2025,
      "宰": 2026,
      "害": 2027,
      "家": 2028,
      "宸": 2029,
      "容": 2030,
      "宿": 2031,
      "寄": 2032,
      "密": 2033,
      "寇": 2034,
      "富": 2035,
      "寛": 2036,
      "察": 2037,
      "實": 2038,
      "寧": 2039,
      "審": 2040,
      "寬": 2041,
      "对": 2042,
      "寺": 2043,
      "导": 2044,
      "対": 2045,
      "寿": 2046,
      "封": 2047,
      "専": 2048,
      "射": 2049,
      "将": 2050,
      "將": 2051,
      "專": 2052,
      "尊": 2053,
      "尋": 2054,
      "導": 2055,
      "小": 2056,
      "少": 2057,
      "尔": 2058,
      "尖": 2059,
      "尙": 2060,
      "尚": 2061,
      "尹": 2062,
      "尺": 2063,
      "尻": 2064,
      "尼": 2065,
      "尽": 2066,
      "尾": 2067,
      "局": 2068,
      "层": 2069,
      "屄": 2070,
      "居": 2071,
      "届": 2072,
      "屋": 2073,
      "屏": 2074,
      "屑": 2075,
      "展": 2076,
      "属": 2077,
      "履": 2078,
      "屬": 2079,
      "山": 2080,
      "岁": 2081,
      "岐": 2082,
      "岗": 2083,
      "岡": 2084,
      "岩": 2085,
      "岬": 2086,
      "岳": 2087,
      "岷": 2088,
      "岸": 2089,
      "峠": 2090,
      "峡": 2091,
      "峦": 2092,
      "峰": 2093,
      "峴": 2094,
      "島": 2095,
      "崇": 2096,
      "崎": 2097,
      "崔": 2098,
      "崩": 2099,
      "嵐": 2100,
      "嶄": 2101,
      "嶋": 2102,
      "嶺": 2103,
      "嶼": 2104,
      "嶽": 2105,
      "巖": 2106,
      "川": 2107,
      "州": 2108,
      "巡": 2109,
      "工": 2110,
      "左": 2111,
      "巧": 2112,
      "巨": 2113,
      "巫": 2114,
      "差": 2115,
      "己": 2116,
      "已": 2117,
      "巳": 2118,
      "巴": 2119,
      "巻": 2120,
      "巽": 2121,
      "巾": 2122,
      "市": 2123,
      "布": 2124,
      "帅": 2125,
      "师": 2126,
      "希": 2127,
      "帖": 2128,
      "帝": 2129,
      "帥": 2130,
      "带": 2131,
      "師": 2132,
      "席": 2133,
      "帮": 2134,
      "帯": 2135,
      "帰": 2136,
      "帳": 2137,
      "帶": 2138,
      "常": 2139,
      "帽": 2140,
      "幅": 2141,
      "幌": 2142,
      "幕": 2143,
      "幡": 2144,
      "幣": 2145,
      "干": 2146,
      "平": 2147,
      "年": 2148,
      "并": 2149,
      "幸": 2150,
      "幹": 2151,
      "幻": 2152,
      "幽": 2153,
      "广": 2154,
      "庁": 2155,
      "広": 2156,
      "庄": 2157,
      "庆": 2158,
      "庇": 2159,
      "序": 2160,
      "应": 2161,
      "底": 2162,
      "店": 2163,
      "庙": 2164,
      "府": 2165,
      "度": 2166,
      "座": 2167,
      "庫": 2168,
      "庭": 2169,
      "庵": 2170,
      "康": 2171,
      "廈": 2172,
      "廊": 2173,
      "廓": 2174,
      "廖": 2175,
      "廟": 2176,
      "廠": 2177,
      "廣": 2178,
      "廬": 2179,
      "廳": 2180,
      "延": 2181,
      "廷": 2182,
      "建": 2183,
      "开": 2184,
      "弁": 2185,
      "弃": 2186,
      "式": 2187,
      "弐": 2188,
      "弓": 2189,
      "引": 2190,
      "弘": 2191,
      "弟": 2192,
      "张": 2193,
      "弥": 2194,
      "弦": 2195,
      "弱": 2196,
      "張": 2197,
      "強": 2198,
      "强": 2199,
      "弼": 2200,
      "弾": 2201,
      "彌": 2202,
      "归": 2203,
      "当": 2204,
      "录": 2205,
      "彗": 2206,
      "彙": 2207,
      "彡": 2208,
      "形": 2209,
      "彤": 2210,
      "彦": 2211,
      "彬": 2212,
      "彭": 2213,
      "彰": 2214,
      "影": 2215,
      "役": 2216,
      "彼": 2217,
      "往": 2218,
      "征": 2219,
      "径": 2220,
      "待": 2221,
      "律": 2222,
      "後": 2223,
      "徒": 2224,
      "得": 2225,
      "御": 2226,
      "復": 2227,
      "循": 2228,
      "微": 2229,
      "徳": 2230,
      "徵": 2231,
      "德": 2232,
      "徹": 2233,
      "徽": 2234,
      "心": 2235,
      "必": 2236,
      "忍": 2237,
      "忐": 2238,
      "忑": 2239,
      "志": 2240,
      "忘": 2241,
      "応": 2242,
      "忠": 2243,
      "忧": 2244,
      "快": 2245,
      "念": 2246,
      "忽": 2247,
      "怎": 2248,
      "怒": 2249,
      "怖": 2250,
      "思": 2251,
      "怡": 2252,
      "怤": 2253,
      "急": 2254,
      "性": 2255,
      "怪": 2256,
      "总": 2257,
      "恄": 2258,
      "恆": 2259,
      "恋": 2260,
      "恐": 2261,
      "恒": 2262,
      "恢": 2263,
      "恩": 2264,
      "恭": 2265,
      "息": 2266,
      "恵": 2267,
      "悍": 2268,
      "悔": 2269,
      "悟": 2270,
      "悠": 2271,
      "患": 2272,
      "悦": 2273,
      "您": 2274,
      "悩": 2275,
      "悪": 2276,
      "悲": 2277,
      "情": 2278,
      "惑": 2279,
      "惕": 2280,
      "惜": 2281,
      "惠": 2282,
      "惡": 2283,
      "惯": 2284,
      "想": 2285,
      "愈": 2286,
      "意": 2287,
      "愚": 2288,
      "愛": 2289,
      "感": 2290,
      "愿": 2291,
      "慈": 2292,
      "態": 2293,
      "慣": 2294,
      "慧": 2295,
      "慳": 2296,
      "慶": 2297,
      "憂": 2298,
      "憐": 2299,
      "憑": 2300,
      "憩": 2301,
      "憲": 2302,
      "憶": 2303,
      "懂": 2304,
      "應": 2305,
      "懷": 2306,
      "懸": 2307,
      "懿": 2308,
      "戀": 2309,
      "戈": 2310,
      "戏": 2311,
      "成": 2312,
      "我": 2313,
      "戒": 2314,
      "或": 2315,
      "战": 2316,
      "戦": 2317,
      "戯": 2318,
      "戰": 2319,
      "戴": 2320,
      "戶": 2321,
      "戸": 2322,
      "戻": 2323,
      "房": 2324,
      "所": 2325,
      "扇": 2326,
      "手": 2327,
      "才": 2328,
      "扎": 2329,
      "扒": 2330,
      "打": 2331,
      "払": 2332,
      "托": 2333,
      "扫": 2334,
      "扬": 2335,
      "扶": 2336,
      "找": 2337,
      "承": 2338,
      "技": 2339,
      "抄": 2340,
      "把": 2341,
      "抓": 2342,
      "投": 2343,
      "折": 2344,
      "抜": 2345,
      "护": 2346,
      "报": 2347,
      "披": 2348,
      "抱": 2349,
      "抹": 2350,
      "拂": 2351,
      "拉": 2352,
      "拍": 2353,
      "拏": 2354,
      "拒": 2355,
      "拓": 2356,
      "拜": 2357,
      "拟": 2358,
      "拯": 2359,
      "拳": 2360,
      "拶": 2361,
      "拾": 2362,
      "持": 2363,
      "指": 2364,
      "挑": 2365,
      "挙": 2366,
      "挡": 2367,
      "挨": 2368,
      "振": 2369,
      "挺": 2370,
      "挽": 2371,
      "捕": 2372,
      "捜": 2373,
      "捨": 2374,
      "据": 2375,
      "捲": 2376,
      "掃": 2377,
      "授": 2378,
      "掌": 2379,
      "排": 2380,
      "掘": 2381,
      "掛": 2382,
      "探": 2383,
      "接": 2384,
      "控": 2385,
      "推": 2386,
      "掲": 2387,
      "描": 2388,
      "提": 2389,
      "揚": 2390,
      "握": 2391,
      "揭": 2392,
      "揮": 2393,
      "援": 2394,
      "揺": 2395,
      "揽": 2396,
      "搖": 2397,
      "搜": 2398,
      "搬": 2399,
      "搭": 2400,
      "携": 2401,
      "摂": 2402,
      "摇": 2403,
      "摘": 2404,
      "摩": 2405,
      "撃": 2406,
      "撒": 2407,
      "撤": 2408,
      "撫": 2409,
      "播": 2410,
      "撰": 2411,
      "撲": 2412,
      "撻": 2413,
      "擊": 2414,
      "操": 2415,
      "擎": 2416,
      "支": 2417,
      "收": 2418,
      "改": 2419,
      "攻": 2420,
      "放": 2421,
      "政": 2422,
      "故": 2423,
      "救": 2424,
      "敗": 2425,
      "教": 2426,
      "敢": 2427,
      "敦": 2428,
      "敬": 2429,
      "数": 2430,
      "整": 2431,
      "敵": 2432,
      "敷": 2433,
      "文": 2434,
      "斉": 2435,
      "斎": 2436,
      "斗": 2437,
      "料": 2438,
      "斜": 2439,
      "斩": 2440,
      "斬": 2441,
      "断": 2442,
      "斯": 2443,
      "新": 2444,
      "斷": 2445,
      "方": 2446,
      "於": 2447,
      "施": 2448,
      "旅": 2449,
      "旋": 2450,
      "族": 2451,
      "旗": 2452,
      "无": 2453,
      "日": 2454,
      "旦": 2455,
      "旧": 2456,
      "早": 2457,
      "旬": 2458,
      "旭": 2459,
      "时": 2460,
      "旺": 2461,
      "昆": 2462,
      "昇": 2463,
      "昊": 2464,
      "昌": 2465,
      "明": 2466,
      "昏": 2467,
      "易": 2468,
      "星": 2469,
      "映": 2470,
      "春": 2471,
      "昭": 2472,
      "是": 2473,
      "時": 2474,
      "晃": 2475,
      "晉": 2476,
      "晋": 2477,
      "晏": 2478,
      "晓": 2479,
      "晗": 2480,
      "晚": 2481,
      "晨": 2482,
      "普": 2483,
      "景": 2484,
      "晴": 2485,
      "晶": 2486,
      "智": 2487,
      "暁": 2488,
      "暂": 2489,
      "暑": 2490,
      "暖": 2491,
      "暗": 2492,
      "暦": 2493,
      "暫": 2494,
      "暮": 2495,
      "暴": 2496,
      "曇": 2497,
      "曉": 2498,
      "曙": 2499,
      "曜": 2500,
      "曝": 2501,
      "曦": 2502,
      "曰": 2503,
      "曲": 2504,
      "更": 2505,
      "書": 2506,
      "曹": 2507,
      "曼": 2508,
      "曽": 2509,
      "替": 2510,
      "最": 2511,
      "會": 2512,
      "月": 2513,
      "有": 2514,
      "朋": 2515,
      "服": 2516,
      "望": 2517,
      "朝": 2518,
      "期": 2519,
      "朦": 2520,
      "朧": 2521,
      "木": 2522,
      "未": 2523,
      "末": 2524,
      "本": 2525,
      "札": 2526,
      "术": 2527,
      "朱": 2528,
      "朴": 2529,
      "朵": 2530,
      "机": 2531,
      "杀": 2532,
      "权": 2533,
      "杉": 2534,
      "李": 2535,
      "杏": 2536,
      "村": 2537,
      "杜": 2538,
      "杞": 2539,
      "束": 2540,
      "条": 2541,
      "来": 2542,
      "杨": 2543,
      "杯": 2544,
      "杰": 2545,
      "東": 2546,
      "杵": 2547,
      "松": 2548,
      "板": 2549,
      "析": 2550,
      "枕": 2551,
      "林": 2552,
      "枚": 2553,
      "果": 2554,
      "枝": 2555,
      "枢": 2556,
      "架": 2557,
      "柊": 2558,
      "柏": 2559,
      "染": 2560,
      "柔": 2561,
      "查": 2562,
      "柯": 2563,
      "柱": 2564,
      "柳": 2565,
      "柴": 2566,
      "査": 2567,
      "栄": 2568,
      "栋": 2569,
      "栗": 2570,
      "栞": 2571,
      "校": 2572,
      "栩": 2573,
      "株": 2574,
      "样": 2575,
      "核": 2576,
      "根": 2577,
      "格": 2578,
      "桂": 2579,
      "桃": 2580,
      "桌": 2581,
      "桐": 2582,
      "桑": 2583,
      "桓": 2584,
      "桜": 2585,
      "档": 2586,
      "桥": 2587,
      "桧": 2588,
      "桶": 2589,
      "梁": 2590,
      "梅": 2591,
      "梓": 2592,
      "條": 2593,
      "梦": 2594,
      "梨": 2595,
      "梵": 2596,
      "梶": 2597,
      "棋": 2598,
      "棒": 2599,
      "棟": 2600,
      "森": 2601,
      "棺": 2602,
      "植": 2603,
      "椎": 2604,
      "検": 2605,
      "椿": 2606,
      "楊": 2607,
      "楔": 2608,
      "楚": 2609,
      "業": 2610,
      "極": 2611,
      "楼": 2612,
      "楽": 2613,
      "概": 2614,
      "榜": 2615,
      "榮": 2616,
      "構": 2617,
      "槍": 2618,
      "様": 2619,
      "樂": 2620,
      "標": 2621,
      "模": 2622,
      "樨": 2623,
      "権": 2624,
      "横": 2625,
      "樹": 2626,
      "樺": 2627,
      "橋": 2628,
      "橘": 2629,
      "橙": 2630,
      "機": 2631,
      "橫": 2632,
      "橷": 2633,
      "檢": 2634,
      "櫃": 2635,
      "櫓": 2636,
      "櫟": 2637,
      "欅": 2638,
      "權": 2639,
      "次": 2640,
      "欢": 2641,
      "欣": 2642,
      "欧": 2643,
      "欲": 2644,
      "欽": 2645,
      "款": 2646,
      "歉": 2647,
      "歌": 2648,
      "歐": 2649,
      "歡": 2650,
      "止": 2651,
      "正": 2652,
      "此": 2653,
      "步": 2654,
      "武": 2655,
      "歩": 2656,
      "歯": 2657,
      "歲": 2658,
      "歳": 2659,
      "歴": 2660,
      "歷": 2661,
      "歸": 2662,
      "死": 2663,
      "歼": 2664,
      "殃": 2665,
      "殊": 2666,
      "残": 2667,
      "殘": 2668,
      "殲": 2669,
      "段": 2670,
      "殷": 2671,
      "殺": 2672,
      "殿": 2673,
      "毅": 2674,
      "毋": 2675,
      "母": 2676,
      "毎": 2677,
      "比": 2678,
      "毛": 2679,
      "毯": 2680,
      "氏": 2681,
      "民": 2682,
      "气": 2683,
      "気": 2684,
      "氣": 2685,
      "水": 2686,
      "氷": 2687,
      "永": 2688,
      "汁": 2689,
      "求": 2690,
      "汉": 2691,
      "汗": 2692,
      "汝": 2693,
      "江": 2694,
      "池": 2695,
      "決": 2696,
      "汽": 2697,
      "沃": 2698,
      "沇": 2699,
      "沉": 2700,
      "沒": 2701,
      "沖": 2702,
      "沙": 2703,
      "沛": 2704,
      "没": 2705,
      "沢": 2706,
      "沦": 2707,
      "河": 2708,
      "油": 2709,
      "治": 2710,
      "沼": 2711,
      "沿": 2712,
      "泉": 2713,
      "泊": 2714,
      "法": 2715,
      "波": 2716,
      "泣": 2717,
      "泥": 2718,
      "注": 2719,
      "泰": 2720,
      "泱": 2721,
      "泻": 2722,
      "泽": 2723,
      "洁": 2724,
      "洋": 2725,
      "洗": 2726,
      "洞": 2727,
      "津": 2728,
      "洪": 2729,
      "洲": 2730,
      "活": 2731,
      "派": 2732,
      "流": 2733,
      "浄": 2734,
      "浒": 2735,
      "浜": 2736,
      "浣": 2737,
      "浦": 2738,
      "浩": 2739,
      "浪": 2740,
      "浮": 2741,
      "浴": 2742,
      "海": 2743,
      "消": 2744,
      "涉": 2745,
      "涙": 2746,
      "涛": 2747,
      "涯": 2748,
      "涼": 2749,
      "淑": 2750,
      "淡": 2751,
      "淨": 2752,
      "深": 2753,
      "淳": 2754,
      "淵": 2755,
      "混": 2756,
      "添": 2757,
      "清": 2758,
      "済": 2759,
      "渉": 2760,
      "渊": 2761,
      "渕": 2762,
      "減": 2763,
      "渠": 2764,
      "渡": 2765,
      "渤": 2766,
      "渦": 2767,
      "温": 2768,
      "測": 2769,
      "港": 2770,
      "游": 2771,
      "渺": 2772,
      "湖": 2773,
      "湘": 2774,
      "湛": 2775,
      "湣": 2776,
      "湾": 2777,
      "満": 2778,
      "源": 2779,
      "準": 2780,
      "溜": 2781,
      "溢": 2782,
      "溫": 2783,
      "滅": 2784,
      "滇": 2785,
      "滑": 2786,
      "滚": 2787,
      "滝": 2788,
      "满": 2789,
      "滦": 2790,
      "滨": 2791,
      "滾": 2792,
      "滿": 2793,
      "漁": 2794,
      "漂": 2795,
      "漆": 2796,
      "漏": 2797,
      "演": 2798,
      "漢": 2799,
      "漣": 2800,
      "漪": 2801,
      "漫": 2802,
      "漳": 2803,
      "漿": 2804,
      "潔": 2805,
      "潘": 2806,
      "潜": 2807,
      "潟": 2808,
      "潮": 2809,
      "澤": 2810,
      "澪": 2811,
      "澳": 2812,
      "激": 2813,
      "濃": 2814,
      "濆": 2815,
      "濟": 2816,
      "濾": 2817,
      "瀆": 2818,
      "瀬": 2819,
      "灘": 2820,
      "灣": 2821,
      "火": 2822,
      "灰": 2823,
      "灵": 2824,
      "灼": 2825,
      "災": 2826,
      "炉": 2827,
      "炊": 2828,
      "炎": 2829,
      "炖": 2830,
      "炫": 2831,
      "炭": 2832,
      "点": 2833,
      "為": 2834,
      "烈": 2835,
      "烏": 2836,
      "烦": 2837,
      "热": 2838,
      "焉": 2839,
      "焔": 2840,
      "無": 2841,
      "焦": 2842,
      "然": 2843,
      "焼": 2844,
      "煊": 2845,
      "煙": 2846,
      "照": 2847,
      "煮": 2848,
      "熊": 2849,
      "熜": 2850,
      "熟": 2851,
      "熱": 2852,
      "熹": 2853,
      "燃": 2854,
      "燒": 2855,
      "燕": 2856,
      "燧": 2857,
      "爆": 2858,
      "爭": 2859,
      "爰": 2860,
      "爱": 2861,
      "爵": 2862,
      "父": 2863,
      "爺": 2864,
      "爽": 2865,
      "爾": 2866,
      "片": 2867,
      "版": 2868,
      "牌": 2869,
      "牙": 2870,
      "牛": 2871,
      "牟": 2872,
      "牢": 2873,
      "牧": 2874,
      "物": 2875,
      "牵": 2876,
      "特": 2877,
      "犬": 2878,
      "犯": 2879,
      "状": 2880,
      "狂": 2881,
      "狗": 2882,
      "狙": 2883,
      "狩": 2884,
      "独": 2885,
      "狭": 2886,
      "狼": 2887,
      "猛": 2888,
      "猪": 2889,
      "猫": 2890,
      "献": 2891,
      "猴": 2892,
      "猿": 2893,
      "獄": 2894,
      "獎": 2895,
      "獠": 2896,
      "獲": 2897,
      "獵": 2898,
      "玄": 2899,
      "率": 2900,
      "玉": 2901,
      "王": 2902,
      "环": 2903,
      "现": 2904,
      "玲": 2905,
      "珉": 2906,
      "珍": 2907,
      "珑": 2908,
      "珠": 2909,
      "班": 2910,
      "珲": 2911,
      "現": 2912,
      "球": 2913,
      "琅": 2914,
      "理": 2915,
      "琇": 2916,
      "琉": 2917,
      "琊": 2918,
      "琢": 2919,
      "琳": 2920,
      "琴": 2921,
      "琵": 2922,
      "琶": 2923,
      "瑋": 2924,
      "瑛": 2925,
      "瑞": 2926,
      "瑠": 2927,
      "瑤": 2928,
      "瑩": 2929,
      "瑷": 2930,
      "璃": 2931,
      "璧": 2932,
      "環": 2933,
      "瓊": 2934,
      "瓠": 2935,
      "甘": 2936,
      "甜": 2937,
      "生": 2938,
      "產": 2939,
      "産": 2940,
      "用": 2941,
      "甯": 2942,
      "田": 2943,
      "由": 2944,
      "甲": 2945,
      "申": 2946,
      "电": 2947,
      "男": 2948,
      "町": 2949,
      "画": 2950,
      "界": 2951,
      "畑": 2952,
      "留": 2953,
      "畠": 2954,
      "略": 2955,
      "番": 2956,
      "畫": 2957,
      "異": 2958,
      "當": 2959,
      "畿": 2960,
      "疆": 2961,
      "疏": 2962,
      "疑": 2963,
      "疗": 2964,
      "疸": 2965,
      "疾": 2966,
      "病": 2967,
      "症": 2968,
      "痊": 2969,
      "痕": 2970,
      "痛": 2971,
      "瘾": 2972,
      "癖": 2973,
      "癸": 2974,
      "発": 2975,
      "登": 2976,
      "發": 2977,
      "白": 2978,
      "百": 2979,
      "的": 2980,
      "皆": 2981,
      "皇": 2982,
      "皮": 2983,
      "盂": 2984,
      "盃": 2985,
      "盆": 2986,
      "益": 2987,
      "盘": 2988,
      "盛": 2989,
      "盟": 2990,
      "監": 2991,
      "盤": 2992,
      "盧": 2993,
      "目": 2994,
      "直": 2995,
      "相": 2996,
      "盾": 2997,
      "省": 2998,
      "県": 2999,
      "眞": 3000,
      "真": 3001,
      "眠": 3002,
      "眸": 3003,
      "眼": 3004,
      "着": 3005,
      "睇": 3006,
      "睛": 3007,
      "督": 3008,
      "睿": 3009,
      "瞬": 3010,
      "瞰": 3011,
      "瞳": 3012,
      "瞻": 3013,
      "矢": 3014,
      "知": 3015,
      "短": 3016,
      "石": 3017,
      "矿": 3018,
      "码": 3019,
      "砂": 3020,
      "砒": 3021,
      "研": 3022,
      "砕": 3023,
      "砲": 3024,
      "破": 3025,
      "硝": 3026,
      "硫": 3027,
      "硬": 3028,
      "确": 3029,
      "碁": 3030,
      "碗": 3031,
      "碟": 3032,
      "碧": 3033,
      "確": 3034,
      "碾": 3035,
      "磊": 3036,
      "磐": 3037,
      "磨": 3038,
      "礎": 3039,
      "礫": 3040,
      "示": 3041,
      "礼": 3042,
      "社": 3043,
      "祀": 3044,
      "祇": 3045,
      "祈": 3046,
      "祉": 3047,
      "祎": 3048,
      "祓": 3049,
      "祖": 3050,
      "祚": 3051,
      "神": 3052,
      "祠": 3053,
      "祢": 3054,
      "祥": 3055,
      "票": 3056,
      "祭": 3057,
      "祿": 3058,
      "禁": 3059,
      "禄": 3060,
      "禅": 3061,
      "禊": 3062,
      "禎": 3063,
      "福": 3064,
      "禮": 3065,
      "禹": 3066,
      "离": 3067,
      "禾": 3068,
      "秀": 3069,
      "私": 3070,
      "秋": 3071,
      "科": 3072,
      "秒": 3073,
      "秘": 3074,
      "秦": 3075,
      "秩": 3076,
      "秭": 3077,
      "称": 3078,
      "移": 3079,
      "稀": 3080,
      "程": 3081,
      "税": 3082,
      "稔": 3083,
      "稱": 3084,
      "稲": 3085,
      "稽": 3086,
      "穂": 3087,
      "積": 3088,
      "穏": 3089,
      "穗": 3090,
      "穴": 3091,
      "究": 3092,
      "空": 3093,
      "突": 3094,
      "窓": 3095,
      "窗": 3096,
      "窮": 3097,
      "立": 3098,
      "站": 3099,
      "竜": 3100,
      "章": 3101,
      "童": 3102,
      "端": 3103,
      "竹": 3104,
      "笑": 3105,
      "笠": 3106,
      "符": 3107,
      "第": 3108,
      "笹": 3109,
      "筆": 3110,
      "等": 3111,
      "筑": 3112,
      "策": 3113,
      "筷": 3114,
      "筹": 3115,
      "签": 3116,
      "简": 3117,
      "箇": 3118,
      "箒": 3119,
      "箕": 3120,
      "算": 3121,
      "管": 3122,
      "箭": 3123,
      "節": 3124,
      "範": 3125,
      "篇": 3126,
      "篠": 3127,
      "篤": 3128,
      "簡": 3129,
      "簽": 3130,
      "簿": 3131,
      "籍": 3132,
      "米": 3133,
      "类": 3134,
      "粉": 3135,
      "粋": 3136,
      "粤": 3137,
      "精": 3138,
      "糖": 3139,
      "糸": 3140,
      "系": 3141,
      "紀": 3142,
      "約": 3143,
      "紅": 3144,
      "紊": 3145,
      "紋": 3146,
      "納": 3147,
      "純": 3148,
      "紙": 3149,
      "級": 3150,
      "紛": 3151,
      "素": 3152,
      "索": 3153,
      "紫": 3154,
      "累": 3155,
      "細": 3156,
      "紳": 3157,
      "紹": 3158,
      "紺": 3159,
      "終": 3160,
      "組": 3161,
      "絆": 3162,
      "経": 3163,
      "結": 3164,
      "絡": 3165,
      "給": 3166,
      "統": 3167,
      "絵": 3168,
      "絶": 3169,
      "綏": 3170,
      "經": 3171,
      "継": 3172,
      "続": 3173,
      "綠": 3174,
      "綫": 3175,
      "維": 3176,
      "綱": 3177,
      "綺": 3178,
      "綾": 3179,
      "綿": 3180,
      "緋": 3181,
      "総": 3182,
      "緒": 3183,
      "線": 3184,
      "締": 3185,
      "編": 3186,
      "練": 3187,
      "縁": 3188,
      "縄": 3189,
      "縛": 3190,
      "縣": 3191,
      "縫": 3192,
      "總": 3193,
      "繁": 3194,
      "織": 3195,
      "繕": 3196,
      "繞": 3197,
      "繰": 3198,
      "繼": 3199,
      "續": 3200,
      "纘": 3201,
      "纠": 3202,
      "红": 3203,
      "约": 3204,
      "级": 3205,
      "纪": 3206,
      "纲": 3207,
      "纾": 3208,
      "组": 3209,
      "织": 3210,
      "终": 3211,
      "绎": 3212,
      "经": 3213,
      "结": 3214,
      "络": 3215,
      "绝": 3216,
      "统": 3217,
      "续": 3218,
      "维": 3219,
      "绽": 3220,
      "绿": 3221,
      "缅": 3222,
      "缓": 3223,
      "编": 3224,
      "缘": 3225,
      "缶": 3226,
      "缺": 3227,
      "缽": 3228,
      "网": 3229,
      "罔": 3230,
      "罕": 3231,
      "罗": 3232,
      "罪": 3233,
      "置": 3234,
      "署": 3235,
      "罵": 3236,
      "羅": 3237,
      "羊": 3238,
      "羌": 3239,
      "美": 3240,
      "群": 3241,
      "義": 3242,
      "羲": 3243,
      "羽": 3244,
      "習": 3245,
      "翔": 3246,
      "翰": 3247,
      "翻": 3248,
      "翼": 3249,
      "耀": 3250,
      "老": 3251,
      "考": 3252,
      "者": 3253,
      "而": 3254,
      "耳": 3255,
      "耶": 3256,
      "耽": 3257,
      "耿": 3258,
      "职": 3259,
      "联": 3260,
      "聖": 3261,
      "聚": 3262,
      "聞": 3263,
      "聡": 3264,
      "聯": 3265,
      "聰": 3266,
      "聲": 3267,
      "聴": 3268,
      "聶": 3269,
      "職": 3270,
      "肃": 3271,
      "肆": 3272,
      "肇": 3273,
      "肉": 3274,
      "肏": 3275,
      "肖": 3276,
      "肝": 3277,
      "股": 3278,
      "肥": 3279,
      "肯": 3280,
      "育": 3281,
      "肺": 3282,
      "胃": 3283,
      "背": 3284,
      "胎": 3285,
      "胜": 3286,
      "胞": 3287,
      "胡": 3288,
      "胧": 3289,
      "能": 3290,
      "脇": 3291,
      "脈": 3292,
      "脑": 3293,
      "脚": 3294,
      "脫": 3295,
      "脱": 3296,
      "腕": 3297,
      "腥": 3298,
      "腳": 3299,
      "腹": 3300,
      "膚": 3301,
      "膺": 3302,
      "臣": 3303,
      "臨": 3304,
      "自": 3305,
      "至": 3306,
      "致": 3307,
      "臺": 3308,
      "臼": 3309,
      "與": 3310,
      "興": 3311,
      "舉": 3312,
      "舊": 3313,
      "舎": 3314,
      "舗": 3315,
      "舘": 3316,
      "舞": 3317,
      "舟": 3318,
      "航": 3319,
      "般": 3320,
      "舵": 3321,
      "舶": 3322,
      "船": 3323,
      "艦": 3324,
      "艮": 3325,
      "良": 3326,
      "色": 3327,
      "艶": 3328,
      "艺": 3329,
      "艾": 3330,
      "节": 3331,
      "芒": 3332,
      "芝": 3333,
      "芭": 3334,
      "花": 3335,
      "芳": 3336,
      "芸": 3337,
      "芽": 3338,
      "苏": 3339,
      "苑": 3340,
      "苓": 3341,
      "苔": 3342,
      "苗": 3343,
      "若": 3344,
      "苦": 3345,
      "英": 3346,
      "茂": 3347,
      "茜": 3348,
      "茨": 3349,
      "茵": 3350,
      "茶": 3351,
      "草": 3352,
      "荘": 3353,
      "荣": 3354,
      "荷": 3355,
      "莉": 3356,
      "莊": 3357,
      "莎": 3358,
      "莫": 3359,
      "获": 3360,
      "菅": 3361,
      "菊": 3362,
      "菓": 3363,
      "菖": 3364,
      "菜": 3365,
      "華": 3366,
      "菱": 3367,
      "菲": 3368,
      "菴": 3369,
      "萃": 3370,
      "萌": 3371,
      "营": 3372,
      "萧": 3373,
      "萬": 3374,
      "萱": 3375,
      "落": 3376,
      "葉": 3377,
      "著": 3378,
      "葛": 3379,
      "葦": 3380,
      "葳": 3381,
      "蒙": 3382,
      "蒟": 3383,
      "蒲": 3384,
      "蒻": 3385,
      "蒼": 3386,
      "蓓": 3387,
      "蓝": 3388,
      "蓮": 3389,
      "蔡": 3390,
      "蔵": 3391,
      "蕃": 3392,
      "蕉": 3393,
      "蕎": 3394,
      "蕑": 3395,
      "蕭": 3396,
      "薄": 3397,
      "薇": 3398,
      "薔": 3399,
      "薛": 3400,
      "薩": 3401,
      "薬": 3402,
      "薯": 3403,
      "藍": 3404,
      "藏": 3405,
      "藝": 3406,
      "藤": 3407,
      "藩": 3408,
      "藻": 3409,
      "蘇": 3410,
      "虎": 3411,
      "虚": 3412,
      "虜": 3413,
      "虞": 3414,
      "號": 3415,
      "虢": 3416,
      "虹": 3417,
      "虾": 3418,
      "蚊": 3419,
      "蛉": 3420,
      "蛙": 3421,
      "蛮": 3422,
      "蜀": 3423,
      "蜂": 3424,
      "蜜": 3425,
      "蜻": 3426,
      "蝉": 3427,
      "蝦": 3428,
      "蝴": 3429,
      "蝶": 3430,
      "融": 3431,
      "蟲": 3432,
      "血": 3433,
      "衆": 3434,
      "行": 3435,
      "衍": 3436,
      "術": 3437,
      "衔": 3438,
      "街": 3439,
      "衛": 3440,
      "衝": 3441,
      "衡": 3442,
      "衢": 3443,
      "衣": 3444,
      "补": 3445,
      "表": 3446,
      "衲": 3447,
      "袁": 3448,
      "袅": 3449,
      "袋": 3450,
      "袖": 3451,
      "被": 3452,
      "裁": 3453,
      "裂": 3454,
      "裃": 3455,
      "装": 3456,
      "裏": 3457,
      "裕": 3458,
      "補": 3459,
      "裡": 3460,
      "裳": 3461,
      "裴": 3462,
      "製": 3463,
      "褆": 3464,
      "複": 3465,
      "褒": 3466,
      "襄": 3467,
      "襲": 3468,
      "西": 3469,
      "要": 3470,
      "覆": 3471,
      "見": 3472,
      "規": 3473,
      "視": 3474,
      "覧": 3475,
      "親": 3476,
      "観": 3477,
      "覽": 3478,
      "见": 3479,
      "观": 3480,
      "视": 3481,
      "角": 3482,
      "解": 3483,
      "触": 3484,
      "言": 3485,
      "訂": 3486,
      "計": 3487,
      "訊": 3488,
      "討": 3489,
      "訓": 3490,
      "託": 3491,
      "記": 3492,
      "訪": 3493,
      "設": 3494,
      "許": 3495,
      "訳": 3496,
      "訾": 3497,
      "評": 3498,
      "詞": 3499,
      "詠": 3500,
      "詢": 3501,
      "試": 3502,
      "詩": 3503,
      "詫": 3504,
      "詰": 3505,
      "話": 3506,
      "該": 3507,
      "詳": 3508,
      "詹": 3509,
      "誉": 3510,
      "誌": 3511,
      "認": 3512,
      "誓": 3513,
      "誕": 3514,
      "誘": 3515,
      "語": 3516,
      "誠": 3517,
      "說": 3518,
      "説": 3519,
      "読": 3520,
      "誰": 3521,
      "課": 3522,
      "調": 3523,
      "談": 3524,
      "諏": 3525,
      "論": 3526,
      "諡": 3527,
      "諭": 3528,
      "諮": 3529,
      "諱": 3530,
      "諸": 3531,
      "諾": 3532,
      "謀": 3533,
      "謎": 3534,
      "謙": 3535,
      "講": 3536,
      "謝": 3537,
      "謡": 3538,
      "謨": 3539,
      "謹": 3540,
      "證": 3541,
      "識": 3542,
      "譚": 3543,
      "警": 3544,
      "譬": 3545,
      "議": 3546,
      "護": 3547,
      "讀": 3548,
      "讃": 3549,
      "讐": 3550,
      "计": 3551,
      "认": 3552,
      "议": 3553,
      "记": 3554,
      "许": 3555,
      "论": 3556,
      "设": 3557,
      "访": 3558,
      "证": 3559,
      "评": 3560,
      "识": 3561,
      "译": 3562,
      "试": 3563,
      "诗": 3564,
      "话": 3565,
      "诞": 3566,
      "诠": 3567,
      "语": 3568,
      "误": 3569,
      "说": 3570,
      "诺": 3571,
      "调": 3572,
      "谎": 3573,
      "谢": 3574,
      "谭": 3575,
      "谷": 3576,
      "豁": 3577,
      "豆": 3578,
      "豊": 3579,
      "豐": 3580,
      "象": 3581,
      "豪": 3582,
      "貌": 3583,
      "貓": 3584,
      "貞": 3585,
      "貧": 3586,
      "貨": 3587,
      "販": 3588,
      "貫": 3589,
      "責": 3590,
      "貴": 3591,
      "費": 3592,
      "貿": 3593,
      "賀": 3594,
      "資": 3595,
      "賜": 3596,
      "賞": 3597,
      "賢": 3598,
      "購": 3599,
      "賽": 3600,
      "贊": 3601,
      "贏": 3602,
      "财": 3603,
      "贤": 3604,
      "质": 3605,
      "购": 3606,
      "贵": 3607,
      "贸": 3608,
      "贾": 3609,
      "资": 3610,
      "赏": 3611,
      "赛": 3612,
      "赤": 3613,
      "赦": 3614,
      "走": 3615,
      "赴": 3616,
      "赵": 3617,
      "起": 3618,
      "超": 3619,
      "越": 3620,
      "趙": 3621,
      "趣": 3622,
      "足": 3623,
      "趾": 3624,
      "跃": 3625,
      "跆": 3626,
      "跑": 3627,
      "距": 3628,
      "跟": 3629,
      "跡": 3630,
      "跨": 3631,
      "路": 3632,
      "跳": 3633,
      "踊": 3634,
      "踏": 3635,
      "踞": 3636,
      "踢": 3637,
      "蹄": 3638,
      "蹴": 3639,
      "躍": 3640,
      "身": 3641,
      "躬": 3642,
      "車": 3643,
      "軌": 3644,
      "軍": 3645,
      "軒": 3646,
      "転": 3647,
      "軽": 3648,
      "載": 3649,
      "輔": 3650,
      "輝": 3651,
      "輩": 3652,
      "輪": 3653,
      "輯": 3654,
      "輸": 3655,
      "輿": 3656,
      "轄": 3657,
      "轅": 3658,
      "轟": 3659,
      "车": 3660,
      "轧": 3661,
      "轩": 3662,
      "转": 3663,
      "软": 3664,
      "轰": 3665,
      "载": 3666,
      "辅": 3667,
      "辉": 3668,
      "辞": 3669,
      "辟": 3670,
      "辣": 3671,
      "辭": 3672,
      "辰": 3673,
      "辱": 3674,
      "農": 3675,
      "边": 3676,
      "辺": 3677,
      "込": 3678,
      "辽": 3679,
      "达": 3680,
      "辿": 3681,
      "迁": 3682,
      "迅": 3683,
      "过": 3684,
      "迎": 3685,
      "运": 3686,
      "近": 3687,
      "返": 3688,
      "还": 3689,
      "这": 3690,
      "进": 3691,
      "违": 3692,
      "连": 3693,
      "迪": 3694,
      "迫": 3695,
      "迭": 3696,
      "述": 3697,
      "迷": 3698,
      "迹": 3699,
      "追": 3700,
      "退": 3701,
      "送": 3702,
      "逃": 3703,
      "逆": 3704,
      "选": 3705,
      "逐": 3706,
      "逗": 3707,
      "這": 3708,
      "通": 3709,
      "速": 3710,
      "造": 3711,
      "逢": 3712,
      "連": 3713,
      "週": 3714,
      "進": 3715,
      "逸": 3716,
      "遂": 3717,
      "遅": 3718,
      "遊": 3719,
      "運": 3720,
      "遍": 3721,
      "過": 3722,
      "道": 3723,
      "達": 3724,
      "違": 3725,
      "遗": 3726,
      "遠": 3727,
      "遣": 3728,
      "適": 3729,
      "遭": 3730,
      "遷": 3731,
      "選": 3732,
      "遺": 3733,
      "避": 3734,
      "還": 3735,
      "邊": 3736,
      "邏": 3737,
      "邑": 3738,
      "邓": 3739,
      "那": 3740,
      "邦": 3741,
      "邪": 3742,
      "邮": 3743,
      "邱": 3744,
      "邵": 3745,
      "郁": 3746,
      "郎": 3747,
      "郑": 3748,
      "郡": 3749,
      "部": 3750,
      "郭": 3751,
      "郵": 3752,
      "郷": 3753,
      "都": 3754,
      "鄉": 3755,
      "鄒": 3756,
      "鄕": 3757,
      "鄧": 3758,
      "鄭": 3759,
      "酉": 3760,
      "配": 3761,
      "酒": 3762,
      "醉": 3763,
      "醍": 3764,
      "醐": 3765,
      "醜": 3766,
      "醤": 3767,
      "釁": 3768,
      "釈": 3769,
      "释": 3770,
      "釋": 3771,
      "里": 3772,
      "重": 3773,
      "野": 3774,
      "量": 3775,
      "金": 3776,
      "釜": 3777,
      "針": 3778,
      "釣": 3779,
      "鈔": 3780,
      "鈞": 3781,
      "鈴": 3782,
      "鉄": 3783,
      "銀": 3784,
      "銃": 3785,
      "銅": 3786,
      "銕": 3787,
      "鋒": 3788,
      "鋸": 3789,
      "鋼": 3790,
      "錄": 3791,
      "錢": 3792,
      "錦": 3793,
      "錬": 3794,
      "録": 3795,
      "鍵": 3796,
      "鍾": 3797,
      "鎌": 3798,
      "鎚": 3799,
      "鎮": 3800,
      "鏞": 3801,
      "鏡": 3802,
      "鐘": 3803,
      "鐡": 3804,
      "鐵": 3805,
      "鑑": 3806,
      "鑫": 3807,
      "针": 3808,
      "钟": 3809,
      "钢": 3810,
      "钧": 3811,
      "铁": 3812,
      "银": 3813,
      "销": 3814,
      "锁": 3815,
      "锋": 3816,
      "错": 3817,
      "键": 3818,
      "锺": 3819,
      "镇": 3820,
      "長": 3821,
      "长": 3822,
      "門": 3823,
      "閃": 3824,
      "開": 3825,
      "間": 3826,
      "関": 3827,
      "閣": 3828,
      "閭": 3829,
      "閻": 3830,
      "闇": 3831,
      "闈": 3832,
      "闘": 3833,
      "關": 3834,
      "闪": 3835,
      "闭": 3836,
      "问": 3837,
      "间": 3838,
      "闺": 3839,
      "闻": 3840,
      "阐": 3841,
      "队": 3842,
      "阪": 3843,
      "阮": 3844,
      "防": 3845,
      "阵": 3846,
      "阻": 3847,
      "阿": 3848,
      "陁": 3849,
      "附": 3850,
      "际": 3851,
      "陆": 3852,
      "陈": 3853,
      "降": 3854,
      "限": 3855,
      "院": 3856,
      "陣": 3857,
      "除": 3858,
      "陰": 3859,
      "陳": 3860,
      "陵": 3861,
      "陷": 3862,
      "陸": 3863,
      "険": 3864,
      "陽": 3865,
      "隅": 3866,
      "隆": 3867,
      "隊": 3868,
      "隋": 3869,
      "階": 3870,
      "際": 3871,
      "障": 3872,
      "隠": 3873,
      "隨": 3874,
      "隼": 3875,
      "难": 3876,
      "雀": 3877,
      "雁": 3878,
      "雄": 3879,
      "雅": 3880,
      "集": 3881,
      "雌": 3882,
      "雑": 3883,
      "雙": 3884,
      "雜": 3885,
      "雞": 3886,
      "離": 3887,
      "難": 3888,
      "雨": 3889,
      "雪": 3890,
      "雫": 3891,
      "雲": 3892,
      "零": 3893,
      "雷": 3894,
      "電": 3895,
      "雾": 3896,
      "霆": 3897,
      "震": 3898,
      "霊": 3899,
      "霖": 3900,
      "霜": 3901,
      "霧": 3902,
      "露": 3903,
      "霸": 3904,
      "靑": 3905,
      "青": 3906,
      "靓": 3907,
      "靖": 3908,
      "静": 3909,
      "非": 3910,
      "靠": 3911,
      "面": 3912,
      "革": 3913,
      "靳": 3914,
      "靴": 3915,
      "鞋": 3916,
      "鞍": 3917,
      "鞑": 3918,
      "鞠": 3919,
      "韋": 3920,
      "韓": 3921,
      "韦": 3922,
      "韩": 3923,
      "音": 3924,
      "韵": 3925,
      "響": 3926,
      "頁": 3927,
      "頂": 3928,
      "順": 3929,
      "須": 3930,
      "頌": 3931,
      "預": 3932,
      "領": 3933,
      "頭": 3934,
      "頻": 3935,
      "頼": 3936,
      "題": 3937,
      "額": 3938,
      "顏": 3939,
      "顔": 3940,
      "顕": 3941,
      "願": 3942,
      "類": 3943,
      "顯": 3944,
      "页": 3945,
      "顶": 3946,
      "项": 3947,
      "顺": 3948,
      "颁": 3949,
      "颂": 3950,
      "预": 3951,
      "领": 3952,
      "频": 3953,
      "颖": 3954,
      "题": 3955,
      "颜": 3956,
      "额": 3957,
      "颠": 3958,
      "風": 3959,
      "飄": 3960,
      "风": 3961,
      "飛": 3962,
      "食": 3963,
      "飯": 3964,
      "飴": 3965,
      "養": 3966,
      "餐": 3967,
      "餠": 3968,
      "館": 3969,
      "饅": 3970,
      "饒": 3971,
      "饰": 3972,
      "馀": 3973,
      "首": 3974,
      "香": 3975,
      "馬": 3976,
      "馮": 3977,
      "駅": 3978,
      "駆": 3979,
      "駒": 3980,
      "駿": 3981,
      "騎": 3982,
      "験": 3983,
      "騫": 3984,
      "騰": 3985,
      "驛": 3986,
      "马": 3987,
      "驶": 3988,
      "驹": 3989,
      "驼": 3990,
      "驾": 3991,
      "骨": 3992,
      "高": 3993,
      "髙": 3994,
      "髪": 3995,
      "鬚": 3996,
      "鬥": 3997,
      "鬱": 3998,
      "鬲": 3999,
      "鬼": 4000,
      "魁": 4001,
      "魂": 4002,
      "魅": 4003,
      "魊": 4004,
      "魏": 4005,
      "魔": 4006,
      "魚": 4007,
      "魯": 4008,
      "鮑": 4009,
      "鮟": 4010,
      "鮮": 4011,
      "鯨": 4012,
      "鰯": 4013,
      "鰻": 4014,
      "鱼": 4015,
      "鱿": 4016,
      "鲁": 4017,
      "鲇": 4018,
      "鲔": 4019,
      "鲵": 4020,
      "鳥": 4021,
      "鳩": 4022,
      "鳰": 4023,
      "鳳": 4024,
      "鳴": 4025,
      "鴉": 4026,
      "鴨": 4027,
      "鴻": 4028,
      "鵲": 4029,
      "鶴": 4030,
      "鷲": 4031,
      "鷹": 4032,
      "鸟": 4033,
      "鹅": 4034,
      "鹏": 4035,
      "鹰": 4036,
      "鹸": 4037,
      "鹿": 4038,
      "麈": 4039,
      "麗": 4040,
      "麟": 4041,
      "麥": 4042,
      "麦": 4043,
      "麩": 4044,
      "麺": 4045,
      "麻": 4046,
      "麼": 4047,
      "黃": 4048,
      "黄": 4049,
      "黎": 4050,
      "黑": 4051,
      "黒": 4052,
      "點": 4053,
      "黨": 4054,
      "鼎": 4055,
      "鼓": 4056,
      "齊": 4057,
      "齋": 4058,
      "齐": 4059,
      "龍": 4060,
      "龙": 4061,
      "ꜣ": 4062,
      "ꜥ": 4063,
      "ꭱ": 4064,
      "ꭲ": 4065,
      "ꭶ": 4066,
      "ꭸ": 4067,
      "ꭺ": 4068,
      "ꭽ": 4069,
      "ꭾ": 4070,
      "ꮒ": 4071,
      "ꮼ": 4072,
      "": 4073,
      "": 4074,
      "": 4075,
      "": 4076,
      "": 4077,
      "": 4078,
      "": 4079,
      "": 4080,
      "": 4081,
      "": 4082,
      "": 4083,
      "": 4084,
      "": 4085,
      "": 4086,
      "": 4087,
      "": 4088,
      "": 4089,
      "": 4090,
      "": 4091,
      "ﬁ": 4092,
      "ﬂ": 4093,
      "﴾": 4094,
      "﴿": 4095,
      "️": 4096,
      "︵": 4097,
      "ﻩ": 4098,
      "﻿": 4099,
      "！": 4100,
      "＃": 4101,
      "％": 4102,
      "＆": 4103,
      "（": 4104,
      "）": 4105,
      "＋": 4106,
      "，": 4107,
      "－": 4108,
      "．": 4109,
      "／": 4110,
      "０": 4111,
      "１": 4112,
      "２": 4113,
      "３": 4114,
      "４": 4115,
      "５": 4116,
      "６": 4117,
      "７": 4118,
      "８": 4119,
      "９": 4120,
      "：": 4121,
      "；": 4122,
      "＜": 4123,
      "＝": 4124,
      "＞": 4125,
      "？": 4126,
      "＠": 4127,
      "［": 4128,
      "＼": 4129,
      "］": 4130,
      "ａ": 4131,
      "ｂ": 4132,
      "ｃ": 4133,
      "ｅ": 4134,
      "ｆ": 4135,
      "ｇ": 4136,
      "ｈ": 4137,
      "ｉ": 4138,
      "ｊ": 4139,
      "ｋ": 4140,
      "ｍ": 4141,
      "ｎ": 4142,
      "ｏ": 4143,
      "ｐ": 4144,
      "ｒ": 4145,
      "ｓ": 4146,
      "ｔ": 4147,
      "ｕ": 4148,
      "ｖ": 4149,
      "ｗ": 4150,
      "｜": 4151,
      "～": 4152,
      "｢": 4153,
      "｣": 4154,
      "･": 4155,
      "ﾟ": 4156,
      "￡": 4157,
      "�": 4158,
      "𐎠": 4159,
      "𐎭": 4160,
      "𐎶": 4161,
      "𐤀": 4162,
      "𐤉": 4163,
      "𐤊": 4164,
      "𐤍": 4165,
      "𝛹": 4166,
      "🌐": 4167,
      "🐁": 4168,
      "👁": 4169,
      "💓": 4170,
      "💔": 4171,
      "💖": 4172,
      "💗": 4173,
      "💘": 4174,
      "💙": 4175,
      "💚": 4176,
      "💛": 4177,
      "💜": 4178,
      "💝": 4179,
      "😂": 4180,
      "😉": 4181,
      "𠊛": 4182,
      "𡎝": 4183,
      "𡗶": 4184,
      "𡦂": 4185,
      "𢆥": 4186,
      "𢚸": 4187,
      "𣦆": 4188,
      "𣷭": 4189,
      "𤴬": 4190,
      "𤾓": 4191,
      "𥉩": 4192,
      "𥪝": 4193,
      "𦟐": 4194,
      "𧡊": 4195,
      "##t": 4196,
      "##m": 4197,
      "##o": 4198,
      "##l": 4199,
      "##a": 4200,
      "##e": 4201,
      "##s": 4202,
      "##c": 4203,
      "##k": 4204,
      "##f": 4205,
      "##i": 4206,
      "##h": 4207,
      "##n": 4208,
      "##g": 4209,
      "##x": 4210,
      "##.": 4211,
      "##p": 4212,
      "##u": 4213,
      "##r": 4214,
      "##w": 4215,
      "##y": 4216,
      "##̂": 4217,
      "##̉": 4218,
      "##đ": 4219,
      "##̀": 4220,
      "##d": 4221,
      "##q": 4222,
      "##ȝ": 4223,
      "##z": 4224,
      "##j": 4225,
      "##́": 4226,
      "##b": 4227,
      "##v": 4228,
      "##課": 4229,
      "##後": 4230,
      "##テ": 4231,
      "##ィ": 4232,
      "##ー": 4233,
      "##タ": 4234,
      "##イ": 4235,
      "##ム": 4236,
      "##ᅵ": 4237,
      "##ᆫ": 4238,
      "##ᄇ": 4239,
      "##ᅮ": 4240,
      "##ᄒ": 4241,
      "##ᅪ": 4242,
      "##ᆯ": 4243,
      "##ᄀ": 4244,
      "##ᆨ": 4245,
      "##̣": 4246,
      "##æ": 4247,
      "##ᄌ": 4248,
      "##ᅥ": 4249,
      "##ᅫ": 4250,
      "##ᆻ": 4251,
      "##ᄋ": 4252,
      "##ᅭ": 4253,
      "##ø": 4254,
      "##ι": 4255,
      "##τ": 4256,
      "##α": 4257,
      "##ν": 4258,
      "##ᅳ": 4259,
      "##ᄅ": 4260,
      "##ᆸ": 4261,
      "##靖": 4262,
      "##̊": 4263,
      "##э": 4264,
      "##р": 4265,
      "##о": 4266,
      "##к": 4267,
      "##с": 4268,
      "##п": 4269,
      "##е": 4270,
      "##̈": 4271,
      "##θ": 4272,
      "##μ": 4273,
      "##ο": 4274,
      "##ς": 4275,
      "##-": 4276,
      "##'": 4277,
      "##%": 4278,
      "##̛": 4279,
      "##л": 4280,
      "##а": 4281,
      "##у": 4282,
      "##и": 4283,
      "##̄": 4284,
      "##­": 4285,
      "##̃": 4286,
      "##美": 4287,
      "##群": 4288,
      "##島": 4289,
      "##̌": 4290,
      "##克": 4291,
      "##伊": 4292,
      "##国": 4293,
      "##政": 4294,
      "##情": 4295,
      "##牵": 4296,
      "##动": 4297,
      "##东": 4298,
      "##南": 4299,
      "##亚": 4300,
      "##侨": 4301,
      "##界": 4302,
      "##ß": 4303,
      "##)": 4304,
      "##ш": 4305,
      "##х": 4306,
      "##б": 4307,
      "##д": 4308,
      "##本": 4309,
      "##フ": 4310,
      "##ッ": 4311,
      "##ト": 4312,
      "##ホ": 4313,
      "##゙": 4314,
      "##ル": 4315,
      "##リ": 4316,
      "##ク": 4317,
      "##̧": 4318,
      "##华": 4319,
      "##社": 4320,
      "##两": 4321,
      "##派": 4322,
      "##斗": 4323,
      "##争": 4324,
      "##̆": 4325,
      "##マ": 4326,
      "##曲": 4327,
      "##は": 4328,
      "##高": 4329,
      "##取": 4330,
      "##ヒ": 4331,
      "##ア": 4332,
      "##キ": 4333,
      "##ð": 4334,
      "##?": 4335,
      "##ﬂ": 4336,
      "##か": 4337,
      "##ら": 4338,
      "##の": 4339,
      "##新": 4340,
      "##番": 4341,
      "##組": 4342,
      "##編": 4343,
      "##成": 4344,
      "##を": 4345,
      "##発": 4346,
      "##表": 4347,
      "##ަ": 4348,
      "##ހ": 4349,
      "##ާ": 4350,
      "##ރ": 4351,
      "##ެ": 4352,
      "##ނ": 4353,
      "##ް": 4354,
      "##ދ": 4355,
      "##ި": 4356,
      "##в": 4357,
      "##ы": 4358,
      "##い": 4359,
      "##栞": 4360,
      "##,": 4361,
      "##/": 4362,
      "##ก": 4363,
      "##้": 4364,
      "##ว": 4365,
      "##φ": 4366,
      "##(": 4367,
      "##数": 4368,
      "##寄": 4369,
      "##ุ": 4370,
      "##コ": 4371,
      "##ス": 4372,
      "##ᆼ": 4373,
      "##ᄉ": 4374,
      "##ᅡ": 4375,
      "##服": 4376,
      "##ᅩ": 4377,
      "##ᄂ": 4378,
      "##ᅧ": 4379,
      "##ᅯ": 4380,
      "##行": 4381,
      "##ा": 4382,
      "##ठ": 4383,
      "##з": 4384,
      "##н": 4385,
      "##я": 4386,
      "##宮": 4387,
      "##明": 4388,
      "##仁": 4389,
      "##加": 4390,
      "##道": 4391,
      "##受": 4392,
      "##欢": 4393,
      "##迎": 4394,
      "##电": 4395,
      "##视": 4396,
      "##剧": 4397,
      "##男": 4398,
      "##女": 4399,
      "##演": 4400,
      "##员": 4401,
      "##}": 4402,
      "##昏": 4403,
      "##腕": 4404,
      "##輪": 4405,
      "##伝": 4406,
      "##説": 4407,
      "##;": 4408,
      "##ф": 4409,
      "##м": 4410,
      "##т": 4411,
      "##ᆷ": 4412,
      "##シ": 4413,
      "##準": 4414,
      "##流": 4415,
      "##浪": 4416,
      "##簽": 4417,
      "##ل": 4418,
      "##س": 4419,
      "##و": 4420,
      "##ر": 4421,
      "##ي": 4422,
      "##ة": 4423,
      "##西": 4424,
      "##則": 4425,
      "##溜": 4426,
      "##入": 4427,
      "##廣": 4428,
      "##灣": 4429,
      "##淡": 4430,
      "##型": 4431,
      "##ب": 4432,
      "##ا": 4433,
      "##ち": 4434,
      "##裏": 4435,
      "##剣": 4436,
      "##戦": 4437,
      "##隊": 4438,
      "##━": 4439,
      "##矢": 4440,
      "##ь": 4441,
      "##護": 4442,
      "##身": 4443,
      "##合": 4444,
      "##気": 4445,
      "##ラ": 4446,
      "##þ": 4447,
      "##ʻ": 4448,
      "##ᄆ": 4449,
      "##য": 4450,
      "##়": 4451,
      "##ে": 4452,
      "##ছ": 4453,
      "##\\": 4454,
      "##海": 4455,
      "##ρ": 4456,
      "##λ": 4457,
      "##ข": 4458,
      "##ง": 4459,
      "##ส": 4460,
      "##ั": 4461,
      "##น": 4462,
      "##เ": 4463,
      "##ท": 4464,
      "##ี": 4465,
      "##ย": 4466,
      "##ะ": 4467,
      "##博": 4468,
      "##士": 4469,
      "##…": 4470,
      "##̏": 4471,
      "##̋": 4472,
      "##腥": 4473,
      "##的": 4474,
      "##星": 4475,
      "##期": 4476,
      "##六": 4477,
      "##ч": 4478,
      "##ᅢ": 4479,
      "##δ": 4480,
      "##+": 4481,
      "##ᄃ": 4482,
      "##近": 4483,
      "##く": 4484,
      "##遊": 4485,
      "##園": 4486,
      "##地": 4487,
      "##経": 4488,
      "##聞": 4489,
      "##>": 4490,
      "##@": 4491,
      "##同": 4492,
      "##時": 4493,
      "##売": 4494,
      "##̦": 4495,
      "##κ": 4496,
      "##ن": 4497,
      "##ف": 4498,
      "##π": 4499,
      "##ε": 4500,
      "##ษ": 4501,
      "##ิ": 4502,
      "##ณ": 4503,
      "##อ": 4504,
      "##บ": 4505,
      "##ล": 4506,
      "##艺": 4507,
      "##人": 4508,
      "##获": 4509,
      "##团": 4510,
      "##中": 4511,
      "##央": 4512,
      "##に": 4513,
      "##な": 4514,
      "##っ": 4515,
      "##た": 4516,
      "##カ": 4517,
      "##ン": 4518,
      "##ع": 4519,
      "##η": 4520,
      "##戸": 4521,
      "##υ": 4522,
      "##匙": 4523,
      "##以": 4524,
      "##内": 4525,
      "##確": 4526,
      "##定": 4527,
      "##^": 4528,
      "##{": 4529,
      "##ォ": 4530,
      "##天": 4531,
      "##舎": 4532,
      "##̇": 4533,
      "##=": 4534,
      "##ɑ": 4535,
      "##ت": 4536,
      "##櫓": 4537,
      "##̨": 4538,
      "##ᅣ": 4539,
      "##ᆰ": 4540,
      "##代": 4541,
      "##子": 4542,
      "##ᅬ": 4543,
      "##م": 4544,
      "##又": 4545,
      "##左": 4546,
      "##ю": 4547,
      "##ᄑ": 4548,
      "##ᄏ": 4549,
      "##ᅦ": 4550,
      "##木": 4551,
      "##\"": 4552,
      "##„": 4553,
      "##ַ": 4554,
      "##ש": 4555,
      "##ְ": 4556,
      "##ׁ": 4557,
      "##כ": 4558,
      "##ּ": 4559,
      "##נ": 4560,
      "##ז": 4561,
      "##қ": 4562,
      "##乱": 4563,
      "##ٔ": 4564,
      "##د": 4565,
      "##ı": 4566,
      "##花": 4567,
      "##ł": 4568,
      "##ᄐ": 4569,
      "##ᅨ": 4570,
      "##ك": 4571,
      "##贤": 4572,
      "##記": 4573,
      "##録": 4574,
      "##ヤ": 4575,
      "##:": 4576,
      "##分": 4577,
      "##九": 4578,
      "##少": 4579,
      "##年": 4580,
      "##尔": 4581,
      "##่": 4582,
      "##ป": 4583,
      "##ค": 4584,
      "##ร": 4585,
      "##ู": 4586,
      "##屋": 4587,
      "##及": 4588,
      "##規": 4589,
      "##劃": 4590,
      "##局": 4591,
      "##<": 4592,
      "##ℓ": 4593,
      "##空": 4594,
      "##舟": 4595,
      "##或": 4596,
      "##迷": 4597,
      "##所": 4598,
      "##向": 4599,
      "##聯": 4600,
      "##航": 4601,
      "##公": 4602,
      "##司": 4603,
      "##ъ": 4604,
      "##ə": 4605,
      "##里": 4606,
      "##า": 4607,
      "##ม": 4608,
      "##ช": 4609,
      "##็": 4610,
      "##倉": 4611,
      "##商": 4612,
      "##会": 4613,
      "##ج": 4614,
      "##ز": 4615,
      "##γ": 4616,
      "##ঙ": 4617,
      "##্": 4618,
      "##গ": 4619,
      "##ল": 4620,
      "##懸": 4621,
      "##け": 4622,
      "##る": 4623,
      "##想": 4624,
      "##と": 4625,
      "##庫": 4626,
      "##特": 4627,
      "##別": 4628,
      "##版": 4629,
      "##~": 4630,
      "##灼": 4631,
      "##り": 4632,
      "##ソ": 4633,
      "##世": 4634,
      "##ผ": 4635,
      "##你": 4636,
      "##妈": 4637,
      "##个": 4638,
      "##屄": 4639,
      "##ต": 4640,
      "##ٕ": 4641,
      "##ح": 4642,
      "##ص": 4643,
      "##ء": 4644,
      "##ᇁ": 4645,
      "##ی": 4646,
      "##卉": 4647,
      "##葳": 4648,
      "##饰": 4649,
      "##何": 4650,
      "##惜": 4651,
      "##і": 4652,
      "##∓": 4653,
      "##ش": 4654,
      "##์": 4655,
      "##京": 4656,
      "##殺": 4657,
      "##教": 4658,
      "##室": 4659,
      "##一": 4660,
      "##挙": 4661,
      "##開": 4662,
      "##式": 4663,
      "##終": 4664,
      "##勝": 4665,
      "##ု": 4666,
      "##ံ": 4667,
      "##ª": 4668,
      "##レ": 4669,
      "##别": 4670,
      "##出": 4671,
      "##召": 4672,
      "##集": 4673,
      "##战": 4674,
      "##队": 4675,
      "##橋": 4676,
      "##ヘ": 4677,
      "##゚": 4678,
      "##ャ": 4679,
      "##ハ": 4680,
      "##モ": 4681,
      "##!": 4682,
      "##チ": 4683,
      "##ん": 4684,
      "##ろ": 4685,
      "##う": 4686,
      "##兄": 4687,
      "##皇": 4688,
      "##刷": 4689,
      "##波": 4690,
      "##水": 4691,
      "##蓮": 4692,
      "##球": 4693,
      "##連": 4694,
      "##元": 4695,
      "##♦": 4696,
      "##观": 4697,
      "##点": 4698,
      "##棺": 4699,
      "##夫": 4700,
      "##日": 4701,
      "##牢": 4702,
      "##弾": 4703,
      "##城": 4704,
      "##山": 4705,
      "##ц": 4706,
      "##̓": 4707,
      "##ᅱ": 4708,
      "##ق": 4709,
      "##ط": 4710,
      "##ى": 4711,
      "##𐤉": 4712,
      "##𐤍": 4713,
      "##𐤊": 4714,
      "##闈": 4715,
      "##گ": 4716,
      "##$": 4717,
      "##ж": 4718,
      "##咖": 4719,
      "##云": 4720,
      "##共": 4721,
      "##庆": 4722,
      "##ː": 4723,
      "##家": 4724,
      "##ᄎ": 4725,
      "##围": 4726,
      "##棋": 4727,
      "##协": 4728,
      "##授": 4729,
      "##予": 4730,
      "##职": 4731,
      "##业": 4732,
      "##段": 4733,
      "##ɒ": 4734,
      "##都": 4735,
      "##府": 4736,
      "##立": 4737,
      "##久": 4738,
      "##御": 4739,
      "##校": 4740,
      "##鳴": 4741,
      "##雫": 4742,
      "##れ": 4743,
      "##て": 4744,
      "##来": 4745,
      "##君": 4746,
      "##聖": 4747,
      "##者": 4748,
      "##ʌ": 4749,
      "##き": 4750,
      "##和": 4751,
      "##村": 4752,
      "##љ": 4753,
      "##川": 4754,
      "##机": 4755,
      "##场": 4756,
      "##季": 4757,
      "##度": 4758,
      "##境": 4759,
      "##突": 4760,
      "##破": 4761,
      "##承": 4762,
      "##旭": 4763,
      "##吴": 4764,
      "##卓": 4765,
      "##羲": 4766,
      "##苏": 4767,
      "##开": 4768,
      "##๊": 4769,
      "##ถ": 4770,
      "##͂": 4771,
      "##σ": 4772,
      "##眼": 4773,
      "##г": 4774,
      "##翔": 4775,
      "##俄": 4776,
      "##羅": 4777,
      "##斯": 4778,
      "##盃": 4779,
      "##了": 4780,
      "##音": 4781,
      "##樂": 4782,
      "##獎": 4783,
      "##完": 4784,
      "##整": 4785,
      "##得": 4786,
      "##名": 4787,
      "##單": 4788,
      "##ո": 4789,
      "##ւ": 4790,
      "##պ": 4791,
      "##ա": 4792,
      "##ր": 4793,
      "##ナ": 4794,
      "##ゥ": 4795,
      "##熱": 4796,
      "##狂": 4797,
      "##ک": 4798,
      "##オ": 4799,
      "##ミ": 4800,
      "##ァ": 4801,
      "##大": 4802,
      "##神": 4803,
      "##⦾": 4804,
      "##師": 4805,
      "##半": 4806,
      "##œ": 4807,
      "##也": 4808,
      "##写": 4809,
      "##百": 4810,
      "##科": 4811,
      "##全": 4812,
      "##书": 4813,
      "##ニ": 4814,
      "##口": 4815,
      "##吊": 4816,
      "##ョ": 4817,
      "##帥": 4818,
      "##√": 4819,
      "##𐎠": 4820,
      "##𐎭": 4821,
      "##町": 4822,
      "##門": 4823,
      "##念": 4824,
      "##館": 4825,
      "##光": 4826,
      "##划": 4827,
      "##間": 4828,
      "##ｍ": 4829,
      "##ｖ": 4830,
      "##ｐ": 4831,
      "##魅": 4832,
      "##月": 4833,
      "##股": 4834,
      "##十": 4835,
      "##建": 4836,
      "##筑": 4837,
      "##由": 4838,
      "##技": 4839,
      "##จ": 4840,
      "##ด": 4841,
      "##治": 4842,
      "##維": 4843,
      "##§": 4844,
      "##場": 4845,
      "##下": 4846,
      "##文": 4847,
      "##平": 4848,
      "##制": 4849,
      "##ュ": 4850,
      "##ツ": 4851,
      "##小": 4852,
      "##松": 4853,
      "##製": 4854,
      "##作": 4855,
      "##ウ": 4856,
      "##ロ": 4857,
      "##拏": 4858,
      "##國": 4859,
      "##档": 4860,
      "##产": 4861,
      "##主": 4862,
      "##义": 4863,
      "##事": 4864,
      "##而": 4865,
      "##奋": 4866,
      "##姐": 4867,
      "##进": 4868,
      "##最": 4869,
      "##终": 4870,
      "##单": 4871,
      "##際": 4872,
      "##映": 4873,
      "##画": 4874,
      "##祭": 4875,
      "##ェ": 4876,
      "##̔": 4877,
      "##議": 4878,
      "##展": 4879,
      "##纪": 4880,
      "##实": 4881,
      "##ه": 4882,
      "##よ": 4883,
      "##放": 4884,
      "##送": 4885,
      "##始": 4886,
      "##す": 4887,
      "##能": 4888,
      "##鼓": 4889,
      "##ಾ": 4890,
      "##ರ": 4891,
      "##್": 4892,
      "##ವ": 4893,
      "##ತ": 4894,
      "##ಿ": 4895,
      "##ᆮ": 4896,
      "##必": 4897,
      "##滿": 4898,
      "##·": 4899,
      "##َ": 4900,
      "##ِ": 4901,
      "##瀬": 4902,
      "##♪": 4903,
      "##为": 4904,
      "##爱": 4905,
      "##ᄄ": 4906,
      "##ᆺ": 4907,
      "##ひ": 4908,
      "##医": 4909,
      "##院": 4910,
      "##→": 4911,
      "##も": 4912,
      "##さ": 4913,
      "##时": 4914,
      "##间": 4915,
      "##¶": 4916,
      "##¡": 4917,
      "##া": 4918,
      "##ন": 4919,
      "##র": 4920,
      "##უ": 4921,
      "##ნ": 4922,
      "##ი": 4923,
      "##ც": 4924,
      "##პ": 4925,
      "##ა": 4926,
      "##ლ": 4927,
      "##ტ": 4928,
      "##ე": 4929,
      "##ר": 4930,
      "##צ": 4931,
      "##ב": 4932,
      "##师": 4933,
      "##沖": 4934,
      "##縄": 4935,
      "##接": 4936,
      "##ʃ": 4937,
      "##ˈ": 4938,
      "##ヶ": 4939,
      "##原": 4940,
      "##化": 4941,
      "##麺": 4942,
      "##類": 4943,
      "##学": 4944,
      "##ฤ": 4945,
      "##ห": 4946,
      "##遠": 4947,
      "##征": 4948,
      "##移": 4949,
      "##籍": 4950,
      "##お": 4951,
      "##知": 4952,
      "##せ": 4953,
      "##ٓ": 4954,
      "##メ": 4955,
      "##初": 4956,
      "##∪": 4957,
      "##丸": 4958,
      "##書": 4959,
      "##ไ": 4960,
      "##ฟ": 4961,
      "##寿": 4962,
      "##企": 4963,
      "##業": 4964,
      "##ִ": 4965,
      "##י": 4966,
      "##ת": 4967,
      "##サ": 4968,
      "##回": 4969,
      "##限": 4970,
      "##盤": 4971,
      "##崎": 4972,
      "##ศ": 4973,
      "##み": 4974,
      "##あ": 4975,
      "##し": 4976,
      "##へ": 4977,
      "##陆": 4978,
      "##福": 4979,
      "##漳": 4980,
      "##浦": 4981,
      "##民": 4982,
      "##务": 4983,
      "##巾": 4984,
      "##帯": 4985,
      "##州": 4986,
      "##長": 4987,
      "##野": 4988,
      "##望": 4989,
      "##ょ": 4990,
      "##ซ": 4991,
      "##ฮ": 4992,
      "##略": 4993,
      "##发": 4994,
      "##话": 4995,
      "##杯": 4996,
      "##選": 4997,
      "##手": 4998,
      "##権": 4999,
      "##ᄁ": 5000,
      "##秘": 5001,
      "##密": 5002,
      "##浜": 5003,
      "##β": 5004,
      "##ᅴ": 5005,
      "##怡": 5006,
      "##珍": 5007,
      "##黨": 5008,
      "##賢": 5009,
      "##姬": 5010,
      "##*": 5011,
      "##菜": 5012,
      "##园": 5013,
      "##ζ": 5014,
      "##速": 5015,
      "##変": 5016,
      "##形": 5017,
      "##セ": 5018,
      "##ノ": 5019,
      "##理": 5020,
      "##吸": 5021,
      "##投": 5022,
      "##詫": 5023,
      "##ま": 5024,
      "##拉": 5025,
      "##菖": 5026,
      "##蒲": 5027,
      "##介": 5028,
      "##謝": 5029,
      "##心": 5030,
      "##線": 5031,
      "##乗": 5032,
      "##陰": 5033,
      "##産": 5034,
      "##闘": 5035,
      "##栗": 5036,
      "##香": 5037,
      "##亞": 5038,
      "##洲": 5039,
      "##揭": 5040,
      "##曉": 5041,
      "##軍": 5042,
      "##票": 5043,
      "##多": 5044,
      "##上": 5045,
      "##岳": 5046,
      "##物": 5047,
      "##พ": 5048,
      "##ธ": 5049,
      "##络": 5050,
      "##歌": 5051,
      "##ψ": 5052,
      "##ω": 5053,
      "##ⴸ": 5054,
      "##ⵍ": 5055,
      "##揚": 5056,
      "##体": 5057,
      "##影": 5058,
      "##響": 5059,
      "##ほ": 5060,
      "##可": 5061,
      "##性": 5062,
      "##內": 5063,
      "##図": 5064,
      "##豆": 5065,
      "##智": 5066,
      "##喜": 5067,
      "##芸": 5068,
      "##術": 5069,
      "##麈": 5070,
      "##广": 5071,
      "##使": 5072,
      "##宅": 5073,
      "##ԥ": 5074,
      "##̲": 5075,
      "##○": 5076,
      "##（": 5077,
      "##简": 5078,
      "##ו": 5079,
      "##א": 5080,
      "##ן": 5081,
      "##ˌ": 5082,
      "##語": 5083,
      "##運": 5084,
      "##動": 5085,
      "##路": 5086,
      "##友": 5087,
      "##沙": 5088,
      "##ɛ": 5089,
      "##幕": 5090,
      "##字": 5091,
      "##つ": 5092,
      "##方": 5093,
      "##◆": 5094,
      "##领": 5095,
      "##袖": 5096,
      "##毛": 5097,
      "##席": 5098,
      "##‎": 5099,
      "##約": 5100,
      "##束": 5101,
      "##峠": 5102,
      "##坂": 5103,
      "##ネ": 5104,
      "##団": 5105,
      "##ᵻ": 5106,
      "##ɔ": 5107,
      "##岐": 5108,
      "##ქ": 5109,
      "##⏎": 5110,
      "##把": 5111,
      "##搜": 5112,
      "##尋": 5113,
      "##引": 5114,
      "##擎": 5115,
      "##到": 5116,
      "##港": 5117,
      "##井": 5118,
      "##複": 5119,
      "##興": 5120,
      "##味": 5121,
      "##沢": 5122,
      "##郁": 5123,
      "##未": 5124,
      "##章": 5125,
      "##ـ": 5126,
      "##昭": 5127,
      "##ゆ": 5128,
      "##め": 5129,
      "##ض": 5130,
      "##覽": 5131,
      "##ᆾ": 5132,
      "##良": 5133,
      "##難": 5134,
      "##щ": 5135,
      "##ָ": 5136,
      "##ל": 5137,
      "##帝": 5138,
      "##學": 5139,
      "##ّ": 5140,
      "##翼": 5141,
      "##涛": 5142,
      "##梅": 5143,
      "##婷": 5144,
      "##荷": 5145,
      "##伯": 5146,
      "##ד": 5147,
      "##┻": 5148,
      "##|": 5149,
      "##母": 5150,
      "##ោ": 5151,
      "##ះ": 5152,
      "##ξ": 5153,
      "##โ": 5154,
      "##田": 5155,
      "##藤": 5156,
      "##轩": 5157,
      "##帮": 5158,
      "##挡": 5159,
      "##驾": 5160,
      "##自": 5161,
      "##曝": 5162,
      "##窗": 5163,
      "##四": 5164,
      "##๋": 5165,
      "##ื": 5166,
      "##​": 5167,
      "##五": 5168,
      "##真": 5169,
      "##実": 5170,
      "##մ": 5171,
      "##վ": 5172,
      "##ի": 5173,
      "##̱": 5174,
      "##ј": 5175,
      "##ћ": 5176,
      "##蝉": 5177,
      "##њ": 5178,
      "##ｋ": 5179,
      "##研": 5180,
      "##究": 5181,
      "##ケ": 5182,
      "##چ": 5183,
      "##酒": 5184,
      "##ゃ": 5185,
      "##付": 5186,
      "##装": 5187,
      "##շ": 5188,
      "##տ": 5189,
      "##ն": 5190,
      "##ե": 5191,
      "##ց": 5192,
      "##丰": 5193,
      "##姓": 5194,
      "##爺": 5195,
      "##ɪ": 5196,
      "##ᅲ": 5197,
      "##¥": 5198,
      "##ね": 5199,
      "##茶": 5200,
      "##ぃ": 5201,
      "##こ": 5202,
      "##恋": 5203,
      "##英": 5204,
      "##閭": 5205,
      "##ע": 5206,
      "##二": 5207,
      "##届": 5208,
      "##育": 5209,
      "##卫": 5210,
      "##生": 5211,
      "##委": 5212,
      "##副": 5213,
      "##任": 5214,
      "##婧": 5215,
      "##祎": 5216,
      "##∞": 5217,
      "##太": 5218,
      "##陽": 5219,
      "##施": 5220,
      "##撲": 5221,
      "##訊": 5222,
      "##儀": 5223,
      "##़": 5224,
      "##զ": 5225,
      "##գ": 5226,
      "##յ": 5227,
      "##ম": 5228,
      "##ু": 5229,
      "##先": 5230,
      "##無": 5231,
      "##常": 5232,
      "##風": 5233,
      "##誘": 5234,
      "##ゅ": 5235,
      "##风": 5236,
      "##賞": 5237,
      "##歴": 5238,
      "##林": 5239,
      "##炉": 5240,
      "##尺": 5241,
      "##許": 5242,
      "##『": 5243,
      "##«": 5244,
      "##ญ": 5245,
      "##แ": 5246,
      "##ီ": 5247,
      "##ဆ": 5248,
      "##ွ": 5249,
      "##မ": 5250,
      "##်": 5251,
      "##区": 5252,
      "##域": 5253,
      "##疗": 5254,
      "##妾": 5255,
      "##": 5256,
      "##之": 5257,
      "##助": 5258,
      "##儚": 5259,
      "##丁": 5260,
      "##做": 5261,
      "##奴": 5262,
      "##戀": 5263,
      "##法": 5264,
      "##相": 5265,
      "##宗": 5266,
      "##†": 5267,
      "##雄": 5268,
      "##劍": 5269,
      "##រ": 5270,
      "##ំ": 5271,
      "##ស": 5272,
      "##ា": 5273,
      "##យ": 5274,
      "##ⵣ": 5275,
      "##ⴰ": 5276,
      "##ⵓ": 5277,
      "##ⴷ": 5278,
      "##省": 5279,
      "##誕": 5280,
      "##次": 5281,
      "##暴": 5282,
      "##吉": 5283,
      "##郎": 5284,
      "##ფ": 5285,
      "##ხ": 5286,
      "##ზ": 5287,
      "##თ": 5288,
      "##当": 5289,
      "##勢": 5290,
      "##氏": 5291,
      "##ֵ": 5292,
      "##泥": 5293,
      "##马": 5294,
      "##頭": 5295,
      "##問": 5296,
      "##प": 5297,
      "##्": 5298,
      "##त": 5299,
      "##ह": 5300,
      "##執": 5301,
      "##撃": 5302,
      "##俊": 5303,
      "##凯": 5304,
      "##ᆲ": 5305,
      "##精": 5306,
      "##髪": 5307,
      "##白": 5308,
      "##雪": 5309,
      "##姫": 5310,
      "##辺": 5311,
      "##彰": 5312,
      "##خ": 5313,
      "##ה": 5314,
      "##珠": 5315,
      "##ภ": 5316,
      "##ট": 5317,
      "##盛": 5318,
      "##正": 5319,
      "##統": 5320,
      "##բ": 5321,
      "##ေ": 5322,
      "##ာ": 5323,
      "##လ": 5324,
      "##း": 5325,
      "##ပ": 5326,
      "##ြ": 5327,
      "##ိ": 5328,
      "##င": 5329,
      "##ဲ": 5330,
      "##比": 5331,
      "##谷": 5332,
      "##外": 5333,
      "##楽": 5334,
      "##堂": 5335,
      "##妹": 5336,
      "##探": 5337,
      "##嶽": 5338,
      "##官": 5339,
      "##郡": 5340,
      "##¬": 5341,
      "##総": 5342,
      "##雑": 5343,
      "##誌": 5344,
      "##津": 5345,
      "##玄": 5346,
      "##輸": 5347,
      "##機": 5348,
      "##典": 5349,
      "##ʊ": 5350,
      "##嘉": 5351,
      "##獲": 5352,
      "##幻": 5353,
      "##郷": 5354,
      "##疏": 5355,
      "##房": 5356,
      "##武": 5357,
      "##த": 5358,
      "##்": 5359,
      "##ன": 5360,
      "##ச": 5361,
      "##ி": 5362,
      "##ற": 5363,
      "##创": 5364,
      "##亮": 5365,
      "##寺": 5366,
      "##宏": 5367,
      "##背": 5368,
      "##景": 5369,
      "##佛": 5370,
      "##鹅": 5371,
      "##其": 5372,
      "##悪": 5373,
      "##誰": 5374,
      "##鳳": 5375,
      "##縣": 5376,
      "##•": 5377,
      "##ｉ": 5378,
      "##ｆ": 5379,
      "##ａ": 5380,
      "##ำ": 5381,
      "##̥": 5382,
      "##后": 5383,
      "##备": 5384,
      "##着": 5385,
      "##兼": 5386,
      "##£": 5387,
      "##盧": 5388,
      "##ू": 5389,
      "##र": 5390,
      "##य": 5391,
      "##衛": 5392,
      "##რ": 5393,
      "##ึ": 5394,
      "##阪": 5395,
      "##语": 5396,
      "##ק": 5397,
      "##ם": 5398,
      "##爾": 5399,
      "##頌": 5400,
      "##審": 5401,
      "##査": 5402,
      "##員": 5403,
      "##老": 5404,
      "##⌘": 5405,
      "##ो": 5406,
      "##ल": 5407,
      "##岸": 5408,
      "##悦": 5409,
      "##緋": 5410,
      "##格": 5411,
      "##エ": 5412,
      "##挑": 5413,
      "##魔": 5414,
      "##纘": 5415,
      "##泰": 5416,
      "##ㅏ": 5417,
      "##ㅜ": 5418,
      "##ㅗ": 5419,
      "##尹": 5420,
      "##े": 5421,
      "##春": 5422,
      "##蕑": 5423,
      "##璧": 5424,
      "##増": 5425,
      "##ヌ": 5426,
      "##え": 5427,
      "##葉": 5428,
      "##ふ": 5429,
      "##前": 5430,
      "##停": 5431,
      "##留": 5432,
      "##火": 5433,
      "##פ": 5434,
      "##馬": 5435,
      "##彦": 5436,
      "##哭": 5437,
      "##竜": 5438,
      "##葛": 5439,
      "##庭": 5440,
      "##燧": 5441,
      "##圏": 5442,
      "##न": 5443,
      "##ग": 5444,
      "##网": 5445,
      "##站": 5446,
      "##ユ": 5447,
      "##嬌": 5448,
      "##ᄍ": 5449,
      "##疑": 5450,
      "##献": 5451,
      "##ु": 5452,
      "##ण": 5453,
      "##羊": 5454,
      "##与": 5455,
      "##灰": 5456,
      "##狼": 5457,
      "##牛": 5458,
      "##气": 5459,
      "##冲": 5460,
      "##計": 5461,
      "##台": 5462,
      "##街": 5463,
      "##χ": 5464,
      "##晴": 5465,
      "##ै": 5466,
      "##म": 5467,
      "##ि": 5468,
      "##क": 5469,
      "##臣": 5470,
      "##北": 5471,
      "##令": 5472,
      "##指": 5473,
      "##市": 5474,
      "###": 5475,
      "##莊": 5476,
      "##華": 5477,
      "##僑": 5478,
      "##ვ": 5479,
      "##შ": 5480,
      "##ත": 5481,
      "##්": 5482,
      "##න": 5483,
      "##ස": 5484,
      "##ි": 5485,
      "##ර": 5486,
      "##织": 5487,
      "##黑": 5488,
      "##攻": 5489,
      "##击": 5490,
      "##鳥": 5491,
      "##居": 5492,
      "##対": 5493,
      "##座": 5494,
      "##є": 5495,
      "##": 5496,
      "##幣": 5497,
      "##週": 5498,
      "##曜": 5499,
      "##夕": 5500,
      "##ہ": 5501,
      "##穴": 5502,
      "##晉": 5503,
      "##ʿ": 5504,
      "##庙": 5505,
      "##軽": 5506,
      "##将": 5507,
      "##µ": 5508,
      "##′": 5509,
      "##龙": 5510,
      "##再": 5511,
      "##登": 5512,
      "##顶": 5513,
      "##丽": 5514,
      "##坤": 5515,
      "##夜": 5516,
      "##ှ": 5517,
      "##တ": 5518,
      "##衣": 5519,
      "##衆": 5520,
      "##修": 5521,
      "##訂": 5522,
      "##禄": 5523,
      "##军": 5524,
      "##活": 5525,
      "##述": 5526,
      "##论": 5527,
      "##霜": 5528,
      "##琴": 5529,
      "##ო": 5530,
      "##ბ": 5531,
      "##練": 5532,
      "##不": 5533,
      "##惕": 5534,
      "##虢": 5535,
      "##臺": 5536,
      "##催": 5537,
      "##決": 5538,
      "##⁠": 5539,
      "##ฑ": 5540,
      "##父": 5541,
      "##غ": 5542,
      "##ျ": 5543,
      "##鉄": 5544,
      "##旅": 5545,
      "##＋": 5546,
      "##璃": 5547,
      "##濆": 5548,
      "##関": 5549,
      "##駅": 5550,
      "##差": 5551,
      "##傷": 5552,
      "##尽": 5553,
      "##快": 5554,
      "##痊": 5555,
      "##愈": 5556,
      "##銀": 5557,
      "##團": 5558,
      "##壽": 5559,
      "##超": 5560,
      "##級": 5561,
      "##賽": 5562,
      "##妻": 5563,
      "##ᄊ": 5564,
      "##報": 5565,
      "##孩": 5566,
      "##雅": 5567,
      "##談": 5568,
      "##漫": 5569,
      "##布": 5570,
      "##面": 5571,
      "##拓": 5572,
      "##蕉": 5573,
      "##杏": 5574,
      "##ใ": 5575,
      "##ח": 5576,
      "##東": 5577,
      "##埃": 5578,
      "##申": 5579,
      "##沿": 5580,
      "##品": 5581,
      "##壬": 5582,
      "##笠": 5583,
      "##忠": 5584,
      "##直": 5585,
      "##札": 5586,
      "##結": 5587,
      "##果": 5588,
      "##史": 5589,
      "##ث": 5590,
      "##古": 5591,
      "##彌": 5592,
      "##臼": 5593,
      "##声": 5594,
      "##仿": 5595,
      "##有": 5596,
      "##鋼": 5597,
      "##鬱": 5598,
      "##吹": 5599,
      "##飛": 5600,
      "##言": 5601,
      "##営": 5602,
      "##転": 5603,
      "##貌": 5604,
      "##ֹ": 5605,
      "##מ": 5606,
      "##「": 5607,
      "##ϛ": 5608,
      "##七": 5609,
      "##艦": 5610,
      "##伸": 5611,
      "##‍": 5612,
      "##洗": 5613,
      "##足": 5614,
      "##թ": 5615,
      "##志": 5616,
      "##致": 5617,
      "##阿": 5618,
      "##積": 5619,
      "##迁": 5620,
      "##應": 5621,
      "##義": 5622,
      "##塾": 5623,
      "##滚": 5624,
      "##夏": 5625,
      "##ﻩ": 5626,
      "##部": 5627,
      "##王": 5628,
      "##吾": 5629,
      "##敬": 5630,
      "##若": 5631,
      "##佩": 5632,
      "##孚": 5633,
      "##信": 5634,
      "##褆": 5635,
      "##ᇂ": 5636,
      "##並": 5637,
      "##列": 5638,
      "##習": 5639,
      "##ີ": 5640,
      "##ໃ": 5641,
      "##ໝ": 5642,
      "##່": 5643,
      "##巴": 5644,
      "##ղ": 5645,
      "##ս": 5646,
      "##絶": 5647,
      "##淵": 5648,
      "##善": 5649,
      "##播": 5650,
      "##碗": 5651,
      "##那": 5652,
      "##食": 5653,
      "##肉": 5654,
      "##缶": 5655,
      "##莎": 5656,
      "##造": 5657,
      "##访": 5658,
      "##»": 5659,
      "##嬪": 5660,
      "##車": 5661,
      "##ុ": 5662,
      "##ម": 5663,
      "##៉": 5664,
      "##ល": 5665,
      "##ី": 5666,
      "##強": 5667,
      "##͡": 5668,
      "##ʷ": 5669,
      "##力": 5670,
      "##ត": 5671,
      "##ូ": 5672,
      "##ច": 5673,
      "##三": 5674,
      "##陸": 5675,
      "##金": 5676,
      "##窮": 5677,
      "##兵": 5678,
      "##仔": 5679,
      "##劳": 5680,
      "##额": 5681,
      "##题": 5682,
      "##ি": 5683,
      "##ভ": 5684,
      "##策": 5685,
      "##器": 5686,
      "##ʔ": 5687,
      "##প": 5688,
      "##জ": 5689,
      "##ә": 5690,
      "##ष": 5691,
      "##ी": 5692,
      "##係": 5693,
      "##折": 5694,
      "##獄": 5695,
      "##欽": 5696,
      "##€": 5697,
      "##苔": 5698,
      "##や": 5699,
      "##鰯": 5700,
      "##朋": 5701,
      "##帖": 5702,
      "##द": 5703,
      "##ү": 5704,
      "##袋": 5705,
      "##ฎ": 5706,
      "##爽": 5707,
      "##改": 5708,
      "##忘": 5709,
      "##却": 5710,
      "##照": 5711,
      "##宇": 5712,
      "##维": 5713,
      "##磨": 5714,
      "##দ": 5715,
      "##ৰ": 5716,
      "##起": 5717,
      "##我": 5718,
      "##们": 5719,
      "##晚": 5720,
      "##湾": 5721,
      "##ʒ": 5722,
      "##ە": 5723,
      "##ڭ": 5724,
      "##拜": 5725,
      "##巫": 5726,
      "##工": 5727,
      "##總": 5728,
      "##會": 5729,
      "##屬": 5730,
      "##簡": 5731,
      "##慧": 5732,
      "##」": 5733,
      "##凌": 5734,
      "##辣": 5735,
      "##走": 5736,
      "##紅": 5737,
      "##毯": 5738,
      "##ህ": 5739,
      "##ለ": 5740,
      "##ወ": 5741,
      "##ር": 5742,
      "##ቅ": 5743,
      "##梁": 5744,
      "##通": 5745,
      "##碁": 5746,
      "##旬": 5747,
      "##ʼ": 5748,
      "##嶼": 5749,
      "##認": 5750,
      "##衡": 5751,
      "##要": 5752,
      "##絵": 5753,
      "##₨": 5754,
      "##珲": 5755,
      "##县": 5756,
      "##癖": 5757,
      "##存": 5758,
      "##在": 5759,
      "##̯": 5760,
      "##儿": 5761,
      "##属": 5762,
      "##ब": 5763,
      "##ᆹ": 5764,
      "##噌": 5765,
      "##糖": 5766,
      "##玉": 5767,
      "##逸": 5768,
      "##慈": 5769,
      "##托": 5770,
      "##基": 5771,
      "##ֶ": 5772,
      "##ס": 5773,
      "##他": 5774,
      "##份": 5775,
      "##鑑": 5776,
      "##礎": 5777,
      "##識": 5778,
      "##好": 5779,
      "##進": 5780,
      "##協": 5781,
      "##搭": 5782,
      "##載": 5783,
      "##注": 5784,
      "##绝": 5785,
      "##忧": 5786,
      "##ŋ": 5787,
      "##凰": 5788,
      "##淑": 5789,
      "##ㆍ": 5790,
      "##ㅣ": 5791,
      "##洋": 5792,
      "##見": 5793,
      "##貞": 5794,
      "##ͅ": 5795,
      "##ʾ": 5796,
      "##ƣ": 5797,
      "##弘": 5798,
      "##头": 5799,
      "##倍": 5800,
      "##麟": 5801,
      "##洞": 5802,
      "##ㇱ": 5803,
      "##ㇼ": 5804,
      "##ᆽ": 5805,
      "##產": 5806,
      "##ｈ": 5807,
      "##ｕ": 5808,
      "##首": 5809,
      "##芝": 5810,
      "##弁": 5811,
      "##備": 5812,
      "##操": 5813,
      "##苦": 5814,
      "##悩": 5815,
      "##考": 5816,
      "##浄": 5817,
      "##土": 5818,
      "##試": 5819,
      "##独": 5820,
      "##占": 5821,
      "##դ": 5822,
      "##հ": 5823,
      "##្": 5824,
      "##ប": 5825,
      "##ឹ": 5826,
      "##ក": 5827,
      "##ជ": 5828,
      "##័": 5829,
      "##ង": 5830,
      "##គ": 5831,
      "##优": 5832,
      "##ौ": 5833,
      "##宙": 5834,
      "##暖": 5835,
      "##弦": 5836,
      "##被": 5837,
      "##點": 5838,
      "##昆": 5839,
      "##宣": 5840,
      "##传": 5841,
      "##死": 5842,
      "##̅": 5843,
      "##憶": 5844,
      "##失": 5845,
      "##株": 5846,
      "##第": 5847,
      "##န": 5848,
      "##္": 5849,
      "##ᆶ": 5850,
      "##託": 5851,
      "##燃": 5852,
      "##ђ": 5853,
      "##奇": 5854,
      "##签": 5855,
      "##韩": 5856,
      "##李": 5857,
      "##剑": 5858,
      "##谭": 5859,
      "##便": 5860,
      "##像": 5861,
      "##經": 5862,
      "##怪": 5863,
      "##綺": 5864,
      "##八": 5865,
      "##趣": 5866,
      "##蒻": 5867,
      "##薯": 5868,
      "##午": 5869,
      "##¤": 5870,
      "##翰": 5871,
      "##弥": 5872,
      "##េ": 5873,
      "##ᇀ": 5874,
      "##零": 5875,
      "##雨": 5876,
      "##殃": 5877,
      "##斉": 5878,
      "##ワ": 5879,
      "##ទ": 5880,
      "##ន": 5881,
      "##迅": 5882,
      "##乳": 5883,
      "##系": 5884,
      "##辭": 5885,
      "##唐": 5886,
      "##帶": 5887,
      "##箭": 5888,
      "##邊": 5889,
      "##讀": 5890,
      "##肖": 5891,
      "##愛": 5892,
      "##構": 5893,
      "##堡": 5894,
      "##ᅰ": 5895,
      "##ܕ": 5896,
      "##ܣ": 5897,
      "##ܡ": 5898,
      "##ܢ": 5899,
      "##逆": 5900,
      "##撤": 5901,
      "##彙": 5902,
      "##索": 5903,
      "##汽": 5904,
      "##车": 5905,
      "##销": 5906,
      "##量": 5907,
      "##排": 5908,
      "##赏": 5909,
      "##荣": 5910,
      "##誉": 5911,
      "##榜": 5912,
      "##丨": 5913,
      "##易": 5914,
      "##峰": 5915,
      "##ா": 5916,
      "##ழ": 5917,
      "##ப": 5918,
      "##ண": 5919,
      "##º": 5920,
      "##ҕ": 5921,
      "##用": 5922,
      "##寇": 5923,
      "##保": 5924,
      "##射": 5925,
      "##鍵": 5926,
      "##握": 5927,
      "##描": 5928,
      "##河": 5929,
      "##↑": 5930,
      "##ធ": 5931,
      "##ដ": 5932,
      "##ឋ": 5933,
      "##ភ": 5934,
      "##ៃ": 5935,
      "##ព": 5936,
      "##ណ": 5937,
      "##森": 5938,
      "##族": 5939,
      "##迹": 5940,
      "##肏": 5941,
      "##挨": 5942,
      "##拶": 5943,
      "##効": 5944,
      "##具": 5945,
      "##ゝ": 5946,
      "##視": 5947,
      "##庁": 5948,
      "##班": 5949,
      "##芭": 5950,
      "##優": 5951,
      "##秀": 5952,
      "##候": 5953,
      "##補": 5954,
      "##泊": 5955,
      "##ｔ": 5956,
      "##说": 5957,
      "##吗": 5958,
      "##専": 5959,
      "##跡": 5960,
      "##靳": 5961,
      "##鑫": 5962,
      "##确": 5963,
      "##参": 5964,
      "##！": 5965,
      "##怤": 5966,
      "##龍": 5967,
      "##̮": 5968,
      "##們": 5969,
      "##追": 5970,
      "##來": 5971,
      "##韋": 5972,
      "##わ": 5973,
      "##絆": 5974,
      "##守": 5975,
      "##命": 5976,
      "##ं": 5977,
      "##ई": 5978,
      "##親": 5979,
      "##ែ": 5980,
      "##交": 5981,
      "##趾": 5982,
      "##繞": 5983,
      "##耳": 5984,
      "##ѣ": 5985,
      "##非": 5986,
      "##≥": 5987,
      "##導": 5988,
      "##額": 5989,
      "##貨": 5990,
      "##支": 5991,
      "##払": 5992,
      "##端": 5993,
      "##算": 5994,
      "##律": 5995,
      "##术": 5996,
      "##霆": 5997,
      "##鋒": 5998,
      "##創": 5999,
      "##紀": 6000,
      "##碟": 6001,
      "##约": 6002,
      "##±": 6003,
      "##【": 6004,
      "##针": 6005,
      "##仕": 6006,
      "##詳": 6007,
      "##模": 6008,
      "##朱": 6009,
      "##弟": 6010,
      "##对": 6011,
      "##唱": 6012,
      "##喋": 6013,
      "##領": 6014,
      "##ང": 6015,
      "##ར": 6016,
      "##ི": 6017,
      "##黄": 6018,
      "##ྰ": 6019,
      "##ན": 6020,
      "##♫": 6021,
      "##異": 6022,
      "##蕃": 6023,
      "##意": 6024,
      "##電": 6025,
      "##∑": 6026,
      "##ⵢ": 6027,
      "##ⵉ": 6028,
      "##目": 6029,
      "##蒼": 6030,
      "##縁": 6031,
      "##彤": 6032,
      "##ט": 6033,
      "##浴": 6034,
      "##厳": 6035,
      "##禁": 6036,
      "##☐": 6037,
      "##驼": 6038,
      "##ɝ": 6039,
      "##祥": 6040,
      "##楼": 6041,
      "##号": 6042,
      "##慶": 6043,
      "##避": 6044,
      "##率": 6045,
      "##繰": 6046,
      "##聲": 6047,
      "##囯": 6048,
      "##پ": 6049,
      "##ң": 6050,
      "##ӷ": 6051,
      "##丞": 6052,
      "##琳": 6053,
      "##翻": 6054,
      "##奪": 6055,
      "##冠": 6056,
      "##盾": 6057,
      "##程": 6058,
      "##ײ": 6059,
      "##榮": 6060,
      "##騫": 6061,
      "##ץ": 6062,
      "##染": 6063,
      "##署": 6064,
      "##宪": 6065,
      "##落": 6066,
      "##转": 6067,
      "##戻": 6068,
      "##刚": 6069,
      "##幹": 6070,
      "##欧": 6071,
      "##張": 6072,
      "##專": 6073,
      "##輯": 6074,
      "##‌": 6075,
      "##ꭺ": 6076,
      "##ꭲ": 6077,
      "##स": 6078,
      "##色": 6079,
      "##嵐": 6080,
      "##健": 6081,
      "##ব": 6082,
      "##ধ": 6083,
      "##県": 6084,
      "##ᆭ": 6085,
      "##ﬁ": 6086,
      "##遷": 6087,
      "##願": 6088,
      "##役": 6089,
      "##如": 6090,
      "##ʲ": 6091,
      "##现": 6092,
      "##统": 6093,
      "##�": 6094,
      "##沼": 6095,
      "##妖": 6096,
      "##々": 6097,
      "##夢": 6098,
      "##傳": 6099,
      "##板": 6100,
      "##戈": 6101,
      "##壁": 6102,
      "##是": 6103,
      "##豊": 6104,
      "##哪": 6105,
      "##詰": 6106,
      "##件": 6107,
      "##还": 6108,
      "##这": 6109,
      "##両": 6110,
      "##越": 6111,
      "##涯": 6112,
      "##角": 6113,
      "##双": 6114,
      "##蹴": 6115,
      "##宝": 6116,
      "##赤": 6117,
      "##静": 6118,
      "##偶": 6119,
      "##图": 6120,
      "##鹿": 6121,
      "##卿": 6122,
      "##ⲓ": 6123,
      "##ⲣ": 6124,
      "##ⲉ": 6125,
      "##ⲙ": 6126,
      "##ⲛ": 6127,
      "##ⲭ": 6128,
      "##ⲏ": 6129,
      "##ژ": 6130,
      "##软": 6131,
      "##ɡ": 6132,
      "##娛": 6133,
      "##阵": 6134,
      "##容": 6135,
      "##萬": 6136,
      "##陵": 6137,
      "##位": 6138,
      "##舞": 6139,
      "##卑": 6140,
      "##離": 6141,
      "##穂": 6142,
      "##戴": 6143,
      "##导": 6144,
      "##∥": 6145,
      "##忽": 6146,
      "##持": 6147,
      "##婚": 6148,
      "##姻": 6149,
      "##權": 6150,
      "##ী": 6151,
      "##ণ": 6152,
      "##ۈ": 6153,
      "##皆": 6154,
      "##，": 6155,
      "##雁": 6156,
      "##掌": 6157,
      "##帽": 6158,
      "##张": 6159,
      "##钧": 6160,
      "##甯": 6161,
      "##变": 6162,
      "##篇": 6163,
      "##湛": 6164,
      "##ֲ": 6165,
      "##ג": 6166,
      "##©": 6167,
      "##没": 6168,
      "##ީ": 6169,
      "##孔": 6170,
      "##雀": 6171,
      "##组": 6172,
      "##连": 6173,
      "##续": 6174,
      "##姗": 6175,
      "##轄": 6176,
      "##™": 6177,
      "##黒": 6178,
      "##闇": 6179,
      "##怖": 6180,
      "##殊": 6181,
      "##仮": 6182,
      "##遣": 6183,
      "##欲": 6184,
      "##瑋": 6185,
      "##柏": 6186,
      "##騎": 6187,
      "##报": 6188,
      "##颖": 6189,
      "##斩": 6190,
      "##住": 6191,
      "##坊": 6192,
      "##銃": 6193,
      "##ꮼ": 6194,
      "##ꮒ": 6195,
      "##ꭽ": 6196,
      "##降": 6197,
      "##肝": 6198,
      "##徵": 6199,
      "##ۋ": 6200,
      "##敦": 6201,
      "##泽": 6202,
      "##剛": 6203,
      "##戶": 6204,
      "##安": 6205,
      "##證": 6206,
      "##券": 6207,
      "##〜": 6208,
      "##⋮": 6209,
      "##ُ": 6210,
      "##続": 6211,
      "##打": 6212,
      "##込": 6213,
      "##魚": 6214,
      "##涙": 6215,
      "##設": 6216,
      "##棟": 6217,
      "##蕎": 6218,
      "##麦": 6219,
      "##防": 6220,
      "##懿": 6221,
      "##ذ": 6222,
      "##弐": 6223,
      "##康": 6224,
      "##鸟": 6225,
      "##萌": 6226,
      "##众": 6227,
      "##還": 6228,
      "##厚": 6229,
      "##徳": 6230,
      "##汉": 6231,
      "##息": 6232,
      "##偵": 6233,
      "##蝶": 6234,
      "##亭": 6235,
      "##継": 6236,
      "##醤": 6237,
      "##油": 6238,
      "##澳": 6239,
      "##樹": 6240,
      "##−": 6241,
      "##於": 6242,
      "##踢": 6243,
      "##袅": 6244,
      "##石": 6245,
      "##青": 6246,
      "##垣": 6247,
      "##ৃ": 6248,
      "##ক": 6249,
      "##ষ": 6250,
      "##胎": 6251,
      "##塔": 6252,
      "##思": 6253,
      "##船": 6254,
      "##尻": 6255,
      "##韓": 6256,
      "##革": 6257,
      "##階": 6258,
      "##才": 6259,
      "##砲": 6260,
      "##ज": 6261,
      "##湖": 6262,
      "##‹": 6263,
      "##塗": 6264,
      "##竹": 6265,
      "##倫": 6266,
      "##裡": 6267,
      "##琶": 6268,
      "##ᄈ": 6269,
      "##祇": 6270,
      "##鬚": 6271,
      "##扇": 6272,
      "##游": 6273,
      "##戏": 6274,
      "##频": 6275,
      "##鞍": 6276,
      "##ध": 6277,
      "##附": 6278,
      "##值": 6279,
      "##升": 6280,
      "##级": 6281,
      "##戰": 6282,
      "##配": 6283,
      "##晶": 6284,
      "##娘": 6285,
      "##観": 6286,
      "##測": 6287,
      "##職": 6288,
      "##堪": 6289,
      "##感": 6290,
      "##计": 6291,
      "##错": 6292,
      "##误": 6293,
      "##虹": 6294,
      "##酉": 6295,
      "##裁": 6296,
      "##般": 6297,
      "##ռ": 6298,
      "##頼": 6299,
      "##童": 6300,
      "##彼": 6301,
      "##嗇": 6302,
      "##私": 6303,
      "##豐": 6304,
      "##幡": 6305,
      "##威": 6306,
      "##岡": 6307,
      "##ҳ": 6308,
      "##千": 6309,
      "##捨": 6310,
      "##វ": 6311,
      "##ើ": 6312,
      "##舘": 6313,
      "##鏡": 6314,
      "##說": 6315,
      "##遍": 6316,
      "##歸": 6317,
      "##溢": 6318,
      "##納": 6319,
      "##ھ": 6320,
      "##ና": 6321,
      "##蛮": 6322,
      "##旗": 6323,
      "##状": 6324,
      "##伟": 6325,
      "##弃": 6326,
      "##赛": 6327,
      "##炫": 6328,
      "##晋": 6329,
      "##乎": 6330,
      "##畠": 6331,
      "##蛙": 6332,
      "##专": 6333,
      "##推": 6334,
      "##永": 6335,
      "##摘": 6336,
      "##症": 6337,
      "##ੜ": 6338,
      "##ੱ": 6339,
      "##ਪ": 6340,
      "##ਾ": 6341,
      "##揺": 6342,
      "##径": 6343,
      "##擊": 6344,
      "##震": 6345,
      "##雷": 6346,
      "##瓊": 6347,
      "##杵": 6348,
      "##襲": 6349,
      "##媛": 6350,
      "##錦": 6351,
      "##亂": 6352,
      "##朝": 6353,
      "##鲁": 6354,
      "##宋": 6355,
      "##茜": 6356,
      "##微": 6357,
      "##蔡": 6358,
      "##德": 6359,
      "##侯": 6360,
      "##邮": 6361,
      "##倾": 6362,
      "##ҷ": 6363,
      "##ᆬ": 6364,
      "##題": 6365,
      "##懂": 6366,
      "##急": 6367,
      "##覧": 6368,
      "##ɣ": 6369,
      "##亜": 6370,
      "##ˠ": 6371,
      "##ɾ": 6372,
      "##̪": 6373,
      "##侠": 6374,
      "##缘": 6375,
      "##ʀ": 6376,
      "##梨": 6377,
      "##刊": 6378,
      "##磊": 6379,
      "##妇": 6380,
      "##早": 6381,
      "##患": 6382,
      "##难": 6383,
      "##慣": 6384,
      "##退": 6385,
      "##𦟐": 6386,
      "##慳": 6387,
      "##鮮": 6388,
      "##她": 6389,
      "##提": 6390,
      "##己": 6391,
      "##今": 6392,
      "##倶": 6393,
      "##函": 6394,
      "##草": 6395,
      "##罪": 6396,
      "##ી": 6397,
      "##櫃": 6398,
      "##环": 6399,
      "##歷": 6400,
      "##麻": 6401,
      "##ˁ": 6402,
      "##曇": 6403,
      "##撫": 6404,
      "##见": 6405,
      "##評": 6406,
      "##価": 6407,
      "##ք": 6408,
      "##濃": 6409,
      "##ड": 6410,
      "##拟": 6411,
      "##佑": 6412,
      "##重": 6413,
      "##抄": 6414,
      "##例": 6415,
      "##釣": 6416,
      "##轰": 6417,
      "##达": 6418,
      "##沇": 6419,
      "##著": 6420,
      "##寧": 6421,
      "##険": 6422,
      "##坐": 6423,
      "##渤": 6424,
      "##故": 6425,
      "##話": 6426,
      "##ല": 6427,
      "##പ": 6428,
      "##്": 6429,
      "##ു": 6430,
      "##റ": 6431,
      "##ം": 6432,
      "##邱": 6433,
      "##末": 6434,
      "##供": 6435,
      "##兰": 6436,
      "##梦": 6437,
      "##橫": 6438,
      "##掃": 6439,
      "##關": 6440,
      "##織": 6441,
      "##娃": 6442,
      "##鱼": 6443,
      "##诗": 6444,
      "##补": 6445,
      "##惠": 6446,
      "##廳": 6447,
      "##祖": 6448,
      "##♥": 6449,
      "##条": 6450,
      "##円": 6451,
      "##魂": 6452,
      "##သ": 6453,
      "##ခ": 6454,
      "##ါ": 6455,
      "##က": 6456,
      "##＃": 6457,
      "##ᆩ": 6458,
      "##細": 6459,
      "##熊": 6460,
      "##猫": 6461,
      "##浮": 6462,
      "##谢": 6463,
      "##援": 6464,
      "##银": 6465,
      "##因": 6466,
      "##გ": 6467,
      "##魯": 6468,
      "##祠": 6469,
      "##祀": 6470,
      "##桑": 6471,
      "##ټ": 6472,
      "##款": 6473,
      "##卡": 6474,
      "##待": 6475,
      "##ħ": 6476,
      "##號": 6477,
      "##儒": 6478,
      "##ិ": 6479,
      "##ұ": 6480,
      "##ჟ": 6481,
      "##紙": 6482,
      "##紊": 6483,
      "##啼": 6484,
      "##資": 6485,
      "##豪": 6486,
      "##距": 6487,
      "##閃": 6488,
      "##滨": 6489,
      "##ల": 6490,
      "##్": 6491,
      "##ి": 6492,
      "##ም": 6493,
      "##ዝ": 6494,
      "##់": 6495,
      "##児": 6496,
      "##晗": 6497,
      "##杨": 6498,
      "##等": 6499,
      "##値": 6500,
      "##環": 6501,
      "##奈": 6502,
      "##莉": 6503,
      "##耶": 6504,
      "##≤": 6505,
      "##ښ": 6506,
      "##燒": 6507,
      "##謎": 6508,
      "##姑": 6509,
      "##峦": 6510,
      "##&": 6511,
      "##功": 6512,
      "##¿": 6513,
      "##店": 6514,
      "##喰": 6515,
      "##鷲": 6516,
      "##廊": 6517,
      "##曰": 6518,
      "##च": 6519,
      "##婆": 6520,
      "##釈": 6521,
      "##靴": 6522,
      "##江": 6523,
      "##佳": 6524,
      "##穗": 6525,
      "##該": 6526,
      "##胞": 6527,
      "##乐": 6528,
      "##炊": 6529,
      "##尾": 6530,
      "##⚙": 6531,
      "##អ": 6532,
      "##៊": 6533,
      "##ឡ": 6534,
      "##ញ": 6535,
      "##虜": 6536,
      "##病": 6537,
      "##殿": 6538,
      "##泣": 6539,
      "##滑": 6540,
      "##預": 6541,
      "##購": 6542,
      "##綫": 6543,
      "##羽": 6544,
      "##藩": 6545,
      "##盟": 6546,
      "##彭": 6547,
      "##于": 6548,
      "##晏": 6549,
      "##祓": 6550,
      "##販": 6551,
      "##俣": 6552,
      "##奥": 6553,
      "##扬": 6554,
      "##际": 6555,
      "##惡": 6556,
      "##蓓": 6557,
      "##収": 6558,
      "##併": 6559,
      "##適": 6560,
      "##節": 6561,
      "##व": 6562,
      "##စ": 6563,
      "##ယ": 6564,
      "##筹": 6565,
      "##拍": 6566,
      "##फ": 6567,
      "##ڠ": 6568,
      "##侍": 6569,
      "##¯": 6570,
      "##池": 6571,
      "##页": 6572,
      "##况": 6573,
      "##氷": 6574,
      "##ｎ": 6575,
      "##晃": 6576,
      "##錬": 6577,
      "##務": 6578,
      "##°": 6579,
      "##ډ": 6580,
      "##熜": 6581,
      "##達": 6582,
      "##現": 6583,
      "##乃": 6584,
      "##ട": 6585,
      "##殷": 6586,
      "##权": 6587,
      "##响": 6588,
      "##』": 6589,
      "##卍": 6590,
      "##枚": 6591,
      "##暫": 6592,
      "##长": 6593,
      "##郑": 6594,
      "##晓": 6595,
      "##调": 6596,
      "##联": 6597,
      "##滅": 6598,
      "##繼": 6599,
      "##嗣": 6600,
      "##刑": 6601,
      "##‰": 6602,
      "##ǝ": 6603,
      "##簿": 6604,
      "##毎": 6605,
      "##卦": 6606,
      "##庄": 6607,
      "##襄": 6608,
      "##舉": 6609,
      "##披": 6610,
      "##露": 6611,
      "##兒": 6612,
      "##與": 6613,
      "##缺": 6614,
      "##純": 6615,
      "##箇": 6616,
      "##休": 6617,
      "##骨": 6618,
      "##貴": 6619,
      "##幸": 6620,
      "##憲": 6621,
      "##总": 6622,
      "##选": 6623,
      "##ு": 6624,
      "##ட": 6625,
      "##劇": 6626,
      "##湣": 6627,
      "##蒙": 6628,
      "##澤": 6629,
      "##靓": 6630,
      "##霊": 6631,
      "##廟": 6632,
      "##焦": 6633,
      "##愚": 6634,
      "##已": 6635,
      "##财": 6636,
      "##ɹ": 6637,
      "##☉": 6638,
      "##利": 6639,
      "##鵲": 6640,
      "##根": 6641,
      "##斎": 6642,
      "##浩": 6643,
      "##ً": 6644,
      "##ˤ": 6645,
      "##咲": 6646,
      "##ን": 6647,
      "##ሻ": 6648,
      "##ጉ": 6649,
      "##ል": 6650,
      "##謙": 6651,
      "##解": 6652,
      "##験": 6653,
      "##ಂ": 6654,
      "##ಧ": 6655,
      "##喇": 6656,
      "##့": 6657,
      "##峡": 6658,
      "##氣": 6659,
      "##ｓ": 6660,
      "##訪": 6661,
      "##⊞": 6662,
      "##桜": 6663,
      "##鹏": 6664,
      "##敗": 6665,
      "##叡": 6666,
      "##甲": 6667,
      "##闻": 6668,
      "##底": 6669,
      "##遺": 6670,
      "##旺": 6671,
      "##控": 6672,
      "##ং": 6673,
      "##泉": 6674,
      "##澪": 6675,
      "##富": 6676,
      "##边": 6677,
      "##增": 6678,
      "##區": 6679,
      "##此": 6680,
      "##杀": 6681,
      "##无": 6682,
      "##赦": 6683,
      "##衲": 6684,
      "##：": 6685,
      "##給": 6686,
      "##清": 6687,
      "##ʕ": 6688,
      "##傘": 6689,
      "##饅": 6690,
      "##舗": 6691,
      "##印": 6692,
      "##筆": 6693,
      "##灘": 6694,
      "##鐵": 6695,
      "##ظ": 6696,
      "##শ": 6697,
      "##藏": 6698,
      "##飴": 6699,
      "##菓": 6700,
      "##潜": 6701,
      "##｜": 6702,
      "##ⵎ": 6703,
      "##ⵙ": 6704,
      "##ⵜ": 6705,
      "##₹": 6706,
      "##ฬ": 6707,
      "##秩": 6708,
      "##序": 6709,
      "##∂": 6710,
      "##広": 6711,
      "##客": 6712,
      "##賀": 6713,
      "##極": 6714,
      "##陁": 6715,
      "##₱": 6716,
      "##过": 6717,
      "##瘾": 6718,
      "##陈": 6719,
      "##甘": 6720,
      "##柔": 6721,
      "##": 6722,
      "##刀": 6723,
      "##̜": 6724,
      "##絡": 6725,
      "##赵": 6726,
      "##薇": 6727,
      "##怎": 6728,
      "##样": 6729,
      "##驛": 6730,
      "##哉": 6731,
      "##կ": 6732,
      "##噴": 6733,
      "##延": 6734,
      "##佬": 6735,
      "##♭": 6736,
      "##ဝ": 6737,
      "##匠": 6738,
      "##ው": 6739,
      "##ዴ": 6740,
      "##狗": 6741,
      "##ူ": 6742,
      "##𢆥": 6743,
      "##𥪝": 6744,
      "##𡎝": 6745,
      "##𠊛": 6746,
      "##嗟": 6747,
      "##ហ": 6748,
      "##ϕ": 6749,
      "##雲": 6750,
      "##热": 6751,
      "##彬": 6752,
      "##锁": 6753,
      "##夷": 6754,
      "##惑": 6755,
      "##茂": 6756,
      "##續": 6757,
      "##烈": 6758,
      "##歩": 6759,
      "##冊": 6760,
      "##洁": 6761,
      "##輝": 6762,
      "##料": 6763,
      "##芳": 6764,
      "##憐": 6765,
      "##旦": 6766,
      "##叫": 6767,
      "##膚": 6768,
      "##舵": 6769,
      "##辉": 6770,
      "##至": 6771,
      "##盆": 6772,
      "##踊": 6773,
      "##缅": 6774,
      "##售": 6775,
      "##讐": 6776,
      "##妆": 6777,
      "##復": 6778,
      "##締": 6779,
      "##頁": 6780,
      "##ຣ": 6781,
      "##ະ": 6782,
      "##ລ": 6783,
      "##ັ": 6784,
      "##ກ": 6785,
      "##ພ": 6786,
      "##າ": 6787,
      "##ມ": 6788,
      "##為": 6789,
      "##帳": 6790,
      "##ฒ": 6791,
      "##ｃ": 6792,
      "##否": 6793,
      "##廷": 6794,
      "##兴": 6795,
      "##睛": 6796,
      "##ர": 6797,
      "##ந": 6798,
      "##ய": 6799,
      "##ம": 6800,
      "##奖": 6801,
      "##犬": 6802,
      "##ဇ": 6803,
      "##ဒ": 6804,
      "##娱": 6805,
      "##痕": 6806,
      "##管": 6807,
      "##ུ": 6808,
      "##མ": 6809,
      "##颠": 6810,
      "##覆": 6811,
      "##佈": 6812,
      "##止": 6813,
      "##過": 6814,
      "##濾": 6815,
      "##聴": 6816,
      "##𡦂": 6817,
      "##靠": 6818,
      "##恄": 6819,
      "##饒": 6820,
      "##铁": 6821,
      "##ക": 6822,
      "##ഷ": 6823,
      "##ദ": 6824,
      "##വ": 6825,
      "##ീ": 6826,
      "##霖": 6827,
      "##ɕ": 6828,
      "##ʰ": 6829,
      "##ʑ": 6830,
      "##刃": 6831,
      "##砕": 6832,
      "##圾": 6833,
      "##牙": 6834,
      "##ꜣ": 6835,
      "##更": 6836,
      "##挽": 6837,
      "##粉": 6838,
      "##鎮": 6839,
      "##融": 6840,
      "##態": 6841,
      "##調": 6842,
      "##ს": 6843,
      "##誠": 6844,
      "##返": 6845,
      "##架": 6846,
      "##罕": 6847,
      "##そ": 6848,
      "##踏": 6849,
      "##撒": 6850,
      "##冷": 6851,
      "##墓": 6852,
      "##封": 6853,
      "##振": 6854,
      "##税": 6855,
      "##ۍ": 6856,
      "##ရ": 6857,
      "##蜀": 6858,
      "##杉": 6859,
      "##虎": 6860,
      "##揮": 6861,
      "##察": 6862,
      "##थ": 6863,
      "##楚": 6864,
      "##叔": 6865,
      "##湘": 6866,
      "##ይ": 6867,
      "##♡": 6868,
      "##歼": 6869,
      "##霸": 6870,
      "##妃": 6871,
      "##斬": 6872,
      "##跃": 6873,
      "##მ": 6874,
      "##鎚": 6875,
      "##蔵": 6876,
      "##堅": 6877,
      "##漪": 6878,
      "##ை": 6879,
      "##醍": 6880,
      "##醐": 6881,
      "##槍": 6882,
      "##睇": 6883,
      "##實": 6884,
      "##佢": 6885,
      "##哋": 6886,
      "##敢": 6887,
      "##當": 6888,
      "##鄉": 6889,
      "##栋": 6890,
      "##岁": 6891,
      "##塘": 6892,
      "##轅": 6893,
      "##厦": 6894,
      "##┉": 6895,
      "##ద": 6896,
      "##ు": 6897,
      "##వ": 6898,
      "##肃": 6899,
      "##岷": 6900,
      "##嗤": 6901,
      "##懷": 6902,
      "##貓": 6903,
      "##禅": 6904,
      "##扫": 6905,
      "##渊": 6906,
      "##☰": 6907,
      "##牟": 6908,
      "##婁": 6909,
      "##×": 6910,
      "##经": 6911,
      "##粋": 6912,
      "##ღ": 6913,
      "##ძ": 6914,
      "##层": 6915,
      "##设": 6916,
      "##护": 6917,
      "##歯": 6918,
      "##謹": 6919,
      "##炭": 6920,
      "##ව": 6921,
      "##ු": 6922,
      "##ද": 6923,
      "##质": 6924,
      "##笑": 6925,
      "##顔": 6926,
      "##凱": 6927,
      "##旋": 6928,
      "##む": 6929,
      "##琵": 6930,
      "##替": 6931,
      "##暗": 6932,
      "##壌": 6933,
      "##ׂ": 6934,
      "##希": 6935,
      "##稱": 6936,
      "##ວ": 6937,
      "##ຸ": 6938,
      "##佶": 6939,
      "##益": 6940,
      "##ಠ": 6941,
      "##党": 6942,
      "##】": 6943,
      "##邑": 6944,
      "##督": 6945,
      "##运": 6946,
      "##跨": 6947,
      "##强": 6948,
      "##漢": 6949,
      "##衔": 6950,
      "##依": 6951,
      "##恩": 6952,
      "##栄": 6953,
      "##諾": 6954,
      "##恆": 6955,
      "##艾": 6956,
      "##仆": 6957,
      "##盘": 6958,
      "##痛": 6959,
      "##ջ": 6960,
      "##鬼": 6961,
      "##周": 6962,
      "##輩": 6963,
      "##ѕ": 6964,
      "##検": 6965,
      "##ฐ": 6966,
      "##猛": 6967,
      "##棒": 6968,
      "##辿": 6969,
      "##宿": 6970,
      "##៍": 6971,
      "##‭": 6972,
      "##节": 6973,
      "##➝": 6974,
      "##ヱ": 6975,
      "##试": 6976,
      "##戯": 6977,
      "##ծ": 6978,
      "##単": 6979,
      "##標": 6980,
      "##ۇ": 6981,
      "##箒": 6982,
      "##冥": 6983,
      "##舶": 6984,
      "##`": 6985,
      "##句": 6986,
      "##麗": 6987,
      "##ｇ": 6988,
      "##ဖ": 6989,
      "##昌": 6990,
      "##巖": 6991,
      "##尼": 6992,
      "##僧": 6993,
      "##ێ": 6994,
      "##ڕ": 6995,
      "##ག": 6996,
      "##称": 6997,
      "##夙": 6998,
      "##米": 6999,
      "##監": 7000,
      "##寛": 7001,
      "##贸": 7002,
      "##脇": 7003,
      "##農": 7004,
      "##歐": 7005,
      "##ថ": 7006,
      "##ួ": 7007,
      "##踞": 7008,
      "##类": 7009,
      "##錄": 7010,
      "##渕": 7011,
      "##渡": 7012,
      "##纲": 7013,
      "##编": 7014,
      "##桐": 7015,
      "##瓠": 7016,
      "##虾": 7017,
      "##捲": 7018,
      "##̻": 7019,
      "##भ": 7020,
      "##ट": 7021,
      "##艶": 7022,
      "##鹰": 7023,
      "##礼": 7024,
      "##ے": 7025,
      "##အ": 7026,
      "##隠": 7027,
      "##ĸ": 7028,
      "##桃": 7029,
      "##议": 7030,
      "##举": 7031,
      "##聶": 7032,
      "##撰": 7033,
      "##減": 7034,
      "##曼": 7035,
      "##丹": 7036,
      "##概": 7037,
      "##办": 7038,
      "##厅": 7039,
      "##救": 7040,
      "##駆": 7041,
      "##逐": 7042,
      "##ঘ": 7043,
      "##ℏ": 7044,
      "##抜": 7045,
      "##紺": 7046,
      "##ྫ": 7047,
      "##ོ": 7048,
      "##亀": 7049,
      "##菊": 7050,
      "##ܒ": 7051,
      "##ܝ": 7052,
      "##激": 7053,
      "##诠": 7054,
      "##释": 7055,
      "##均": 7056,
      "##敷": 7057,
      "##嶋": 7058,
      "##埼": 7059,
      "##須": 7060,
      "##諭": 7061,
      "##尚": 7062,
      "##紫": 7063,
      "##災": 7064,
      "##脈": 7065,
      "##判": 7066,
      "##ዲ": 7067,
      "##ስ": 7068,
      "##汁": 7069,
      "##炖": 7070,
      "##鱿": 7071,
      "##焉": 7072,
      "##害": 7073,
      "##ڑ": 7074,
      "##示": 7075,
      "##唆": 7076,
      "##固": 7077,
      "##柳": 7078,
      "##牌": 7079,
      "##ｂ": 7080,
      "##雙": 7081,
      "##贏": 7082,
      "##荘": 7083,
      "##ｗ": 7084,
      "##潟": 7085,
      "##條": 7086,
      "##煮": 7087,
      "##珉": 7088,
      "##涉": 7089,
      "##嫌": 7090,
      "##严": 7091,
      "##违": 7092,
      "##查": 7093,
      "##包": 7094,
      "##揽": 7095,
      "##项": 7096,
      "##脑": 7097,
      "##渠": 7098,
      "##誓": 7099,
      "##、": 7100,
      "##呼": 7101,
      "##宸": 7102,
      "##兔": 7103,
      "##爵": 7104,
      "##姜": 7105,
      "##象": 7106,
      "##余": 7107,
      "##泱": 7108,
      "##载": 7109,
      "##源": 7110,
      "##秋": 7111,
      "##置": 7112,
      "##哈": 7113,
      "##塚": 7114,
      "##ឆ": 7115,
      "##ख": 7116,
      "##决": 7117,
      "##ெ": 7118,
      "##ல": 7119,
      "##刘": 7120,
      "##亦": 7121,
      "##菲": 7122,
      "##问": 7123,
      "##爰": 7124,
      "##片": 7125,
      "##隅": 7126,
      "##": 7127,
      "##勳": 7128,
      "##资": 7129,
      "##ぬ": 7130,
      "##礫": 7131,
      "##昇": 7132,
      "##夺": 7133,
      "##鈞": 7134,
      "##ғ": 7135,
      "##勿": 7136,
      "##☒": 7137,
      "##鼎": 7138,
      "##壮": 7139,
      "##累": 7140,
      "##尊": 7141,
      "##愿": 7142,
      "##ည": 7143,
      "##ထ": 7144,
      "##亡": 7145,
      "##摂": 7146,
      "##麼": 7147,
      "##胃": 7148,
      "##梓": 7149,
      "##姆": 7150,
      "##餐": 7151,
      "##颁": 7152,
      "##证": 7153,
      "##／": 7154,
      "##綱": 7155,
      "##满": 7156,
      "##様": 7157,
      "##禾": 7158,
      "##淳": 7159,
      "##习": 7160,
      "##惯": 7161,
      "##ా": 7162,
      "##ర": 7163,
      "##ֿ": 7164,
      "##ʹ": 7165,
      "##処": 7166,
      "##邪": 7167,
      "##ල": 7168,
      "##浒": 7169,
      "##犯": 7170,
      "##╯": 7171,
      "##□": 7172,
      "##）": 7173,
      "##︵": 7174,
      "##巻": 7175,
      "##ⵏ": 7176,
      "##藝": 7177,
      "##ៀ": 7178,
      "##膺": 7179,
      "##賜": 7180,
      "##掘": 7181,
      "##梵": 7182,
      "##巳": 7183,
      "##〈": 7184,
      "##右": 7185,
      "##蝴": 7186,
      "##ɨ": 7187,
      "##焼": 7188,
      "##焔": 7189,
      "##ɜ": 7190,
      "##歡": 7191,
      "##盂": 7192,
      "##廈": 7193,
      "##赴": 7194,
      "##塞": 7195,
      "##篠": 7196,
      "##肆": 7197,
      "##獵": 7198,
      "##拳": 7199,
      "##互": 7200,
      "##玲": 7201,
      "##珑": 7202,
      "##嗹": 7203,
      "##・": 7204,
      "##码": 7205,
      "##ৗ": 7206,
      "##潔": 7207,
      "##横": 7208,
      "##廬": 7209,
      "##紋": 7210,
      "##壊": 7211,
      "##奏": 7212,
      "##苑": 7213,
      "##录": 7214,
      "##祉": 7215,
      "##血": 7216,
      "##庵": 7217,
      "##ⴾ": 7218,
      "##ⵔ": 7219,
      "##菱": 7220,
      "##ៅ": 7221,
      "##韵": 7222,
      "##煊": 7223,
      "##劣": 7224,
      "##კ": 7225,
      "##唯": 7226,
      "##塵": 7227,
      "##譬": 7228,
      "##詠": 7229,
      "##鄭": 7230,
      "##發": 7231,
      "##輿": 7232,
      "##评": 7233,
      "##ބ": 7234,
      "##忍": 7235,
      "##冒": 7236,
      "##ত": 7237,
      "##步": 7238,
      "##阐": 7239,
      "##关": 7240,
      "##归": 7241,
      "##拯": 7242,
      "##麩": 7243,
      "##～": 7244,
      "##畑": 7245,
      "##勲": 7246,
      "##免": 7247,
      "##滦": 7248,
      "##檢": 7249,
      "##ই": 7250,
      "##。": 7251,
      "##键": 7252,
      "##锋": 7253,
      "##冤": 7254,
      "##跟": 7255,
      "##姦": 7256,
      "##沉": 7257,
      "##仍": 7258,
      "##瞰": 7259,
      "##凡": 7260,
      "##鹸": 7261,
      "##掲": 7262,
      "##营": 7263,
      "##鶴": 7264,
      "##熹": 7265,
      "##ө": 7266,
      "##颂": 7267,
      "##諮": 7268,
      "##詢": 7269,
      "##責": 7270,
      "##茵": 7271,
      "##詩": 7272,
      "##据": 7273,
      "##享": 7274,
      "##¨": 7275,
      "##洪": 7276,
      "##侅": 7277,
      "##÷": 7278,
      "##憩": 7279,
      "##ங": 7280,
      "##க": 7281,
      "##ூ": 7282,
      "##往": 7283,
      "##閣": 7284,
      "##諸": 7285,
      "##蕭": 7286,
      "##暦": 7287,
      "##☆": 7288,
      "##坡": 7289,
      "##歉": 7290,
      "##̺": 7291,
      "##陣": 7292,
      "##妮": 7293,
      "##告": 7294,
      "##済": 7295,
      "##柱": 7296,
      "##砂": 7297,
      "##抱": 7298,
      "##幅": 7299,
      "##沛": 7300,
      "##瑤": 7301,
      "##遭": 7302,
      "##警": 7303,
      "##循": 7304,
      "##ճ": 7305,
      "##触": 7306,
      "##逃": 7307,
      "##銕": 7308,
      "##ॉ": 7309,
      "##ɴ": 7310,
      "##伴": 7311,
      "##峴": 7312,
      "##恐": 7313,
      "##杞": 7314,
      "##✓": 7315,
      "##嘴": 7316,
      "##綠": 7317,
      "##腳": 7318,
      "##繕": 7319,
      "##ဋ": 7320,
      "##這": 7321,
      "##找": 7322,
      "##烦": 7323,
      "##橙": 7324,
      "##含": 7325,
      "##徹": 7326,
      "##析": 7327,
      "##疾": 7328,
      "##预": 7329,
      "##闺": 7330,
      "##蜜": 7331,
      "##毅": 7332,
      "##軌": 7333,
      "##喫": 7334,
      "##蹄": 7335,
      "##夭": 7336,
      "##憑": 7337,
      "##ぁ": 7338,
      "##素": 7339,
      "##核": 7340,
      "##⇭": 7341,
      "##求": 7342,
      "##假": 7343,
      "##跑": 7344,
      "##矿": 7345,
      "##宁": 7346,
      "##汝": 7347,
      "##ӄ": 7348,
      "##裕": 7349,
      "##丧": 7350,
      "##娜": 7351,
      "##偏": 7352,
      "##ʖ": 7353,
      "##駿": 7354,
      "##縫": 7355,
      "##躍": 7356,
      "##詞": 7357,
      "##ⵄ": 7358,
      "##爆": 7359,
      "##ｏ": 7360,
      "##順": 7361,
      "##去": 7362,
      "##朴": 7363,
      "##খ": 7364,
      "##ও": 7365,
      "##摩": 7366,
      "##̟": 7367,
      "##泻": 7368,
      "##帅": 7369,
      "##薩": 7370,
      "##卖": 7371,
      "##似": 7372,
      "##眸": 7373,
      "##剩": 7374,
      "##呂": 7375,
      "##廠": 7376,
      "##衢": 7377,
      "##拾": 7378,
      "##∆": 7379,
      "##訳": 7380,
      "##労": 7381,
      "##ޖ": 7382,
      "##勾": 7383,
      "##迫": 7384,
      "##狭": 7385,
      "##紳": 7386,
      "##": 7387,
      "##ｅ": 7388,
      "##釁": 7389,
      "##違": 7390,
      "##屏": 7391,
      "##携": 7392,
      "##绎": 7393,
      "##紹": 7394,
      "##♗": 7395,
      "##亨": 7396,
      "##认": 7397,
      "##ֱ": 7398,
      "##゜": 7399,
      "##ը": 7400,
      "##谎": 7401,
      "##《": 7402,
      "##纾": 7403,
      "##译": 7404,
      "##ْ": 7405,
      "##巧": 7406,
      "##鏞": 7407,
      "##喆": 7408,
      "##普": 7409,
      "##绽": 7410,
      "##记": 7411,
      "##除": 7412,
      "##恵": 7413,
      "##挺": 7414,
      "##顯": 7415,
      "##啟": 7416,
      "##謨": 7417,
      "##濟": 7418,
      "##謀": 7419,
      "##匡": 7420,
      "##辟": 7421,
      "##肇": 7422,
      "##衍": 7423,
      "##佐": 7424,
      "##垂": 7425,
      "##篤": 7426,
      "##弼": 7427,
      "##輔": 7428,
      "##贊": 7429,
      "##耀": 7430,
      "##緒": 7431,
      "##綏": 7432,
      "##祿": 7433,
      "##耿": 7434,
      "##丕": 7435,
      "##扶": 7436,
      "##祚": 7437,
      "##鴻": 7438,
      "##綿": 7439,
      "##燕": 7440,
      "##豁": 7441,
      "##寬": 7442,
      "##陳": 7443,
      "##斷": 7444,
      "##疆": 7445,
      "##睿": 7446,
      "##恭": 7447,
      "##廓": 7448,
      "##恢": 7449,
      "##齊": 7450,
      "##聰": 7451,
      "##仗": 7452,
      "##殘": 7453,
      "##傑": 7454,
      "##崇": 7455,
      "##偉": 7456,
      "##兆": 7457,
      "##桂": 7458,
      "##駒": 7459,
      "##萃": 7460,
      "##齋": 7461,
      "##搬": 7462,
      "##馀": 7463,
      "##灵": 7464,
      "##驹": 7465,
      "##⹋": 7466,
      "##錢": 7467,
      "##然": 7468,
      "##刪": 7469,
      "##倪": 7470,
      "##滝": 7471,
      "##您": 7472,
      "##漏": 7473,
      "##枝": 7474,
      "##怒": 7475,
      "##诞": 7476,
      "##辰": 7477,
      "##ѳ": 7478,
      "##ක": 7479,
      "##ම": 7480,
      "##ා": 7481,
      "##ය": 7482,
      "##腹": 7483,
      "##掛": 7484,
      "##漿": 7485,
      "##蜻": 7486,
      "##蛉": 7487,
      "##忑": 7488,
      "##宰": 7489,
      "##许": 7490,
      "##戒": 7491,
      "##በ": 7492,
      "##ባ": 7493,
      "##沒": 7494,
      "##𣷭": 7495,
      "##橷": 7496,
      "##丈": 7497,
      "##陷": 7498,
      "##纠": 7499,
      "##渺": 7500,
      "##ᅤ": 7501,
      "##ヨ": 7502,
      "##ヮ": 7503,
      "##ﾟ": 7504,
      "##儼": 7505,
      "##红": 7506,
      "##闭": 7507,
      "##孝": 7508,
      "##އ": 7509,
      "##ސ": 7510,
      "##ު": 7511,
      "##ލ": 7512,
      "##ޠ": 7513,
      "##佃": 7514,
      "##迪": 7515,
      "##胧": 7516,
      "##叉": 7517,
      "##结": 7518,
      "##带": 7519,
      "##狙": 7520,
      "##眞": 7521,
      "##貿": 7522,
      "##♝": 7523,
      "##🐁": 7524,
      "##裳": 7525,
      "##－": 7526,
      "##皮": 7527,
      "##鞑": 7528,
      "##杰": 7529,
      "##論": 7530,
      "##徒": 7531,
      "##瑩": 7532,
      "##咕": 7533,
      "##嗶": 7534,
      "##遗": 7535,
      "##址": 7536,
      "##鰻": 7537,
      "##奠": 7538,
      "##爭": 7539,
      "##朵": 7540,
      "##≈": 7541,
      "##贵": 7542,
      "##樨": 7543,
      "##藻": 7544,
      "##俗": 7545,
      "##𥉩": 7546,
      "##𧡊": 7547,
      "##罵": 7548,
      "##𤴬": 7549,
      "##疸": 7550,
      "##𢚸": 7551,
      "##嘢": 7552,
      "##講": 7553,
      "##履": 7554,
      "##孫": 7555,
      "##悟": 7556,
      "##▮": 7557,
      "##漁": 7558,
      "##曦": 7559,
      "##鬥": 7560,
      "##弓": 7561,
      "##岗": 7562,
      "##匂": 7563,
      "##曽": 7564,
      "##☞": 7565,
      "##脫": 7566,
      "##幌": 7567,
      "##嬬": 7568,
      "##ള": 7569,
      "##ഭ": 7570,
      "##փ": 7571,
      "##ŧ": 7572,
      "##¢": 7573,
      "##处": 7574,
      "##␀": 7575,
      "##钟": 7576,
      "##购": 7577,
      "##﻿": 7578,
      "##脱": 7579,
      "##ฆ": 7580,
      "##宜": 7581,
      "##ܥ": 7582,
      "##ܠ": 7583,
      "##ܐ": 7584,
      "##ዕ": 7585,
      "##桌": 7586,
      "##範": 7587,
      "##暮": 7588,
      "##瑞": 7589,
      "##": 7590,
      "##憂": 7591,
      "##℃": 7592,
      "##昊": 7593,
      "##ｒ": 7594,
      "##討": 7595,
      "##琊": 7596,
      "##硬": 7597,
      "##些": 7598,
      "##深": 7599,
      "##畫": 7600,
      "##收": 7601,
      "##費": 7602,
      "##薔": 7603,
      "##圖": 7604,
      "##❄": 7605,
      "##墙": 7606,
      "##ng": 7607,
      "##ư": 7608,
      "##ê": 7609,
      "##ơ": 7610,
      "##ô": 7611,
      "##à": 7612,
      "##̣̂": 7613,
      "th": 7614,
      "##â": 7615,
      "##á": 7616,
      "##nh": 7617,
      "ch": 7618,
      "##ươ": 7619,
      "tr": 7620,
      "##iê": 7621,
      "##ạ": 7622,
      "nh": 7623,
      "kh": 7624,
      "##ó": 7625,
      "ng": 7626,
      "##ả": 7627,
      "##ộ": 7628,
      "##ệ": 7629,
      "ph": 7630,
      "##́t": 7631,
      "##̣c": 7632,
      "##ă": 7633,
      "cu": 7634,
      "và": 7635,
      "##́c": 7636,
      "qu": 7637,
      "##ác": 7638,
      "##iệ": 7639,
      "gi": 7640,
      "##̀ng": 7641,
      "##ông": 7642,
      "##ố": 7643,
      "##ậ": 7644,
      "##̉a": 7645,
      "##ị": 7646,
      "của": 7647,
      "##ế": 7648,
      "##ì": 7649,
      "là": 7650,
      "##̀i": 7651,
      "##̀u": 7652,
      "có": 7653,
      "ho": 7654,
      "##̀n": 7655,
      "tô": 7656,
      "##ớ": 7657,
      "##ể": 7658,
      "các": 7659,
      "như": 7660,
      "##́ng": 7661,
      "chu": 7662,
      "##ột": 7663,
      "##ấ": 7664,
      "##ại": 7665,
      "##ã": 7666,
      "một": 7667,
      "##ới": 7668,
      "đươ": 7669,
      "##an": 7670,
      "##ất": 7671,
      "##í": 7672,
      "tro": 7673,
      "không": 7674,
      "##ên": 7675,
      "tư": 7676,
      "được": 7677,
      "##ày": 7678,
      "ngh": 7679,
      "thu": 7680,
      "##̃ng": 7681,
      "tôi": 7682,
      "trong": 7683,
      "##ản": 7684,
      "##ân": 7685,
      "quy": 7686,
      "##ình": 7687,
      "##̣ng": 7688,
      "đị": 7689,
      "##ười": 7690,
      "##iều": 7691,
      "##ặ": 7692,
      "##ành": 7693,
      "cho": 7694,
      "##iện": 7695,
      "với": 7696,
      "##ề": 7697,
      "người": 7698,
      "##ải": 7699,
      "##ạn": 7700,
      "thư": 7701,
      "tiê": 7702,
      "đâ": 7703,
      "du": 7704,
      "sư": 7705,
      "##iể": 7706,
      "định": 7707,
      "##́n": 7708,
      "đã": 7709,
      "##ợ": 7710,
      "##ay": 7711,
      "##ao": 7712,
      "nă": 7713,
      "chư": 7714,
      "những": 7715,
      "nó": 7716,
      "##ước": 7717,
      "##̉i": 7718,
      "##ối": 7719,
      "đô": 7720,
      "##iên": 7721,
      "##ần": 7722,
      "thể": 7723,
      "độ": 7724,
      "đó": 7725,
      "điều": 7726,
      "##ật": 7727,
      "này": 7728,
      "công": 7729,
      "##ết": 7730,
      "##ài": 7731,
      "##ính": 7732,
      "##uy": 7733,
      "co": 7734,
      "khi": 7735,
      "để": 7736,
      "##anh": 7737,
      "phá": 7738,
      "##ận": 7739,
      "việ": 7740,
      "the": 7741,
      "##́p": 7742,
      "về": 7743,
      "##ai": 7744,
      "##̉ng": 7745,
      "bạn": 7746,
      "chi": 7747,
      "##ến": 7748,
      "##ẽ": 7749,
      "##inh": 7750,
      "##àng": 7751,
      "ơ": 7752,
      "ta": 7753,
      "##au": 7754,
      "số": 7755,
      "##ương": 7756,
      "##ang": 7757,
      "do": 7758,
      "##ường": 7759,
      "chúng": 7760,
      "theo": 7761,
      "ra": 7762,
      "##ời": 7763,
      "##ập": 7764,
      "##ấy": 7765,
      "năm": 7766,
      "kho": 7767,
      "vào": 7768,
      "ở": 7769,
      "phải": 7770,
      "##ý": 7771,
      "##in": 7772,
      "##ặc": 7773,
      "lu": 7774,
      "quan": 7775,
      "##ẩ": 7776,
      "việc": 7777,
      "cả": 7778,
      "đến": 7779,
      "cá": 7780,
      "##ữ": 7781,
      "##ằng": 7782,
      "cơ": 7783,
      "sẽ": 7784,
      "làm": 7785,
      "##àn": 7786,
      "##iết": 7787,
      "mu": 7788,
      "đầu": 7789,
      "##..": 7790,
      "vu": 7791,
      "##ở": 7792,
      "tại": 7793,
      "từ": 7794,
      "anh": 7795,
      "nhà": 7796,
      "chính": 7797,
      "##ợp": 7798,
      "thực": 7799,
      "to": 7800,
      "hợp": 7801,
      "ô": 7802,
      "##áng": 7803,
      "hiện": 7804,
      "##iểm": 7805,
      "sự": 7806,
      "cư": 7807,
      "##ơn": 7808,
      "giá": 7809,
      "động": 7810,
      "##ấp": 7811,
      "phu": 7812,
      "##ĩ": 7813,
      "nước": 7814,
      "hành": 7815,
      "bộ": 7816,
      "dư": 7817,
      "cô": 7818,
      "lại": 7819,
      "##ống": 7820,
      "##am": 7821,
      "ngày": 7822,
      "##̃n": 7823,
      "thành": 7824,
      "##ây": 7825,
      "##ội": 7826,
      "chỉ": 7827,
      "xu": 7828,
      "dụng": 7829,
      "khác": 7830,
      "mà": 7831,
      "##er": 7832,
      "##ền": 7833,
      "hoặc": 7834,
      "lý": 7835,
      "##ảo": 7836,
      "##̀m": 7837,
      "chuy": 7838,
      "thông": 7839,
      "sau": 7840,
      "##án": 7841,
      "##ộc": 7842,
      "tu": 7843,
      "trên": 7844,
      "lo": 7845,
      "hàng": 7846,
      "hô": 7847,
      "##iệu": 7848,
      "bị": 7849,
      "##ực": 7850,
      "##ốn": 7851,
      "##ạt": 7852,
      "##ếu": 7853,
      "họ": 7854,
      "nhân": 7855,
      "##ốc": 7856,
      "nói": 7857,
      "nghiệ": 7858,
      "ông": 7859,
      "##ào": 7860,
      "chức": 7861,
      "đi": 7862,
      "nhưng": 7863,
      "##iến": 7864,
      "đối": 7865,
      "##ar": 7866,
      "â": 7867,
      "con": 7868,
      "##ăn": 7869,
      "trường": 7870,
      "##ờ": 7871,
      "##ầu": 7872,
      "##ch": 7873,
      "đồng": 7874,
      "##́ch": 7875,
      "tổ": 7876,
      "tru": 7877,
      "nhận": 7878,
      "vụ": 7879,
      "##en": 7880,
      "thế": 7881,
      "thời": 7882,
      "##ọ": 7883,
      "##̣ch": 7884,
      "cấp": 7885,
      "nếu": 7886,
      "pháp": 7887,
      "sản": 7888,
      "##on": 7889,
      "trình": 7890,
      "##ách": 7891,
      "##ịch": 7892,
      "bảo": 7893,
      "##ượng": 7894,
      "bản": 7895,
      "##ắt": 7896,
      "mình": 7897,
      "hơn": 7898,
      "thì": 7899,
      "gì": 7900,
      "##ạo": 7901,
      "cũng": 7902,
      "##ăng": 7903,
      "nghiệp": 7904,
      "xe": 7905,
      "tháng": 7906,
      "##ặt": 7907,
      "tài": 7908,
      "gia": 7909,
      "##ưởng": 7910,
      "phát": 7911,
      "mô": 7912,
      "đư": 7913,
      "đây": 7914,
      "sử": 7915,
      "##ẩm": 7916,
      "học": 7917,
      "đang": 7918,
      "##ái": 7919,
      "đu": 7920,
      "cách": 7921,
      "##ẫn": 7922,
      "thấy": 7923,
      "biết": 7924,
      "ngo": 7925,
      "nghĩ": 7926,
      "ư": 7927,
      "xuất": 7928,
      "##át": 7929,
      "##iển": 7930,
      "##ắc": 7931,
      "vi": 7932,
      "quyền": 7933,
      "nhất": 7934,
      "doanh": 7935,
      "ky": 7936,
      "rằng": 7937,
      "vì": 7938,
      "##ơi": 7939,
      "hội": 7940,
      "nhiều": 7941,
      "tin": 7942,
      "quyết": 7943,
      "bằng": 7944,
      "##́u": 7945,
      "bá": 7946,
      "##ồi": 7947,
      "luật": 7948,
      "##ọi": 7949,
      "đo": 7950,
      "##iệm": 7951,
      "trước": 7952,
      "nào": 7953,
      "dự": 7954,
      "quản": 7955,
      "##ích": 7956,
      "##uô": 7957,
      "kinh": 7958,
      "##ạm": 7959,
      "kết": 7960,
      "##ẻ": 7961,
      "quốc": 7962,
      "##̃i": 7963,
      "pho": 7964,
      "##ữa": 7965,
      "hình": 7966,
      "sở": 7967,
      "tế": 7968,
      "đá": 7969,
      "còn": 7970,
      "phí": 7971,
      "##âu": 7972,
      "tự": 7973,
      "##ậy": 7974,
      "ấ": 7975,
      "liên": 7976,
      "ban": 7977,
      "##ện": 7978,
      "chủ": 7979,
      "cái": 7980,
      "##ấu": 7981,
      "hoạt": 7982,
      "lên": 7983,
      "##ấn": 7984,
      "##̀a": 7985,
      "##ắn": 7986,
      "kiểm": 7987,
      "báo": 7988,
      "viên": 7989,
      "##ổ": 7990,
      "nhiệm": 7991,
      "đề": 7992,
      "ấy": 7993,
      "án": 7994,
      "##or": 7995,
      "dân": 7996,
      "khoản": 7997,
      "cần": 7998,
      "##́m": 7999,
      "tiếp": 8000,
      "##ạch": 8001,
      "hai": 8002,
      "chứng": 8003,
      "trung": 8004,
      "##al": 8005,
      "##ỏ": 8006,
      "điểm": 8007,
      "##es": 8008,
      "thủ": 8009,
      "##̉nh": 8010,
      "em": 8011,
      "##ển": 8012,
      "phần": 8013,
      "khu": 8014,
      "##óa": 8015,
      "##ảng": 8016,
      "##êu": 8017,
      "dịch": 8018,
      "cùng": 8019,
      "qua": 8020,
      "##iểu": 8021,
      "lượng": 8022,
      "muốn": 8023,
      "nghị": 8024,
      "tiền": 8025,
      "ngoài": 8026,
      "vậy": 8027,
      "##ướng": 8028,
      "lập": 8029,
      "nên": 8030,
      "vị": 8031,
      "##ảm": 8032,
      "##el": 8033,
      "##ẹ": 8034,
      "sinh": 8035,
      "phương": 8036,
      "##ức": 8037,
      "tuy": 8038,
      "...": 8039,
      "thứ": 8040,
      "ý": 8041,
      "##ậu": 8042,
      "tính": 8043,
      "phòng": 8044,
      "đổi": 8045,
      "su": 8046,
      "giờ": 8047,
      "năng": 8048,
      "toàn": 8049,
      "##âm": 8050,
      "##iệt": 8051,
      "rất": 8052,
      "tạo": 8053,
      "cầu": 8054,
      "thường": 8055,
      "đại": 8056,
      "bao": 8057,
      "nam": 8058,
      "giao": 8059,
      "tra": 8060,
      "nguy": 8061,
      "ty": 8062,
      "##áy": 8063,
      "hạn": 8064,
      "an": 8065,
      "đơn": 8066,
      "sao": 8067,
      "lớ": 8068,
      "##ạng": 8069,
      "##ệnh": 8070,
      "chuyển": 8071,
      "rồi": 8072,
      "cuộc": 8073,
      "giải": 8074,
      "##́i": 8075,
      "xây": 8076,
      "dựng": 8077,
      "mặt": 8078,
      "quá": 8079,
      "văn": 8080,
      "##ia": 8081,
      "liệu": 8082,
      "trị": 8083,
      "hay": 8084,
      "hóa": 8085,
      "hệ": 8086,
      "trở": 8087,
      "thống": 8088,
      "ký": 8089,
      "vật": 8090,
      "lư": 8091,
      "triển": 8092,
      "##at": 8093,
      "bên": 8094,
      "chất": 8095,
      "gian": 8096,
      "kế": 8097,
      "thuộc": 8098,
      "##ởi": 8099,
      "mới": 8100,
      "lực": 8101,
      "ro": 8102,
      "toán": 8103,
      "thiết": 8104,
      "chế": 8105,
      "đất": 8106,
      "tác": 8107,
      "so": 8108,
      "thức": 8109,
      "##ép": 8110,
      "điện": 8111,
      "cảm": 8112,
      "quả": 8113,
      "địa": 8114,
      "tiêu": 8115,
      "xác": 8116,
      "đường": 8117,
      "giới": 8118,
      "yêu": 8119,
      "phạm": 8120,
      "tới": 8121,
      "hã": 8122,
      "bắt": 8123,
      "##ìm": 8124,
      "loại": 8125,
      "xư": 8126,
      "thuế": 8127,
      "##....": 8128,
      "hiệu": 8129,
      "ti": 8130,
      "##ạnh": 8131,
      "cao": 8132,
      "sách": 8133,
      "nhập": 8134,
      "##é": 8135,
      "##ẩn": 8136,
      "chuyện": 8137,
      "thay": 8138,
      "##is": 8139,
      "chiê": 8140,
      "tập": 8141,
      "dươ": 8142,
      "phủ": 8143,
      "##ìn": 8144,
      "tho": 8145,
      "tìm": 8146,
      "mọi": 8147,
      "giấy": 8148,
      "thị": 8149,
      "thẩm": 8150,
      "##ic": 8151,
      "lần": 8152,
      "phẩm": 8153,
      "lớn": 8154,
      "máy": 8155,
      "##ẳng": 8156,
      "kỳ": 8157,
      "cậu": 8158,
      "##le": 8159,
      "##ẩu": 8160,
      "##as": 8161,
      "tất": 8162,
      "truy": 8163,
      "mục": 8164,
      "##̉y": 8165,
      "tên": 8166,
      "việt": 8167,
      "hồ": 8168,
      "đê": 8169,
      "xã": 8170,
      "phép": 8171,
      "tổng": 8172,
      "trách": 8173,
      "tay": 8174,
      "nhìn": 8175,
      "cứ": 8176,
      "nơi": 8177,
      "dẫn": 8178,
      "bởi": 8179,
      "cáo": 8180,
      "sống": 8181,
      "thương": 8182,
      "##ạc": 8183,
      "##̀y": 8184,
      "nội": 8185,
      "ngân": 8186,
      "##ổi": 8187,
      "khai": 8188,
      "sơ": 8189,
      "khẩu": 8190,
      "hoạch": 8191,
      "bu": 8192,
      "##́a": 8193,
      "nhiên": 8194,
      "tình": 8195,
      "phân": 8196,
      "##ộng": 8197,
      "trưởng": 8198,
      "hãy": 8199,
      "hướng": 8200,
      "bất": 8201,
      "gô": 8202,
      "gh": 8203,
      "##ôi": 8204,
      "bệnh": 8205,
      "thanh": 8206,
      "ứng": 8207,
      "##ợi": 8208,
      "##it": 8209,
      "##iễn": 8210,
      "tâm": 8211,
      "giu": 8212,
      "##il": 8213,
      "trọng": 8214,
      "##ôn": 8215,
      "ai": 8216,
      "sát": 8217,
      "hoàn": 8218,
      "xử": 8219,
      "hu": 8220,
      "vẫn": 8221,
      "tục": 8222,
      "##ắng": 8223,
      "bà": 8224,
      "chị": 8225,
      "##et": 8226,
      "mức": 8227,
      "thật": 8228,
      "tiên": 8229,
      "tiếng": 8230,
      "chưa": 8231,
      "dùng": 8232,
      "nữa": 8233,
      "nhau": 8234,
      "xem": 8235,
      "cứu": 8236,
      "##̣n": 8237,
      "##ảy": 8238,
      "vực": 8239,
      "giúp": 8240,
      "tốt": 8241,
      "nguyên": 8242,
      "##im": 8243,
      "vốn": 8244,
      "vấn": 8245,
      "giáo": 8246,
      "bán": 8247,
      "kiện": 8248,
      "đủ": 8249,
      "thi": 8250,
      "đánh": 8251,
      "duy": 8252,
      "nghĩa": 8253,
      "chiến": 8254,
      "trợ": 8255,
      "lã": 8256,
      "ă": 8257,
      "##ệt": 8258,
      "##ầm": 8259,
      "kể": 8260,
      ").": 8261,
      "bố": 8262,
      "gồm": 8263,
      "##óng": 8264,
      "lệ": 8265,
      "vo": 8266,
      "##ro": 8267,
      "từng": 8268,
      "gọi": 8269,
      "đúng": 8270,
      "trả": 8271,
      "thích": 8272,
      "phụ": 8273,
      "lúc": 8274,
      "thuật": 8275,
      "##iếu": 8276,
      "ăn": 8277,
      "cố": 8278,
      "tham": 8279,
      "ba": 8280,
      "đưa": 8281,
      "đăng": 8282,
      "##uồn": 8283,
      "đảm": 8284,
      "vệ": 8285,
      "##ánh": 8286,
      "##ẫ": 8287,
      "##óc": 8288,
      "nghe": 8289,
      "biệt": 8290,
      "lao": 8291,
      "giữa": 8292,
      "##us": 8293,
      "lời": 8294,
      "đặc": 8295,
      "\".": 8296,
      "hỏi": 8297,
      "nghệ": 8298,
      "trư": 8299,
      "bỏ": 8300,
      "hết": 8301,
      "phục": 8302,
      "tiến": 8303,
      "tăng": 8304,
      "ngay": 8305,
      "trí": 8306,
      "##ặp": 8307,
      "cổ": 8308,
      "đều": 8309,
      "mua": 8310,
      "dưới": 8311,
      "giám": 8312,
      "tương": 8313,
      "phố": 8314,
      "##ộp": 8315,
      "dung": 8316,
      "ảnh": 8317,
      "trực": 8318,
      "cung": 8319,
      "tỉnh": 8320,
      "diện": 8321,
      "biến": 8322,
      "vận": 8323,
      "danh": 8324,
      "thuốc": 8325,
      "đặt": 8326,
      "câu": 8327,
      "##àu": 8328,
      "áp": 8329,
      "chọn": 8330,
      "kiến": 8331,
      "chương": 8332,
      "bình": 8333,
      "quân": 8334,
      "cửa": 8335,
      "chuẩn": 8336,
      "chiếc": 8337,
      "căn": 8338,
      "##ín": 8339,
      "tượng": 8340,
      "á": 8341,
      "sáng": 8342,
      "mỗi": 8343,
      "ru": 8344,
      "hải": 8345,
      "##ăm": 8346,
      "cuối": 8347,
      "##re": 8348,
      "##ỗ": 8349,
      "nguồn": 8350,
      "nhỏ": 8351,
      "##áu": 8352,
      "##ẫu": 8353,
      "bổ": 8354,
      "mẹ": 8355,
      "cảnh": 8356,
      "hiểm": 8357,
      "sĩ": 8358,
      "##óm": 8359,
      "thân": 8360,
      "tử": 8361,
      "tối": 8362,
      "huy": 8363,
      "phía": 8364,
      "ke": 8365,
      "giống": 8366,
      "mo": 8367,
      "in": 8368,
      "đạo": 8369,
      "ươ": 8370,
      "vùng": 8371,
      "môi": 8372,
      "khỏi": 8373,
      "##ỗi": 8374,
      "##ễ": 8375,
      "chuyên": 8376,
      "chẳng": 8377,
      "##ồng": 8378,
      "kỹ": 8379,
      "truyền": 8380,
      "lấy": 8381,
      "##ấm": 8382,
      "khoảng": 8383,
      "ngành": 8384,
      "giữ": 8385,
      "gần": 8386,
      "##̣a": 8387,
      "cụ": 8388,
      "##ạy": 8389,
      "##ắp": 8390,
      "nghiệm": 8391,
      "mở": 8392,
      "chịu": 8393,
      "rõ": 8394,
      "dù": 8395,
      "lợi": 8396,
      "##ữu": 8397,
      "hữu": 8398,
      "trang": 8399,
      "xét": 8400,
      "ghi": 8401,
      "tranh": 8402,
      "xuống": 8403,
      "hiểu": 8404,
      "tàu": 8405,
      "mất": 8406,
      "lưu": 8407,
      "thê": 8408,
      "tích": 8409,
      "hắn": 8410,
      "bay": 8411,
      "khả": 8412,
      "vài": 8413,
      "##ửi": 8414,
      "chữ": 8415,
      "thêm": 8416,
      "khách": 8417,
      "ủy": 8418,
      "nghiên": 8419,
      "##id": 8420,
      "giảm": 8421,
      "vư": 8422,
      "##ac": 8423,
      "đâu": 8424,
      "),": 8425,
      "minh": 8426,
      "thuy": 8427,
      "##ừng": 8428,
      "##ing": 8429,
      "gây": 8430,
      "gửi": 8431,
      "trẻ": 8432,
      "nộp": 8433,
      "##ol": 8434,
      "bàn": 8435,
      "gặp": 8436,
      "tưởng": 8437,
      "chết": 8438,
      "khoa": 8439,
      "##ad": 8440,
      "khó": 8441,
      "nhóm": 8442,
      "cộng": 8443,
      "khí": 8444,
      "##ượ": 8445,
      "mắt": 8446,
      "##........": 8447,
      "ne": 8448,
      "ít": 8449,
      "hộ": 8450,
      "st": 8451,
      "trái": 8452,
      "chấp": 8453,
      "đồ": 8454,
      "dục": 8455,
      "di": 8456,
      "diễn": 8457,
      "đình": 8458,
      "chí": 8459,
      "bài": 8460,
      "mạnh": 8461,
      "##ĩnh": 8462,
      "bo": 8463,
      "đội": 8464,
      "sức": 8465,
      "mẫu": 8466,
      "dài": 8467,
      "ngu": 8468,
      "cục": 8469,
      "tiết": 8470,
      "##st": 8471,
      "viện": 8472,
      "sung": 8473,
      "my": 8474,
      "mang": 8475,
      "nhu": 8476,
      "đấu": 8477,
      "vô": 8478,
      "hồi": 8479,
      "tín": 8480,
      "nay": 8481,
      "cây": 8482,
      "sửa": 8483,
      "##ậm": 8484,
      "phù": 8485,
      "##ắm": 8486,
      "##ed": 8487,
      "biển": 8488,
      "khiến": 8489,
      "hỗ": 8490,
      "##em": 8491,
      "##and": 8492,
      "##……": 8493,
      "xảy": 8494,
      "hưởng": 8495,
      "##ỉ": 8496,
      "##eo": 8497,
      "phối": 8498,
      "phạt": 8499,
      "mã": 8500,
      "##ur": 8501,
      "biểu": 8502,
      "viết": 8503,
      "al": 8504,
      "nữ": 8505,
      "trừ": 8506,
      "lãnh": 8507,
      "##iêng": 8508,
      "chung": 8509,
      "##ám": 8510,
      "ngoại": 8511,
      "cập": 8512,
      "chắc": 8513,
      "chơi": 8514,
      "lịch": 8515,
      "đầy": 8516,
      "##̉n": 8517,
      "mặc": 8518,
      "yếu": 8519,
      "đóng": 8520,
      "##ặng": 8521,
      "nông": 8522,
      "phê": 8523,
      "##iền": 8524,
      "##ter": 8525,
      "hoa": 8526,
      "thuận": 8527,
      "mỹ": 8528,
      "da": 8529,
      "##ỡ": 8530,
      "nghề": 8531,
      "thuê": 8532,
      "##ag": 8533,
      "đào": 8534,
      "đông": 8535,
      "tuổi": 8536,
      "quỹ": 8537,
      "##iếm": 8538,
      "vừa": 8539,
      "chú": 8540,
      "thôi": 8541,
      "luôn": 8542,
      "bé": 8543,
      "chống": 8544,
      "##è": 8545,
      "bước": 8546,
      "##th": 8547,
      "##ươi": 8548,
      "màu": 8549,
      "đáng": 8550,
      "lươ": 8551,
      "đứng": 8552,
      "trò": 8553,
      "phản": 8554,
      "nhớ": 8555,
      "##iêm": 8556,
      "đời": 8557,
      "đấy": 8558,
      "quay": 8559,
      "xin": 8560,
      "nhiê": 8561,
      "##ọn": 8562,
      "đoàn": 8563,
      "tinh": 8564,
      "hoá": 8565,
      "mạng": 8566,
      "duyệt": 8567,
      "trì": 8568,
      "##âng": 8569,
      "thần": 8570,
      "lẽ": 8571,
      "đoạn": 8572,
      "soát": 8573,
      "##ra": 8574,
      "kẻ": 8575,
      "chân": 8576,
      "##ion": 8577,
      "triệu": 8578,
      "thầu": 8579,
      "giả": 8580,
      "tỷ": 8581,
      "kê": 8582,
      "nhanh": 8583,
      "gó": 8584,
      "vẻ": 8585,
      "thử": 8586,
      "tải": 8587,
      "buô": 8588,
      "tiện": 8589,
      "tố": 8590,
      "riêng": 8591,
      "đôi": 8592,
      "đạt": 8593,
      "suy": 8594,
      "phiếu": 8595,
      "la": 8596,
      "##ượt": 8597,
      "##os": 8598,
      "##ot": 8599,
      "bác": 8600,
      "dữ": 8601,
      "thác": 8602,
      "biên": 8603,
      "##ri": 8604,
      "đốc": 8605,
      "hại": 8606,
      "lĩnh": 8607,
      "xa": 8608,
      "đáp": 8609,
      "tịch": 8610,
      "dễ": 8611,
      "nằm": 8612,
      "cha": 8613,
      "chỉnh": 8614,
      "luận": 8615,
      "âm": 8616,
      "kèm": 8617,
      "##ếp": 8618,
      "cp": 8619,
      "độc": 8620,
      "rộng": 8621,
      "chỗ": 8622,
      "thái": 8623,
      "##ạp": 8624,
      "##éo": 8625,
      "lòng": 8626,
      "đa": 8627,
      "##ầy": 8628,
      "hư": 8629,
      "dụ": 8630,
      "loài": 8631,
      "mar": 8632,
      "trạng": 8633,
      "hạ": 8634,
      "##ẹp": 8635,
      "dấu": 8636,
      "thủy": 8637,
      "tờ": 8638,
      "nu": 8639,
      "tướng": 8640,
      "nổi": 8641,
      "gái": 8642,
      "phim": 8643,
      "\",": 8644,
      "##ét": 8645,
      "nợ": 8646,
      "cấu": 8647,
      "trời": 8648,
      "cười": 8649,
      "mại": 8650,
      "ví": 8651,
      "chạy": 8652,
      "lâu": 8653,
      "chứ": 8654,
      "vay": 8655,
      "nhật": 8656,
      "thú": 8657,
      "##iệp": 8658,
      "khuy": 8659,
      "sang": 8660,
      "ngư": 8661,
      "dầu": 8662,
      "mối": 8663,
      "càng": 8664,
      "chia": 8665,
      "biện": 8666,
      "đừng": 8667,
      "quanh": 8668,
      "chữa": 8669,
      "##li": 8670,
      "tuần": 8671,
      "phi": 8672,
      "bây": 8673,
      "##ry": 8674,
      "dạng": 8675,
      "##um": 8676,
      "sai": 8677,
      "buộc": 8678,
      "lỗi": 8679,
      "tạm": 8680,
      "nuô": 8681,
      "##lo": 8682,
      "##ón": 8683,
      "##ằm": 8684,
      "thuyết": 8685,
      "cạnh": 8686,
      "thúc": 8687,
      "dành": 8688,
      "##ard": 8689,
      "tái": 8690,
      "đàn": 8691,
      "vòng": 8692,
      "xo": 8693,
      "cực": 8694,
      "kiếm": 8695,
      "ương": 8696,
      "##ig": 8697,
      "tây": 8698,
      "ngồi": 8699,
      "giết": 8700,
      "##ãi": 8701,
      "giác": 8702,
      "đau": 8703,
      "trai": 8704,
      "nhạc": 8705,
      "nđ": 8706,
      "cử": 8707,
      "kỷ": 8708,
      "rừng": 8709,
      "suất": 8710,
      "##un": 8711,
      "lục": 8712,
      "vọng": 8713,
      "nuôi": 8714,
      "##ent": 8715,
      "kia": 8716,
      "bóng": 8717,
      "##ầng": 8718,
      "ma": 8719,
      "ích": 8720,
      "lệnh": 8721,
      "tệ": 8722,
      "tuyệt": 8723,
      "ánh": 8724,
      "vũ": 8725,
      "##̃m": 8726,
      "áo": 8727,
      "bức": 8728,
      "tai": 8729,
      "lựa": 8730,
      "ưu": 8731,
      "thiên": 8732,
      "sợ": 8733,
      "khoán": 8734,
      "ca": 8735,
      "hòa": 8736,
      "tầng": 8737,
      "đức": 8738,
      "##om": 8739,
      "tức": 8740,
      "mật": 8741,
      "gắng": 8742,
      "chút": 8743,
      "vai": 8744,
      "##ie": 8745,
      "hầu": 8746,
      "hôm": 8747,
      "cải": 8748,
      "tuyến": 8749,
      "sh": 8750,
      "tội": 8751,
      "đảo": 8752,
      "tồn": 8753,
      "kéo": 8754,
      "đích": 8755,
      "chúa": 8756,
      "tòa": 8757,
      "##ửa": 8758,
      "##ine": 8759,
      "châu": 8760,
      "##ph": 8761,
      "bắc": 8762,
      "phút": 8763,
      "tớ": 8764,
      "gio": 8765,
      "xúc": 8766,
      "##ec": 8767,
      "kích": 8768,
      "##eb": 8769,
      "khăn": 8770,
      "cháu": 8771,
      "##ẵn": 8772,
      "tt": 8773,
      "of": 8774,
      "nâng": 8775,
      "##ton": 8776,
      "thoại": 8777,
      "ngài": 8778,
      "vui": 8779,
      "lớp": 8780,
      "bọn": 8781,
      "nạn": 8782,
      "môn": 8783,
      "mấy": 8784,
      "hà": 8785,
      "trận": 8786,
      "cánh": 8787,
      "đứa": 8788,
      "ước": 8789,
      "##ốt": 8790,
      "##iêu": 8791,
      "sâu": 8792,
      "miễn": 8793,
      "ii": 8794,
      "tắc": 8795,
      "sổ": 8796,
      "à": 8797,
      "tấn": 8798,
      "nhằm": 8799,
      "ngủ": 8800,
      "đêm": 8801,
      "nền": 8802,
      "jo": 8803,
      "ngữ": 8804,
      "sẵn": 8805,
      "tránh": 8806,
      "hoàng": 8807,
      "uống": 8808,
      "lạc": 8809,
      "đọc": 8810,
      "thất": 8811,
      "góp": 8812,
      "dưỡng": 8813,
      "vượt": 8814,
      "buổi": 8815,
      "##ão": 8816,
      "thiện": 8817,
      "mày": 8818,
      "nhiễm": 8819,
      "nàng": 8820,
      "hậu": 8821,
      "giai": 8822,
      "##ill": 8823,
      "đẹp": 8824,
      "xếp": 8825,
      "lộ": 8826,
      "hơi": 8827,
      "##̉u": 8828,
      "trụ": 8829,
      "--": 8830,
      "sân": 8831,
      "chắn": 8832,
      "mi": 8833,
      "##ak": 8834,
      "hy": 8835,
      "gã": 8836,
      "har": 8837,
      "##ey": 8838,
      "##ut": 8839,
      "##ell": 8840,
      "##ev": 8841,
      "xuy": 8842,
      "khám": 8843,
      "kiểu": 8844,
      "thậm": 8845,
      "uy": 8846,
      "chứa": 8847,
      "##................": 8848,
      "and": 8849,
      "chàng": 8850,
      "phổ": 8851,
      "trông": 8852,
      "xuyên": 8853,
      "##ịp": 8854,
      "##ãn": 8855,
      "cảng": 8856,
      "##ck": 8857,
      "lương": 8858,
      "nối": 8859,
      "đoán": 8860,
      "thiếu": 8861,
      "thẳng": 8862,
      "đẩy": 8863,
      "hôn": 8864,
      "thấp": 8865,
      "cươ": 8866,
      "suô": 8867,
      "bồi": 8868,
      "new": 8869,
      "thỏa": 8870,
      "thảo": 8871,
      "thải": 8872,
      "thụ": 8873,
      "ar": 8874,
      "phong": 8875,
      "go": 8876,
      "gốc": 8877,
      "ngươi": 8878,
      "tóc": 8879,
      "##ab": 8880,
      "suốt": 8881,
      "máu": 8882,
      "dòng": 8883,
      "ấn": 8884,
      "khá": 8885,
      "ngăn": 8886,
      "cam": 8887,
      "khắc": 8888,
      "quý": 8889,
      "##ist": 8890,
      "##ers": 8891,
      "lan": 8892,
      "##pp": 8893,
      "tuyên": 8894,
      "ràng": 8895,
      "cân": 8896,
      "##ặn": 8897,
      "luy": 8898,
      "##ul": 8899,
      "sắp": 8900,
      "lá": 8901,
      "tiểu": 8902,
      "coi": 8903,
      "tả": 8904,
      "mùa": 8905,
      "nghiêm": 8906,
      "cuốn": 8907,
      "hạt": 8908,
      "khởi": 8909,
      "lai": 8910,
      "le": 8911,
      "tim": 8912,
      "khối": 8913,
      "chó": 8914,
      ");": 8915,
      "vàng": 8916,
      "##ber": 8917,
      "khỏ": 8918,
      "chiếu": 8919,
      "giản": 8920,
      "khỏe": 8921,
      "quần": 8922,
      "thập": 8923,
      "##iv": 8924,
      "bầu": 8925,
      "hiệp": 8926,
      "sắc": 8927,
      "luyện": 8928,
      "##ran": 8929,
      "ngang": 8930,
      "dựa": 8931,
      "phiên": 8932,
      "đột": 8933,
      "can": 8934,
      "ơn": 8935,
      "hủy": 8936,
      "##ow": 8937,
      "dạy": 8938,
      "chiều": 8939,
      "rời": 8940,
      "ngôi": 8941,
      "##ir": 8942,
      "cháy": 8943,
      "sông": 8944,
      "băng": 8945,
      "phó": 8946,
      "##…………": 8947,
      "bảng": 8948,
      "de": 8949,
      "ngươ": 8950,
      "am": 8951,
      "ninh": 8952,
      "trữ": 8953,
      "thầy": 8954,
      "đen": 8955,
      "thưởng": 8956,
      "xung": 8957,
      "nêu": 8958,
      "cắt": 8959,
      "nhánh": 8960,
      "bốn": 8961,
      "trải": 8962,
      "thoát": 8963,
      "chậm": 8964,
      "nhiệt": 8965,
      "##all": 8966,
      "bí": 8967,
      "trồng": 8968,
      "##ct": 8969,
      "##èn": 8970,
      "dây": 8971,
      "phóng": 8972,
      "##man": 8973,
      "dõi": 8974,
      "tộc": 8975,
      "vợ": 8976,
      "##te": 8977,
      "##ce": 8978,
      "họp": 8979,
      "binh": 8980,
      "sàng": 8981,
      "ổn": 8982,
      "quảng": 8983,
      "nghỉ": 8984,
      "##od": 8985,
      "niên": 8986,
      "##na": 8987,
      "trắng": 8988,
      "nặng": 8989,
      "chờ": 8990,
      "nghi": 8991,
      "chăm": 8992,
      "gắn": 8993,
      "##ian": 8994,
      "cán": 8995,
      "##ess": 8996,
      "lắm": 8997,
      "car": 8998,
      "mười": 8999,
      "nhẹ": 9000,
      "vua": 9001,
      "##ớm": 9002,
      "trao": 9003,
      "chiếm": 9004,
      "##ộn": 9005,
      "đế": 9006,
      "phận": 9007,
      "bang": 9008,
      "đổ": 9009,
      "thắng": 9010,
      "dương": 9011,
      "##áo": 9012,
      "mắc": 9013,
      "##ót": 9014,
      "thừa": 9015,
      "đám": 9016,
      "lễ": 9017,
      "sa": 9018,
      "lắng": 9019,
      "âu": 9020,
      "tạp": 9021,
      "hát": 9022,
      "uỷ": 9023,
      "giọng": 9024,
      "khô": 9025,
      "tôn": 9026,
      "hạng": 9027,
      "tốc": 9028,
      "huyện": 9029,
      "##io": 9030,
      "kim": 9031,
      "quen": 9032,
      "trú": 9033,
      "tao": 9034,
      "is": 9035,
      "lâm": 9036,
      "ngắn": 9037,
      "chuyến": 9038,
      "đợi": 9039,
      "khuyến": 9040,
      "đương": 9041,
      "nỗi": 9042,
      "nhắc": 9043,
      "li": 9044,
      "##nd": 9045,
      "br": 9046,
      "cũ": 9047,
      "##est": 9048,
      "thiểu": 9049,
      "vết": 9050,
      "mời": 9051,
      "xanh": 9052,
      "##ne": 9053,
      "thôn": 9054,
      "##èo": 9055,
      "may": 9056,
      "chấm": 9057,
      "bô": 9058,
      "##ff": 9059,
      "rút": 9060,
      "##ov": 9061,
      "cận": 9062,
      "phán": 9063,
      "cơn": 9064,
      "lược": 9065,
      "##ảnh": 9066,
      "xấu": 9067,
      "tắt": 9068,
      "sạch": 9069,
      "dừng": 9070,
      "thăm": 9071,
      "ngôn": 9072,
      "##̣p": 9073,
      "nổ": 9074,
      "dần": 9075,
      "mong": 9076,
      "com": 9077,
      "re": 9078,
      "tùy": 9079,
      "##sh": 9080,
      "đỏ": 9081,
      "nhờ": 9082,
      "##ưu": 9083,
      "cường": 9084,
      "lạnh": 9085,
      "hút": 9086,
      "trăm": 9087,
      "khảo": 9088,
      "##son": 9089,
      "thí": 9090,
      "##ok": 9091,
      "##áp": 9092,
      "bạc": 9093,
      "kính": 9094,
      "não": 9095,
      "bào": 9096,
      "##ly": 9097,
      "##ap": 9098,
      "thằng": 9099,
      "mái": 9100,
      "bánh": 9101,
      "##ah": 9102,
      "lô": 9103,
      "tầm": 9104,
      "nắm": 9105,
      "lãi": 9106,
      "ngờ": 9107,
      "chào": 9108,
      "lạ": 9109,
      "nửa": 9110,
      "cầm": 9111,
      "sớm": 9112,
      "##ềm": 9113,
      "##̣i": 9114,
      "khóa": 9115,
      "##iềm": 9116,
      "par": 9117,
      "ngừng": 9118,
      "miền": 9119,
      "rối": 9120,
      "thao": 9121,
      "trúc": 9122,
      "bại": 9123,
      "khủng": 9124,
      "gu": 9125,
      "hề": 9126,
      "ed": 9127,
      "thở": 9128,
      "tuyển": 9129,
      "thiệt": 9130,
      "se": 9131,
      "ly": 9132,
      "linh": 9133,
      "cl": 9134,
      "khích": 9135,
      "núi": 9136,
      "tấm": 9137,
      "rượ": 9138,
      "lửa": 9139,
      "trùng": 9140,
      "pro": 9141,
      "dậy": 9142,
      "##tt": 9143,
      "sóc": 9144,
      "rượu": 9145,
      "kịp": 9146,
      "viễn": 9147,
      "lang": 9148,
      "phúc": 9149,
      "##av": 9150,
      "chặt": 9151,
      "chồng": 9152,
      "thuyền": 9153,
      "dàng": 9154,
      "##ik": 9155,
      "đảng": 9156,
      "kì": 9157,
      "tận": 9158,
      "thù": 9159,
      "ngược": 9160,
      "thổ": 9161,
      "khiếu": 9162,
      "sáu": 9163,
      "##ation": 9164,
      "món": 9165,
      "niệm": 9166,
      "tuân": 9167,
      "vời": 9168,
      "ngựa": 9169,
      "màn": 9170,
      "rủi": 9171,
      "mềm": 9172,
      "kháng": 9173,
      "bãi": 9174,
      "bày": 9175,
      "đãi": 9176,
      "đỡ": 9177,
      "đài": 9178,
      "##op": 9179,
      "mươi": 9180,
      "##nn": 9181,
      "##ack": 9182,
      "đem": 9183,
      "##iệng": 9184,
      "##og": 9185,
      "##ói": 9186,
      "sắt": 9187,
      "be": 9188,
      "bắn": 9189,
      "hă": 9190,
      "miệng": 9191,
      "dứt": 9192,
      "tổn": 9193,
      "thẻ": 9194,
      "khắp": 9195,
      "##ord": 9196,
      "##ant": 9197,
      "ả": 9198,
      "nóng": 9199,
      "sp": 9200,
      "im": 9201,
      "harry": 9202,
      "chối": 9203,
      "chóng": 9204,
      "##se": 9205,
      "##da": 9206,
      "##ge": 9207,
      "nại": 9208,
      "mai": 9209,
      "giê": 9210,
      "tường": 9211,
      "huấn": 9212,
      "buồn": 9213,
      "cấm": 9214,
      "liền": 9215,
      "tách": 9216,
      "gen": 9217,
      "##ick": 9218,
      "súng": 9219,
      "vẽ": 9220,
      "trích": 9221,
      "tỏ": 9222,
      "che": 9223,
      "lái": 9224,
      "hẳn": 9225,
      "nhượng": 9226,
      "##ork": 9227,
      "inter": 9228,
      "##̣t": 9229,
      "##--": 9230,
      "##ou": 9231,
      "nhiêu": 9232,
      "##az": 9233,
      "tù": 9234,
      "##ẹn": 9235,
      "##net": 9236,
      "sóng": 9237,
      "ad": 9238,
      "##if": 9239,
      "khiển": 9240,
      "thưa": 9241,
      "hạnh": 9242,
      "túi": 9243,
      "dị": 9244,
      "joh": 9245,
      "mèo": 9246,
      "##ọt": 9247,
      "mạch": 9248,
      "##̃a": 9249,
      "bữa": 9250,
      "##gh": 9251,
      ".-": 9252,
      "yên": 9253,
      "sc": 9254,
      "quên": 9255,
      "song": 9256,
      "lũ": 9257,
      "rơi": 9258,
      "thịt": 9259,
      "lưới": 9260,
      "xong": 9261,
      "##ath": 9262,
      "no": 9263,
      "hi": 9264,
      "##ke": 9265,
      "tước": 9266,
      "thang": 9267,
      "##ss": 9268,
      "bờ": 9269,
      "hộp": 9270,
      "lối": 9271,
      "sy": 9272,
      "bt": 9273,
      "for": 9274,
      "góc": 9275,
      "sẻ": 9276,
      "qđ": 9277,
      "##ind": 9278,
      "web": 9279,
      "bật": 9280,
      "##ll": 9281,
      "trấn": 9282,
      "##ue": 9283,
      "ống": 9284,
      "gói": 9285,
      "trại": 9286,
      "##ấc": 9287,
      "##ĩa": 9288,
      "nha": 9289,
      "xạ": 9290,
      "lão": 9291,
      "vương": 9292,
      "##art": 9293,
      "thiệu": 9294,
      "##ash": 9295,
      "thận": 9296,
      "##aw": 9297,
      "niềm": 9298,
      "nga": 9299,
      "dược": 9300,
      "ẩn": 9301,
      "phức": 9302,
      "xứ": 9303,
      "chặn": 9304,
      "##ore": 9305,
      "##ice": 9306,
      "ngạc": 9307,
      "##ass": 9308,
      "lẫn": 9309,
      "hấp": 9310,
      "vid": 9311,
      "nguyện": 9312,
      "##ame": 9313,
      "mũi": 9314,
      "ghế": 9315,
      "lỗ": 9316,
      "##eg": 9317,
      "chảy": 9318,
      "giận": 9319,
      "căng": 9320,
      "thơ": 9321,
      "mơ": 9322,
      "vươ": 9323,
      "khoáng": 9324,
      "dường": 9325,
      "hài": 9326,
      "loạn": 9327,
      "en": 9328,
      "cà": 9329,
      "##ich": 9330,
      "##ud": 9331,
      "##ley": 9332,
      "đĩa": 9333,
      "chủng": 9334,
      "lẻ": 9335,
      "lặng": 9336,
      "video": 9337,
      "lắp": 9338,
      "chụp": 9339,
      "giây": 9340,
      "bơ": 9341,
      "bar": 9342,
      "##ver": 9343,
      "siêu": 9344,
      "va": 9345,
      "thượng": 9346,
      "##co": 9347,
      "sót": 9348,
      "chạm": 9349,
      "nhảy": 9350,
      "ủng": 9351,
      "lưng": 9352,
      "nhãn": 9353,
      "##uôn": 9354,
      "##ẩy": 9355,
      "khổ": 9356,
      "khuôn": 9357,
      "lành": 9358,
      "họa": 9359,
      "cal": 9360,
      "##ve": 9361,
      "hàm": 9362,
      "##̀o": 9363,
      "nhuận": 9364,
      "ðức": 9365,
      "##land": 9366,
      "rửa": 9367,
      "##bo": 9368,
      "thánh": 9369,
      "fran": 9370,
      "ê": 9371,
      "##ain": 9372,
      "hồng": 9373,
      "alb": 9374,
      "đèn": 9375,
      "##ợt": 9376,
      "vâng": 9377,
      "khư": 9378,
      "khấu": 9379,
      "vững": 9380,
      "##sk": 9381,
      "già": 9382,
      "##ast": 9383,
      "tĩnh": 9384,
      "mê": 9385,
      "##iếp": 9386,
      "răng": 9387,
      "thai": 9388,
      "lầm": 9389,
      "pl": 9390,
      "bè": 9391,
      "lính": 9392,
      "man": 9393,
      "bảy": 9394,
      "nỗ": 9395,
      "đuổi": 9396,
      "john": 9397,
      "##ina": 9398,
      "xâm": 9399,
      "bl": 9400,
      "york": 9401,
      "giành": 9402,
      "tán": 9403,
      "mùi": 9404,
      "tan": 9405,
      "đòi": 9406,
      "##iếng": 9407,
      "cứng": 9408,
      "thờ": 9409,
      "us": 9410,
      "##ma": 9411,
      "nghèo": 9412,
      "##ron": 9413,
      "điển": 9414,
      "##to": 9415,
      "bưu": 9416,
      "##ip": 9417,
      "##ate": 9418,
      "##...": 9419,
      "xương": 9420,
      "##igh": 9421,
      "ngón": 9422,
      "##me": 9423,
      "quán": 9424,
      "lông": 9425,
      "trạm": 9426,
      "đai": 9427,
      "##ld": 9428,
      "hứng": 9429,
      "me": 9430,
      "un": 9431,
      "pr": 9432,
      "đà": 9433,
      "chim": 9434,
      "##ts": 9435,
      "trốn": 9436,
      "bạo": 9437,
      "khung": 9438,
      "gỗ": 9439,
      "wh": 9440,
      "kịch": 9441,
      "##one": 9442,
      "trưng": 9443,
      "huống": 9444,
      "điên": 9445,
      "giường": 9446,
      "##ậc": 9447,
      "diệt": 9448,
      "hồn": 9449,
      "\\/": 9450,
      "mãi": 9451,
      "ạ": 9452,
      "liệt": 9453,
      "##ìa": 9454,
      "vỡ": 9455,
      "gió": 9456,
      "kêu": 9457,
      "loạt": 9458,
      "##end": 9459,
      "bậc": 9460,
      "her": 9461,
      "mon": 9462,
      "nhé": 9463,
      "he": 9464,
      "hoang": 9465,
      "giảng": 9466,
      "##enn": 9467,
      "internet": 9468,
      "hằng": 9469,
      "gr": 9470,
      "##................................": 9471,
      "##ens": 9472,
      "##ta": 9473,
      "chuột": 9474,
      "khuẩn": 9475,
      "bề": 9476,
      "tàn": 9477,
      "cổng": 9478,
      "ge": 9479,
      "đựng": 9480,
      "##ward": 9481,
      "po": 9482,
      "##mp": 9483,
      "##vid": 9484,
      "toà": 9485,
      "dã": 9486,
      "kém": 9487,
      "giàu": 9488,
      "nhấn": 9489,
      "san": 9490,
      "trục": 9491,
      "ha": 9492,
      "mẽ": 9493,
      "cai": 9494,
      "thước": 9495,
      "on": 9496,
      "##les": 9497,
      "##qu": 9498,
      "##ith": 9499,
      "ber": 9500,
      "buôn": 9501,
      "iii": 9502,
      "phái": 9503,
      "lí": 9504,
      "hạch": 9505,
      "hiển": 9506,
      "##per": 9507,
      "or": 9508,
      "ko": 9509,
      "cặp": 9510,
      "##ib": 9511,
      "ngại": 9512,
      "đập": 9513,
      "wil": 9514,
      "##ớp": 9515,
      "đẳng": 9516,
      "tỉ": 9517,
      "tròn": 9518,
      "sàn": 9519,
      "btc": 9520,
      "hẹn": 9521,
      "tặng": 9522,
      "##lin": 9523,
      "vườn": 9524,
      "ga": 9525,
      "##ary": 9526,
      "te": 9527,
      "##ub": 9528,
      "ngũ": 9529,
      "##ust": 9530,
      "##don": 9531,
      "hối": 9532,
      "##sc": 9533,
      "dọc": 9534,
      "giấc": 9535,
      "##ite": 9536,
      "tá": 9537,
      "##pt": 9538,
      "thả": 9539,
      "ấm": 9540,
      "album": 9541,
      "dan": 9542,
      "##lor": 9543,
      "##ler": 9544,
      "at": 9545,
      "phẫu": 9546,
      "##̉m": 9547,
      "char": 9548,
      "trương": 9549,
      "hứa": 9550,
      "xô": 9551,
      "cẩn": 9552,
      "mal": 9553,
      "ác": 9554,
      "tiềm": 9555,
      "trống": 9556,
      "bù": 9557,
      "thuỷ": 9558,
      "xăng": 9559,
      "hãi": 9560,
      "triều": 9561,
      "gấp": 9562,
      "hỏng": 9563,
      "ab": 9564,
      "lệch": 9565,
      "hiến": 9566,
      "cản": 9567,
      "sữa": 9568,
      "mừng": 9569,
      "dò": 9570,
      "hả": 9571,
      "pet": 9572,
      "làng": 9573,
      "tắm": 9574,
      "thoải": 9575,
      "dối": 9576,
      "##pe": 9577,
      "phỏng": 9578,
      "đe": 9579,
      "móc": 9580,
      "săn": 9581,
      "##ity": 9582,
      "thách": 9583,
      "%.": 9584,
      "##de": 9585,
      "quận": 9586,
      "##ish": 9587,
      "niêm": 9588,
      "##ara": 9589,
      "bò": 9590,
      "nho": 9591,
      "cột": 9592,
      "cờ": 9593,
      "##ort": 9594,
      "km": 9595,
      "hoảng": 9596,
      "dọa": 9597,
      "hương": 9598,
      "khẩn": 9599,
      "as": 9600,
      "mảnh": 9601,
      "##ug": 9602,
      "thảm": 9603,
      "xóa": 9604,
      "##cc": 9605,
      "cất": 9606,
      "ngọn": 9607,
      "mát": 9608,
      "tri": 9609,
      "lặp": 9610,
      "kênh": 9611,
      "khen": 9612,
      "quái": 9613,
      "hỗn": 9614,
      "chăn": 9615,
      "trật": 9616,
      "sơn": 9617,
      "pi": 9618,
      "cỡ": 9619,
      "hãng": 9620,
      "##́y": 9621,
      "huyết": 9622,
      "pha": 9623,
      "bom": 9624,
      "cưỡng": 9625,
      "##ps": 9626,
      "quang": 9627,
      "kiệm": 9628,
      "hiếm": 9629,
      "##gt": 9630,
      "chừng": 9631,
      "sánh": 9632,
      "chuỗi": 9633,
      "ung": 9634,
      "##ein": 9635,
      "ép": 9636,
      "mư": 9637,
      "##ett": 9638,
      "##eth": 9639,
      "than": 9640,
      "đón": 9641,
      "bão": 9642,
      "rô": 9643,
      "bụng": 9644,
      "dày": 9645,
      "gt": 9646,
      "##ans": 9647,
      "vĩ": 9648,
      "quyển": 9649,
      "##by": 9650,
      "mộ": 9651,
      "ttg": 9652,
      "##bert": 9653,
      "đốt": 9654,
      "miếng": 9655,
      "##uk": 9656,
      "sam": 9657,
      "cốc": 9658,
      "địch": 9659,
      "cụm": 9660,
      "hè": 9661,
      "xi": 9662,
      "cỏ": 9663,
      "vir": 9664,
      "giỏi": 9665,
      "tật": 9666,
      "gương": 9667,
      "##und": 9668,
      "ex": 9669,
      "kín": 9670,
      "chép": 9671,
      "đỉnh": 9672,
      "per": 9673,
      "lọc": 9674,
      "ngàn": 9675,
      "rắn": 9676,
      "##ico": 9677,
      "thói": 9678,
      "mực": 9679,
      "cor": 9680,
      "##ênh": 9681,
      "trứng": 9682,
      "nhấp": 9683,
      "bi": 9684,
      "##ail": 9685,
      "đằng": 9686,
      "mich": 9687,
      "tụi": 9688,
      "##ily": 9689,
      "khái": 9690,
      "nút": 9691,
      "sm": 9692,
      "##orn": 9693,
      "ven": 9694,
      "cự": 9695,
      "##……………………": 9696,
      "tồi": 9697,
      "hào": 9698,
      "muối": 9699,
      "##cn": 9700,
      "##ada": 9701,
      "fre": 9702,
      "si": 9703,
      "tảng": 9704,
      "tám": 9705,
      "el": 9706,
      "hầm": 9707,
      "mỏ": 9708,
      "chín": 9709,
      "mưa": 9710,
      "ám": 9711,
      "mét": 9712,
      "giày": 9713,
      "trần": 9714,
      "bền": 9715,
      "chở": 9716,
      "##ặm": 9717,
      "trầm": 9718,
      "##kh": 9719,
      "hàn": 9720,
      "long": 9721,
      "##are": 9722,
      "tàng": 9723,
      "nhắn": 9724,
      "chánh": 9725,
      "ngừa": 9726,
      "ngầm": 9727,
      "##ael": 9728,
      "##ile": 9729,
      "##rid": 9730,
      "##ica": 9731,
      "giấu": 9732,
      "bh": 9733,
      "##ino": 9734,
      "chai": 9735,
      "nhỉ": 9736,
      "by": 9737,
      "##iệc": 9738,
      "bro": 9739,
      "sợi": 9740,
      "##ộm": 9741,
      "leo": 9742,
      "ser": 9743,
      "van": 9744,
      "viêm": 9745,
      "ngực": 9746,
      "sốt": 9747,
      "##ach": 9748,
      "tuệ": 9749,
      "ném": 9750,
      "phấn": 9751,
      "mệnh": 9752,
      "khứ": 9753,
      "khuyên": 9754,
      "##ft": 9755,
      "dao": 9756,
      "ale": 9757,
      "bến": 9758,
      "thoả": 9759,
      "giam": 9760,
      "you": 9761,
      "sch": 9762,
      "dĩ": 9763,
      "hoà": 9764,
      "dáng": 9765,
      "lau": 9766,
      "##yl": 9767,
      "pháo": 9768,
      "cr": 9769,
      "##ẫy": 9770,
      "khổng": 9771,
      "khóc": 9772,
      "ju": 9773,
      "bó": 9774,
      "đậu": 9775,
      "iv": 9776,
      "sứ": 9777,
      "tha": 9778,
      "lồ": 9779,
      "dinh": 9780,
      "##bur": 9781,
      "lãng": 9782,
      "mãn": 9783,
      "gỡ": 9784,
      "dính": 9785,
      "gợi": 9786,
      "##ẹt": 9787,
      "hảo": 9788,
      "trà": 9789,
      "lượt": 9790,
      "tiêm": 9791,
      "geor": 9792,
      "rãi": 9793,
      "##aul": 9794,
      "bột": 9795,
      "tiệc": 9796,
      "ghét": 9797,
      "nor": 9798,
      "đói": 9799,
      "vang": 9800,
      "đua": 9801,
      "hùng": 9802,
      "bối": 9803,
      "rắc": 9804,
      "##ire": 9805,
      "thiệp": 9806,
      "khúc": 9807,
      "cãi": 9808,
      "treo": 9809,
      "lò": 9810,
      "##mb": 9811,
      "mưu": 9812,
      "hỏa": 9813,
      "điệu": 9814,
      "nghìn": 9815,
      "##iel": 9816,
      "tang": 9817,
      "tụ": 9818,
      "\":": 9819,
      "gre": 9820,
      "##ob": 9821,
      "vải": 9822,
      "sắm": 9823,
      "##ney": 9824,
      "kem": 9825,
      "ơi": 9826,
      "ẩm": 9827,
      "xoay": 9828,
      "nghiện": 9829,
      "phil": 9830,
      "##att": 9831,
      "it": 9832,
      "vỏ": 9833,
      "##ca": 9834,
      "lừa": 9835,
      "trào": 9836,
      "lỏng": 9837,
      "phiền": 9838,
      "chìm": 9839,
      "##ies": 9840,
      "ben": 9841,
      "đàm": 9842,
      "tháo": 9843,
      "bếp": 9844,
      "rác": 9845,
      "game": 9846,
      "kiên": 9847,
      "mũ": 9848,
      "đạn": 9849,
      "jam": 9850,
      "ron": 9851,
      "ồ": 9852,
      "fo": 9853,
      "edward": 9854,
      "mac": 9855,
      "đền": 9856,
      "##mon": 9857,
      "bồ": 9858,
      "##ington": 9859,
      "##ius": 9860,
      "cài": 9861,
      "##ana": 9862,
      "bụi": 9863,
      "dám": 9864,
      "gtgt": 9865,
      "ham": 9866,
      "je": 9867,
      "##ka": 9868,
      "##ham": 9869,
      "lát": 9870,
      "ri": 9871,
      "mạo": 9872,
      ",-": 9873,
      "ngập": 9874,
      "##so": 9875,
      "bận": 9876,
      "bia": 9877,
      "chr": 9878,
      "đeo": 9879,
      "\"-": 9880,
      "##ep": 9881,
      "mắn": 9882,
      "bạch": 9883,
      "mệt": 9884,
      "##age": 9885,
      "thầm": 9886,
      "thuần": 9887,
      "tí": 9888,
      "tẩy": 9889,
      "sal": 9890,
      "say": 9891,
      "ngã": 9892,
      "app": 9893,
      "we": 9894,
      "%,": 9895,
      "..": 9896,
      "mỉ": 9897,
      "##la": 9898,
      "lôi": 9899,
      "cm": 9900,
      "đống": 9901,
      "lê": 9902,
      "soạn": 9903,
      "##ight": 9904,
      "tóm": 9905,
      "##ide": 9906,
      "david": 9907,
      "##ồn": 9908,
      "tràn": 9909,
      "tung": 9910,
      "dán": 9911,
      "chợ": 9912,
      "đùa": 9913,
      "liều": 9914,
      "ôi": 9915,
      "lạp": 9916,
      "rà": 9917,
      "cưới": 9918,
      "đếm": 9919,
      "stev": 9920,
      "hòn": 9921,
      "##ky": 9922,
      "ok": 9923,
      "wal": 9924,
      "ang": 9925,
      "cú": 9926,
      "giãn": 9927,
      "tom": 9928,
      "##stein": 9929,
      "dặm": 9930,
      "lin": 9931,
      "ảo": 9932,
      "##ợn": 9933,
      "táo": 9934,
      "lường": 9935,
      "##ẹo": 9936,
      "##ãng": 9937,
      "đợt": 9938,
      "tân": 9939,
      "##ek": 9940,
      "sạn": 9941,
      "ac": 9942,
      "tươi": 9943,
      "oda": 9944,
      "đệ": 9945,
      "##ner": 9946,
      "dis": 9947,
      "jack": 9948,
      "xứng": 9949,
      "##cy": 9950,
      "##ren": 9951,
      "hen": 9952,
      "mờ": 9953,
      "tủ": 9954,
      "lắc": 9955,
      "tốn": 9956,
      "sáp": 9957,
      "quà": 9958,
      "móng": 9959,
      "vỗ": 9960,
      "##ect": 9961,
      "rau": 9962,
      "usd": 9963,
      "qui": 9964,
      "star": 9965,
      "gà": 9966,
      "##ace": 9967,
      "canh": 9968,
      "điệp": 9969,
      "##ane": 9970,
      "##go": 9971,
      "gián": 9972,
      "pal": 9973,
      "tần": 9974,
      "tháp": 9975,
      "nhàng": 9976,
      "nắng": 9977,
      "hung": 9978,
      "hưu": 9979,
      "wind": 9980,
      "##ama": 9981,
      "truyện": 9982,
      "túc": 9983,
      "chẽ": 9984,
      "ức": 9985,
      "##ya": 9986,
      "ngốc": 9987,
      "wor": 9988,
      "hổ": 9989,
      "khẳng": 9990,
      "##̃u": 9991,
      "trúng": 9992,
      "##iss": 9993,
      "##ood": 9994,
      "##mer": 9995,
      "óc": 9996,
      "giáp": 9997,
      "nhẫn": 9998,
      "tụng": 9999,
      "bớt": 10000,
      "chán": 10001,
      "tiếc": 10002,
      "chẩn": 10003,
      "nhịp": 10004,
      "cát": 10005,
      "yo": 10006,
      "##ella": 10007,
      "thợ": 10008,
      "trôi": 10009,
      "bill": 10010,
      "##ẫm": 10011,
      "vinh": 10012,
      "alex": 10013,
      "bông": 10014,
      "##pg": 10015,
      "er": 10016,
      "tuyết": 10017,
      "##nt": 10018,
      "ôm": 10019,
      "gọn": 10020,
      "bẩn": 10021,
      "##ker": 10022,
      "ni": 10023,
      "non": 10024,
      "cốt": 10025,
      "mỉm": 10026,
      "tui": 10027,
      "gối": 10028,
      "béo": 10029,
      "nụ": 10030,
      "dọn": 10031,
      "vong": 10032,
      "yết": 10033,
      "thạch": 10034,
      "thùng": 10035,
      "nhắm": 10036,
      "mor": 10037,
      "min": 10038,
      "tk": 10039,
      "tống": 10040,
      "vé": 10041,
      "túy": 10042,
      "quỷ": 10043,
      "trăng": 10044,
      "rob": 10045,
      "chênh": 10046,
      "chấn": 10047,
      "pol": 10048,
      "thô": 10049,
      "làn": 10050,
      "chúc": 10051,
      "nồng": 10052,
      "cướp": 10053,
      "mạc": 10054,
      "##ớn": 10055,
      "trộn": 10056,
      "##oc": 10057,
      "triết": 10058,
      "##wn": 10059,
      "cro": 10060,
      "##der": 10061,
      "nét": 10062,
      "gật": 10063,
      "ngon": 10064,
      "ổ": 10065,
      "##ds": 10066,
      "##ann": 10067,
      "xưa": 10068,
      "bơi": 10069,
      "bón": 10070,
      "nhầm": 10071,
      "muộn": 10072,
      "lây": 10073,
      "thăng": 10074,
      "##ins": 10075,
      "ghép": 10076,
      "ngưỡng": 10077,
      "dãy": 10078,
      "af": 10079,
      "cậy": 10080,
      "##ịt": 10081,
      "mì": 10082,
      "thoảng": 10083,
      "na": 10084,
      "##ment": 10085,
      "##dy": 10086,
      "dạ": 10087,
      "vội": 10088,
      "chìa": 10089,
      "##ows": 10090,
      "rập": 10091,
      "tw": 10092,
      "trắc": 10093,
      "##ose": 10094,
      "chà": 10095,
      "##xy": 10096,
      "##let": 10097,
      "mươ": 10098,
      "bám": 10099,
      "thụy": 10100,
      "oh": 10101,
      "hít": 10102,
      "hạm": 10103,
      "canada": 10104,
      "##ier": 10105,
      "ct": 10106,
      "##ive": 10107,
      "vân": 10108,
      "dịu": 10109,
      "khoan": 10110,
      "khuyết": 10111,
      "##ger": 10112,
      "##ớt": 10113,
      "##ory": 10114,
      "ub": 10115,
      "##pl": 10116,
      "emily": 10117,
      "george": 10118,
      "hét": 10119,
      "vướng": 10120,
      "khán": 10121,
      "##za": 10122,
      "##istan": 10123,
      "cương": 10124,
      "thua": 10125,
      "thỉnh": 10126,
      "bội": 10127,
      "##lt": 10128,
      "luồng": 10129,
      "lồng": 10130,
      "##iếc": 10131,
      "khớp": 10132,
      "bì": 10133,
      "trượt": 10134,
      "##ba": 10135,
      "cựu": 10136,
      "##sa": 10137,
      "khốn": 10138,
      "tựa": 10139,
      "đồn": 10140,
      "##chel": 10141,
      "lưỡi": 10142,
      "##ogle": 10143,
      "hoại": 10144,
      "tia": 10145,
      "hoãn": 10146,
      "ranh": 10147,
      "cong": 10148,
      "rào": 10149,
      "khiếp": 10150,
      "eu": 10151,
      "bel": 10152,
      "rad": 10153,
      "##ii": 10154,
      "mù": 10155,
      "val": 10156,
      "bỏng": 10157,
      "mụ": 10158,
      "world": 10159,
      "mic": 10160,
      "nô": 10161,
      "google": 10162,
      "vắng": 10163,
      "windows": 10164,
      "nở": 10165,
      "phú": 10166,
      "##ria": 10167,
      "##ung": 10168,
      "mỏi": 10169,
      "##iz": 10170,
      "sing": 10171,
      "khát": 10172,
      "ừ": 10173,
      "nhựa": 10174,
      "khoẻ": 10175,
      "tỏa": 10176,
      "willi": 10177,
      "michael": 10178,
      "gan": 10179,
      "##ther": 10180,
      "alice": 10181,
      "ngọt": 10182,
      "franc": 10183,
      "úc": 10184,
      "steve": 10185,
      "##amin": 10186,
      "cám": 10187,
      "mau": 10188,
      "del": 10189,
      "paul": 10190,
      "war": 10191,
      "ong": 10192,
      "đồi": 10193,
      "fer": 10194,
      "đớn": 10195,
      "##ster": 10196,
      "nấu": 10197,
      "\")": 10198,
      "hẹp": 10199,
      "mọc": 10200,
      "##va": 10201,
      "##tein": 10202,
      "hiv": 10203,
      "paris": 10204,
      "trưa": 10205,
      "langdon": 10206,
      "lấp": 10207,
      "air": 10208,
      "sụp": 10209,
      "christ": 10210,
      "dỡ": 10211,
      "##ester": 10212,
      "mad": 10213,
      "mart": 10214,
      "run": 10215,
      "ein": 10216,
      "ổng": 10217,
      "cước": 10218,
      "mer": 10219,
      "đuôi": 10220,
      "khôi": 10221,
      "./": 10222,
      "##xh": 10223,
      "william": 10224,
      "##ae": 10225,
      "khoảnh": 10226,
      "##uch": 10227,
      "##ford": 10228,
      "chằm": 10229,
      "thám": 10230,
      "súc": 10231,
      "nhạy": 10232,
      "xí": 10233,
      "##vn": 10234,
      "frank": 10235,
      "##ằn": 10236,
      "ap": 10237,
      "blo": 10238,
      "lộn": 10239,
      "##----": 10240,
      "men": 10241,
      "nat": 10242,
      "mark": 10243,
      "thép": 10244,
      "bồn": 10245,
      "jac": 10246,
      "ngạch": 10247,
      "cừu": 10248,
      "./.": 10249,
      "email": 10250,
      "##ax": 10251,
      "ax": 10252,
      "mc": 10253,
      "rachel": 10254,
      "ele": 10255,
      "##iro": 10256,
      "##int": 10257,
      "ruột": 10258,
      "##ndon": 10259,
      "lùng": 10260,
      "kỉ": 10261,
      "##ium": 10262,
      "##do": 10263,
      "einstein": 10264,
      "sỹ": 10265,
      "protein": 10266,
      "quát": 10267,
      "str": 10268,
      "đạp": 10269,
      "chục": 10270,
      "bốc": 10271,
      "củng": 10272,
      "trộm": 10273,
      "all": 10274,
      "qh": 10275,
      "đôn": 10276,
      "gal": 10277,
      "col": 10278,
      "bút": 10279,
      "dar": 10280,
      "sươ": 10281,
      "hill": 10282,
      "chăng": 10283,
      "lăm": 10284,
      "##lie": 10285,
      "scot": 10286,
      "##bon": 10287,
      "lui": 10288,
      "pe": 10289,
      "lùi": 10290,
      "##ny": 10291,
      "##ris": 10292,
      "ag": 10293,
      "##ague": 10294,
      "giật": 10295,
      "tam": 10296,
      "##anda": 10297,
      "hao": 10298,
      "##ial": 10299,
      "giơ": 10300,
      "huỷ": 10301,
      "mạn": 10302,
      "mm": 10303,
      "pin": 10304,
      "khía": 10305,
      "mag": 10306,
      "##gin": 10307,
      "lợn": 10308,
      "mượn": 10309,
      "mil": 10310,
      "ngẫu": 10311,
      "##ong": 10312,
      "....": 10313,
      "phe": 10314,
      "kg": 10315,
      "##ipp": 10316,
      "##ase": 10317,
      "chôn": 10318,
      "london": 10319,
      "##xico": 10320,
      "harv": 10321,
      "mây": 10322,
      "mồ": 10323,
      "ts": 10324,
      "phường": 10325,
      "ướt": 10326,
      "nướng": 10327,
      "peter": 10328,
      "má": 10329,
      "calif": 10330,
      "kar": 10331,
      "##ille": 10332,
      "wash": 10333,
      "gõ": 10334,
      "gl": 10335,
      "đâm": 10336,
      "##ero": 10337,
      "tông": 10338,
      "##old": 10339,
      "##rom": 10340,
      "##bi": 10341,
      "vây": 10342,
      "côn": 10343,
      "californ": 10344,
      "chốt": 10345,
      "sw": 10346,
      "##rael": 10347,
      "xả": 10348,
      "vịnh": 10349,
      "sim": 10350,
      "##kt": 10351,
      "##ral": 10352,
      "đáo": 10353,
      "hôi": 10354,
      "rich": 10355,
      "hò": 10356,
      "tc": 10357,
      "california": 10358,
      "nấm": 10359,
      "xinh": 10360,
      "micro": 10361,
      "##ty": 10362,
      "##ure": 10363,
      "james": 10364,
      "bọc": 10365,
      "##up": 10366,
      "bê": 10367,
      "washington": 10368,
      "andre": 10369,
      "israel": 10370,
      "bùng": 10371,
      "ver": 10372,
      "bắp": 10373,
      "bể": 10374,
      "lãm": 10375,
      "gom": 10376,
      "##ez": 10377,
      "bỗng": 10378,
      "vĩnh": 10379,
      "cắm": 10380,
      "ir": 10381,
      "ngoan": 10382,
      "##vis": 10383,
      "khôn": 10384,
      "henry": 10385,
      "son": 10386,
      "quê": 10387,
      "##elle": 10388,
      "##ence": 10389,
      "đáy": 10390,
      "##bs": 10391,
      "đạc": 10392,
      "khơi": 10393,
      "##asa": 10394,
      "ưa": 10395,
      "sar": 10396,
      "xà": 10397,
      "miêu": 10398,
      "cuộn": 10399,
      "bal": 10400,
      "##ric": 10401,
      "mổ": 10402,
      "fac": 10403,
      "##fo": 10404,
      "bát": 10405,
      "dr": 10406,
      "vuông": 10407,
      "nghịch": 10408,
      "khói": 10409,
      "xuân": 10410,
      "##yn": 10411,
      "don": 10412,
      "thắt": 10413,
      "vit": 10414,
      "nát": 10415,
      "kĩ": 10416,
      "cởi": 10417,
      "##eland": 10418,
      "phổi": 10419,
      "tv": 10420,
      "xưởng": 10421,
      "nhạt": 10422,
      "trừng": 10423,
      "tùng": 10424,
      "cạn": 10425,
      "angel": 10426,
      "##bia": 10427,
      "##po": 10428,
      "luân": 10429,
      "charles": 10430,
      "##ling": 10431,
      "pat": 10432,
      "tem": 10433,
      "hel": 10434,
      "trùm": 10435,
      "mary": 10436,
      "dâm": 10437,
      "##ena": 10438,
      "ur": 10439,
      "cúi": 10440,
      "ve": 10441,
      "virus": 10442,
      "lạm": 10443,
      "##ston": 10444,
      "quét": 10445,
      "chinh": 10446,
      "gác": 10447,
      "phím": 10448,
      "kí": 10449,
      "xám": 10450,
      "rẻ": 10451,
      "thoái": 10452,
      "ngụ": 10453,
      "nhũng": 10454,
      "vở": 10455,
      "with": 10456,
      "mòn": 10457,
      "apple": 10458,
      "nảy": 10459,
      "thèm": 10460,
      "kề": 10461,
      "thâm": 10462,
      "league": 10463,
      "mốc": 10464,
      "fe": 10465,
      "##ale": 10466,
      "carl": 10467,
      "cont": 10468,
      "mò": 10469,
      "gam": 10470,
      "nạp": 10471,
      "thổi": 10472,
      "robert": 10473,
      "##my": 10474,
      "ngợi": 10475,
      "fl": 10476,
      "##xi": 10477,
      "đẻ": 10478,
      "comp": 10479,
      "##ata": 10480,
      "jim": 10481,
      "##xt": 10482,
      "ngơi": 10483,
      "ww": 10484,
      "cắp": 10485,
      "thọ": 10486,
      "##berg": 10487,
      "chiết": 10488,
      "##ano": 10489,
      "##ines": 10490,
      "##ctor": 10491,
      "##ander": 10492,
      "ên": 10493,
      "ste": 10494,
      "##way": 10495,
      "nhóc": 10496,
      "herm": 10497,
      "mến": 10498,
      "##inc": 10499,
      "met": 10500,
      "ted": 10501,
      "đới": 10502,
      "##ini": 10503,
      "manh": 10504,
      "đắp": 10505,
      "##ione": 10506,
      "\"%": 10507,
      "##era": 10508,
      "hang": 10509,
      "lật": 10510,
      "màng": 10511,
      "##ald": 10512,
      "##ates": 10513,
      "##ational": 10514,
      "lou": 10515,
      "##ms": 10516,
      "##raz": 10517,
      "phế": 10518,
      "mat": 10519,
      "dạo": 10520,
      "des": 10521,
      "thề": 10522,
      "dì": 10523,
      "gro": 10524,
      "mus": 10525,
      "med": 10526,
      "##no": 10527,
      "mỏng": 10528,
      "##ago": 10529,
      "##mo": 10530,
      "sếp": 10531,
      "rock": 10532,
      "hol": 10533,
      "##mas": 10534,
      "nôn": 10535,
      "win": 10536,
      "khoác": 10537,
      "mông": 10538,
      "lam": 10539,
      "bur": 10540,
      "quãng": 10541,
      "mầm": 10542,
      "lat": 10543,
      "##he": 10544,
      "nghiêng": 10545,
      "dàn": 10546,
      "##ings": 10547,
      "nâu": 10548,
      "##ebo": 10549,
      "thoáng": 10550,
      "##ix": 10551,
      "ngột": 10552,
      "cắn": 10553,
      "toa": 10554,
      "big": 10555,
      "lúa": 10556,
      "bọ": 10557,
      "##ram": 10558,
      "ye": 10559,
      "nầy": 10560,
      "mụn": 10561,
      "off": 10562,
      "##be": 10563,
      "khoá": 10564,
      "ốm": 10565,
      "log": 10566,
      "rỗng": 10567,
      "kiệt": 10568,
      "##wood": 10569,
      "##ght": 10570,
      "mỡ": 10571,
      "##sp": 10572,
      "gãy": 10573,
      "lờ": 10574,
      "##oph": 10575,
      "lăn": 10576,
      "đỗ": 10577,
      "giặt": 10578,
      "kẹt": 10579,
      "đắn": 10580,
      "(\"": 10581,
      "dốc": 10582,
      "rươ": 10583,
      "##we": 10584,
      "họng": 10585,
      "bèn": 10586,
      "cup": 10587,
      "đực": 10588,
      "mexico": 10589,
      "##đt": 10590,
      "gạch": 10591,
      "rồng": 10592,
      "cưng": 10593,
      "xích": 10594,
      "##que": 10595,
      "##ora": 10596,
      "nhĩ": 10597,
      "##amp": 10598,
[...]
